#version: 0.2
Ð °
Ð ½
Ñ į
Ð ³
Ð »
Ñ Ģ
Ð ¾
Ð ¸
Ð ´
Ð ¹
Ġ Ñ
1 0
Ñ ĥ
Ġ Ð
1 2
1 4
Ò ¯
Ñ Ĥ
Ñ ģ
1 3
Ñ ħ
Ó ©
1 1
2 0
1 5
1 6
Ð¸ Ð¹
Ð ¼
1 7
1 9
1 8
ĠÐ ±
2 3
Ð° Ð½
2 4
2 5
Ð° ÑĢ
Ñ ĭ
2 6
ĠÑ ħ
2 7
Ð ¶
2 8
2 9
Ð ²
3 0
Ð° Ð¹
Ñį Ñį
3 4
3 5
3 6
Ð¸Ð¹ Ð½
3 7
Ð° Ð»
Ð¾ Ð»
Ñĥ Ñĥ
Ð µ
Ð° Ð³
3 9
Ð¾ Ð½
Ñ ĩ
ĠÑ Ĥ
3 8
Ġ Ð½
4 5
w i
k i
wi ki
2 2
4 0
Ñ Į
4 6
4 8
4 7
4 9
2 1
Ò¯ Ò¯
Ñĭ Ð½
Ñį Ð³
5 7
5 8
5 0
5 6
Ñį Ð½
5 9
Ð° Ð°
Ñį ÑĢ
6 0
7 9
7 8
6 8
6 9
Ð¾ ÑĢ
Ð ±
7 0
3 3
Ñ Ĩ
Ñį Ð»
Ġ Ð´
9 8
Ñ Ī
Ð¸ Ð»
10 1
6 7
Ð ·
ĠÐ± Ð°Ð¹
9 0
Ġ Ð³
Ð¸ Ð½
Ð° Ð¼
8 8
6 6
7 7
ĠÑ ģ
5 5
8 0
4 4
9 9
o r
Ð º
3 2
Ð° Ñħ
e d
i a
ĠÐ ·
t t
Ó© ÑĢ
h tt
htt p
/ /
: //
ed ia
or g
m n
p edia
wiki pedia
ĠÐ½ ÑĮ
Ð¾ Ð³
7 6
3 1
5 4
ÑĥÑĥ Ð»
8 9
Ò¯ Ð¹
Ð¸Ð¹ Ð³
ĠÑ ĥ
Ð° Ð´
Ñģ Ð°Ð½
8 6
ĠÐ± Ð¾Ð»
9 7
8 7
Ñį Ñħ
6 4
Ñį Ð´
6 5
Ó© Ð³
Ð° Ð°ÑĢ
Ó© Ð½
ĠÐ ¼
7 5
9 5
4 3
Ñĭ Ð³
9 6
8 5
Ñĥ ÑĢ
ÑĥÑĥ Ð´
4 2
Ñ ı
ÑįÑį ÑĢ
Ð° Ð²
5 3
7 4
9 4
8 4
Ò¯ ÑĢ
0 4
6 3
Ó© Ð»
Ð¸ ÑĢ
Ð¾ Ð¾
Ðµ ÑĢ
Ñį Ð¼
Ð¾ Ð¹
Ð ¥
Ñģ ÑįÐ½
0 2
7 3
5 2
Ġ Ò¯
9 3
Ñį Ð¹
8 3
0 1
6 2
Ð ¿
Ð° Ð¶
Ð³ Ð¸Ð¹Ð½
ĠÑ Ī
ÑĤ Ð°Ð¹
0 3
5 1
Ð° Ð°Ð½
Ð ¢
8 2
0 9
7 2
0 5
Ð½ Ð¸Ð¹
Ð¾ Ñħ
Ð° Ñģ
Ð¾ Ð¼
0 6
Ñĥ Ð»
0 7
0 8
9 2
Ð° ÑĤ
4 1
Ò¯Ò¯ Ð»
Ð¸ Ð³
ÑĤ ÑįÐ¹
0 0
Ð¾ Ð´
Ó© Ó©
Ð Ĳ
Ð ľ
6 1
Ð¶ ÑįÑį
7 1
Ð½ Ð´
Ð´ Ð°Ð³
Ð½ Ñĭ
9 1
Ð ĳ
8 1
ĠÑ Ĩ
1 12
Ð³ Ò¯Ð¹
Ñģ ÑĤ
Ġ Ð¾ÑĢ
Ò¯Ò¯ Ð´
10 2
Ð» Ð°Ð³
10 3
Ð³ Ð°
Ñį Ð²
10 5
Ð Ń
Ð ¡
Ð°Ð° Ñģ
1 13
ĠÑ ĩ
Ð½ Ð°
20 20
1 14
10 4
ĠÑħ Ò¯
Ð¸ Ð¼
Ð°Ð» ÑĤ
Ñį Ð¶
Ñģ Ð¾Ð½
Ó© Ð²
Ð¸ Ð´
Ñį Ñģ
Ġ Ð¾Ð½
Ð¾ Ð²
ÑįÑĢ ÑįÐ³
10 6
Ñĥ Ñģ
ÑĤ Ð³
â Ģ
ĠÑ ı
Ó© Ó©ÑĢ
Ð Ŀ
Ð¸ Ñħ
1 10
Ð Ķ
Ð¸ Ðº
11 6
ÑįÑį Ñģ
Ð¾Ð½ Ð³
10 7
10 9
Ðµ Ð½
ĠÐ± Ò¯
Ð¾ ÑĤ
Ð°Ð» Ð´
ĠÑ İ
Ð° ÑĪ
20 21
Ñ İ
Ð ĵ
Ð´ ÑįÐ³
Ò¯Ð¹ Ð»
ĠÑİ Ð¼
10 8
Ð» ÑįÐ³
Ñĥ Ð²
Ð £
Ð°Ð½ Ð´
11 1
ĠÑĥ Ð»
Ñ Ħ
11 5
ÑĥÑĥ ÑĢ
Ð¾ Ð¾ÑĢ
ĠÐ±Ð°Ð¹ Ð½Ð°
12 0
11 8
Ð ļ
Ñĥ Ð´
Ñ ĳ
Ð³ ÑĥÑĥÐ»
11 9
12 9
11 7
ĠÑħ Ð°Ð¼
Ð½ Ñį
Ð¾ Ñģ
ĠÐ³ Ð°ÑĢ
ĠÐ º
13 0
ÑįÑį Ð»
Ġ Ð°Ð¶
ĠÐ ¶
12 7
12 5
Ð° Ñı
Ð¾Ð½Ð³ Ð¾Ð»
Ó© Ñħ
12 6
14 0
12 4
Ó© Ð¼
ĠÐ½ ÑįÐ³
Ð° Ð·
Ð¸ ÑĤ
Ġ Ð¾Ð»
Ð ĺ
2 15
12 8
Ð» Ð¸Ð¹Ð½
ÑįÑĢ Ð³
Ñĥ ÑĤ
ĠÐ± Ð¸
ĠÐ ľ
Ð°Ð½ Ð³
Ð°Ð³ Ð´
ĠÐ±Ð¾Ð» Ð¾Ð½
Ò¯Ò¯ Ð½
13 4
12 3
Ó© Ð´
Ð°Ð¹ Ð½
14 2
13 7
Ġ Ð°Ð¼
2 16
13 9
ĠÑĥ ÑĢ
Ġ (
2 29
Ñĥ Ð¹
Ġ Ð°Ð²
ÑįÐ½ Ñį
2 20
2 25
Ð ŀ
2 19
2 24
2 27
2 18
ĠÒ¯ Ðµ
12 1
Ġ Ð°ÑĢ
ĠÐ±Ð°Ð¹ ÑģÐ°Ð½
ĠÐ ¥
2 28
Ó©Ó© Ð´
Ñĩ Ð»
ĠÑħ Ð°ÑĢ
Ð³ Ð°Ð»
Ð³ Ð°Ð°
Ð¾ Ñĳ
Ñĥ Ð½
ĠÑĥÐ» Ñģ
2 17
13 3
Ð³ Ð°Ð°ÑĢ
ĠÐ Ĳ
14 8
ÑĤ Ð¾Ð¹
13 6
15 0
Ñĩ Ð¸Ð½
12 2
2 23
3 35
Ġ Ò¯Ð¹Ð»
Ðµ Ð¼
Ñħ Ð¸Ð¹
13 5
2 26
Ð³ ÑįÑįÑĢ
14 7
ÑĮ Ð´
ĠÑħ ÑįÑĢÑįÐ³
Ġ ÑįÑĢ
20 19
14 6
3 23
Ð³ ÑįÑį
3 17
3 27
3 20
Ġ Ó©Ó©ÑĢ
16 0
14 5
13 8
3 29
ĠÐ ĳ
âĢ Ŀ
14 4
14 9
Ð°ÑĢ ÑĭÐ½
13 2
ĠÐ± Ð°Ð³
3 28
3 24
ĠÑĤ Ó©ÑĢ
3 38
ĠÐ±Ð°Ð¹ Ð´Ð°Ð³
Ñĥ Ñħ
ĠÐ± Ó©Ð³
3 25
Ò¯Ò¯ ÑĢ
Ð¾Ñħ Ð¸
3 36
Ð Ł
10 0
ĠÑħ ÑįÐ»
Ðµ ÑĤ
3 39
15 6
ĠÐ±Ó©Ð³ Ó©Ó©Ð´
3 34
Ġ Ð¸Ñħ
Ð¸ ÑģÑĤ
ĠÑħ ÑĥÐ²
3 37
17 0
ĠÐ± Ð°ÑĢ
ĠÑħ Ò¯ÑĢ
15 7
15 8
18 0
3 30
ĠÑĤ Ð¾Ð³
Ð¸ Ñģ
13 1
16 7
ÑįÐ´ ÑįÐ³
Ó ¨
Ð°Ð¼ Ð¶
Ð°Ð°Ð½ Ñĭ
ĠÐ´ Ð°ÑĢ
Ð» ÑįÐ»
15 9
Ð¾Ð½ Ð´
ĠÐ°Ð¶ Ð¸Ð»
3 26
19 0
20 0
Ð Ĺ
Ġ ÑįÑħ
Ò¯ Ð½
ĠÑħ ÑįÐ¼
Ò ®
16 5
ĠÐ ¿
Ð ¨
15 5
ĠÐ± Ð°
ÐŃ Ð½Ñį
Ðµ Ð»
3 19
ĠÐ± Ò¯ÑĢ
3 18
ĠÒ¯ Ð·
Ð° Ð°Ð³
16 6
ÑĥÑĥÐ» Ð°Ñħ
e r
Ð´ ÑįÑį
Ð± Ð°ÑĢ
Ð´ Ð°Ð°
ĠÐ½ ÑįÑĢ
23 0
25 6
ĠÐ³ ÑįÐ¶
Ġ 19
Ð´ Ð»
14 3
16 8
25 0
ÑĢ Ð¾
Ñĩ Ð¸Ð»
Ñĥ Ð¼
Ñħ Ð°Ð½
15 4
Ð° Ðº
18 9
Ñģ Ó©Ð½
19 7
Ðµ Ðº
16 9
Ð ĸ
14 1
ĠÑħ Ð¸Ð¹
30 0
Ð¸ Ð¶
Ð°Ð½ Ñħ
24 0
18 8
Ð°Ð° Ð´
Ð¾Ð» Ð±
ÑįÑį Ð´
Ò¯Ò¯ Ñģ
Ð¾Ð½ Ñĭ
17 5
16 4
Ð¸Ð³ Ð»
17 7
Ñį ÑģÑįÐ½
17 6
29 0
19 6
ĠÐ¾Ð½ Ð´
17 9
15 3
ĠÐ³ Ð°Ð·
19 9
23 6
29 9
ĠÐ ¡
18 4
ĠÐ±Ð°Ð¹ Ð³ÑĥÑĥÐ»
ĠÐ¼ ÑįÐ´
20 4
19 4
Ð Ľ
15 1
27 0
Ñį ÑĤÐ³
Ð² ÑįÑĢ
Ð½ Ð¾
23 8
ĠÑı Ð²
Ð¾Ð¾ Ñģ
20 18
16 1
26 8
28 0
17 4
26 0
18 3
18 6
Ð°Ð¹ ÑĢ
20 8
Ñĩ Ð´
18 7
ĠÑĪ Ð¸Ð½
17 8
Ð°Ð¹ Ð»
35 0
23 5
24 6
25 8
37 0
ĠÐ¾Ð» Ð¾Ð½
Ð¾ Ð¶
20 6
20 9
16 2
19 8
30 7
18 5
28 7
Ð¸ Ð·
25 9
20 5
Ð¶ Ð¸Ð»
Ġ âĢ
Ð» ÑįÑħ
Ġ Ó©Ð½
16 3
25 7
Ġ Ó©Ð³
28 6
ĠÑĤ ÑĥÑģ
23 9
Ðµ Ñģ
19 5
24 4
Ð» Ð¾Ð³
27 8
26 9
ÑįÑį Ð½
ĠÐ ¢
34 0
24 3
23 7
ÑįÐ» ÑĤ
Ġ "
27 7
Ð¾Ñĳ ÑĢ
Ð°ÑĢ ÑĤ
Ò¯Ò¯ Ñħ
28 5
29 8
ĠÐ±Ò¯ ÑĤ
30 6
ÑĥÑĥÐ´ ÑĭÐ½
Ġ Ð°Ð»
Ò¯ Ð»
29 7
22 1
i n
30 9
36 0
Ġ Ñį
24 7
ĠÑĤ Ð°Ð»
4 38
Ġ Ð¸ÑĢ
24 9
27 9
29 6
Ġ ÑįÐ½Ñį
15 2
28 9
30 8
Ð° Ð°Ð»
Ð ¦
Ð³ Ð°Ð½
20 7
27 5
Ð² Ð°ÑĢ
24 8
23 4
2 10
ÑįÐ½ Ð´
25 4
26 6
2 14
ĠÐ± Ñĥ
34 6
Ġ ÑįÑģ
27 4
ĠÑģ ÑĥÑĢ
19 3
24 5
Ð¾Ð» Ð´
Ñģ Ð½
ĠÐ´ ÑįÑįÑĢ
Ġ Ð°ÑĪ
Ð¸ ÑĪ
ĠÑĤ ÑĥÐ»
Ġ Ð¸Ð»
Ò¯Ò¯ Ð½Ð¸Ð¹
Ð´ ÑģÑįÐ½
23 1
27 6
ĠÑħÒ¯ Ð½
Ñĩ Ð¸Ð´
Ð³ Ð°ÑĢ
ÑĤ ÑĢ
25 2
ĠÐ Ķ
35 7
Ð ł
Ð §
Ð¸ Ð²
26 5
Ðµ Ð¹
29 5
35 6
17 3
ÑĥÑĥ Ð½
2 12
Ġ Ð»
ĠÐ ļ
ÑĤ ÐµÑĢ
35 5
36 8
26 7
35 9
18 1
23 2
25 5
28 8
ĠÐ±Ð°Ð¹ Ñħ
Ñı Ð½
26 2
34 7
Ð¾Ð» ÑĤ
Ð¾Ð³ Ð´
20 3
18 2
30 5
34 9
o n
17 2
37 6
37 7
Ð Ĵ
35 8
25 3
26 1
ĠÐ¾Ð½ Ñĭ
17 1
23 3
22 2
28 1
Ð´ ÑįÑħ
24 1
5 45
Ñĥ Ð³
ĠÐ±Ð¾Ð» ÑģÐ¾Ð½
2 13
4 45
Ð» Ð°Ñħ
20 1
34 8
ĠÑģ Ð°Ð½
ĠÐ±Ð¾Ð» Ð¾Ñħ
34 4
36 5
Ð¾Ð» ÑĨ
Ó©Ð³ Ð¶
Ò¯Ò¯Ð» ÑįÑħ
Ð´ Ð¾Ð³
26 3
Ð¾ÑĢ Ñħ
ÑĪ Ð¸Ð½
Ð» ÑĭÐ½
19 1
28 3
ÑĥÑĥÐ´ ÑĭÐ³
4 46
Ð ¤
Ð³ Ó©
30 4
36 9
Ñĥ Ð½Ð´
Ġ Ó©ÑĢ
ĠÒ¯Ðµ Ð´
4 47
Ð´ Ð²ÑįÑĢ
Ð¸ Ñĩ
35 4
Ñİ Ñĥ
ĠÐ±Ð¸ Ñĩ
29 1
25 1
ĠâĢ ľ
19 2
4 39
ĠÐ±Ð°Ð¹ Ð³Ð°Ð°
Ġ 20
Ġ Ð°Ð½Ñħ
33 3
6 48
6 50
30 1
29 3
36 7
ĠÑħ ÑįÑģ
4 48
ĠÐ±Ð¾Ð» Ð¾Ð²
ĠÑħ Ð¾Ð»Ð±
ĠÐ±Ð°Ð¹ Ð²
28 4
Ð¾ Ð¾Ð³
34 5
ĠÑħ Ð¾ÑĳÑĢ
ĠÐ½ Ð¸Ð¹
20 2
Ðľ Ð¾Ð½Ð³Ð¾Ð»
3 12
Ð³ ÑįÑĢ
24 2
36 6
37 4
3 13
ĠÐ· Ð¾ÑħÐ¸
ĠÐ ĵ
36 4
26 4
27 2
ĠÐ¶ Ð¸Ð»
5 46
29 4
Ð´ Ð°Ð»
ÐµÐ½ ÑĤ
3 10
6 46
Ñĩ Ð¸ÑĢ
29 2
40 2
5 38
Ð» Ð°Ð½
27 3
Ð°Ð» ÑĭÐ½
ĠÐ±Ð¾Ð» Ð½Ð¾
37 8
5 59
ÑĤ Ð°ÑĢ
33 1
5 48
6 47
ĠÐ½ ÑĥÑĤ
3 16
Ð»Ð°Ð³ Ð°
5 39
7 47
3 15
3 14
ĠÐ± ÑĥÑģ
Ð°Ð´ Ð°Ð³
Ñį ÑĤ
ĠÐľ Ð¾Ð½Ð³Ð¾Ð»
ĠÐ±Ñĥ ÑİÑĥ
ÑĥÑĥÐ» ÑģÐ°Ð½
Ð¾ Ðº
Ó©Ð³ Ð´
36 1
ĠÐ°ÑĪ Ð¸Ð³Ð»
6 56
ĠÑ Ħ
Ð¾Ð¼ Ð¿
Ó©Ð² Ð»
7 78
9 68
ÑĥÑĥÐ» Ð¶
4 49
37 5
Ð¸ÑģÑĤ ÐµÐ¼
Ñħ Ð°ÑĢ
20 17
ĠÑħ Ð¾ÑĤ
7 79
ÑĤ Ð°Ð½
34 1
Ġ ÑĢ
30 2
30 3
ĠÑĤ Ð¾Ð´
33 2
Ð¾ÑĢÑħ Ð¾Ð¹
5 49
5 50
6 60
Ñį ÑĨ
4 40
6 59
6 79
7 59
a n
ĠÐ´Ð°ÑĢ Ð°Ð°
2 11
37 1
ĠÑĤ ÑįÐ¼
Ð°Ð³ Ñĩ
5 56
Ð± Ð°Ð¹
ĠÐ· ÑįÑĢÑįÐ³
ĠÐ¼ Ó©Ð½
6 58
Ð³ Ð¸Ð¹Ð³
ĠÐ £
27 1
ĠÐ³ Ð¾Ð»
Ó©Ð» ÑĤ
7 39
Ð¾ Ð¾Ð»
Ð°Ð¹ Ð¼
Ð¸Ð» ÑĨ
7 38
Ó© Ñģ
7 50
7 68
ĠÑĤÐ¾Ð³ ÑĤ
7 56
8 45
ÑĢ ÑĭÐ½
Ð² Ð°Ð½
35 2
ĠÑĥ Ð´
5 40
Ð°Ð½ Ñĭ
28 2
35 1
37 2
ĠÐ´ Ð°Ñħ
ĠÒ¯ Ð½Ð´
ĠÑĨ Ð°Ð³
Ġ Ð¾Ð¹
Ð¸Ð» Ð³
8 48
8 57
ĠÐ· Ð¾ÑĢ
ĠÑĩ Ð°Ð´
6 57
9 45
Ð» Ð°Ð°
7 40
Ó© Ó©Ð»
6 38
6 45
8 60
Ð¾Ð» Ð³
9 46
9 98
ÑĤ Ð°Ð´
34 2
ĠÑĤ Ð¾Ð¼
6 68
9 79
ĠÑħ Ó©Ð³Ð¶
Ð¶ Ð¸Ð½
ĠÐ³ ÑįÑģÑįÐ½
ĠÐ· Ð°Ñģ
Ð¾Ð¼ Ð¶
ĠÑĤÐ¾Ð³ Ð»
5 58
ĠÐ´ ÑįÐ»
ĠÐ½ Ð°ÑĢ
7 45
9 48
9 70
37 3
ĠÐ±Ð¾Ð» Ð³
ĠÑħÐ°Ð¼ Ð³Ð¸Ð¹Ð½
Ð± ÑįÑĢ
ĠÑĥÐ»Ñģ ÑĭÐ½
7 46
7 70
e n
9 69
35 3
9 49
Ñħ Ð¸Ð¹Ð½
ĠÑħ ÑįÐ´
ĠÐ³Ð°Ð· Ð°ÑĢ
6 39
Ð´ ÑĭÐ½
7 58
8 69
Ġ Ó©Ð¼
ĠÐ³ ÑįÐ´ÑįÐ³
ĠÐ· Ð°ÑĢ
Ð°Ð°Ð½ Ð´
Ð» ÑįÐ½
8 90
9 50
Ñħ Ð½
Ð¢ ÑįÑĢ
8 58
8 56
8 98
ĠÐ Ŀ
ĠÑĤ ÑĥÑħ
ÑĢ Ð°Ð¼
Ð³Ð° Ð°Ð»
9 59
a r
Ġ Ò¯Ò¯Ñģ
ĠÐ Ł
5 57
8 59
34 3
ĠÐ³ ÑįÑĢ
ÑĢ Ð¾Ð³
Ðµ Ð²
Ñĩ Ð¸Ð¹Ð½
8 38
8 49
36 2
37 9
ĠÑĤ Ó©Ð»
ĠÑħÑįÐ¼ Ð¶ÑįÑį
6 70
ĠÑħÒ¯ÑĢ ÑĤ
3 11
9 60
Ð°Ð»ÑĤ ÑĭÐ½
ÐµÑģ Ñģ
6 40
Ò¯ Ð¼
ÑĮ Ñİ
ĠÐ³ ÑįÑħ
ĠÐ ŀ
ĠÑĤ ÑįÑĢ
Ġ 2
36 3
ĠÐ· ÑĥÑĢ
Ò¯Ò¯Ð´ Ð¸Ð¹Ð½
6 69
8 39
7 69
Ġ Ò¯ÑĢ
ÑĢ Ð°Ð½
ÑįÐ¼ Ð¶
9 57
7 60
8 50
8 78
Ð¼ Ð°ÑĢ
Ð°Ð³ ÑĤ
ÑįÐ³ Ð´
7 49
9 58
t i
Ð° ÑĨ
ĠÐ± Ð¾Ð´
ĠÐ´ ÑĥÑĥ
ÑĪ Ð¸Ð»
ĠÑı Ð»
ĠÑįÑĢ Ñħ
ÑĢ Ð¸
ĠÐ±Ð°Ð¹ ÑĢ
Ð¥ Ð°ÑĢ
7 48
7 57
8 70
ĠÐ³ Ð°Ð´
6 49
8 40
8 79
ĠÐ· Ò¯Ð¹Ð»
ĠÑĤÐ¾Ð´ Ð¾ÑĢÑħÐ¾Ð¹
ĠÐ ĺ
ĠÑħ ÑĥÑĢ
ĠÑģ Ð¸ÑģÑĤÐµÐ¼
Ó©Ð» Ð´
6 78
Ð¸Ð½ Ð³
Ð¾Ð» Ð¾Ð³
Ðľ Ó©Ð½
Ð» Ð°Ð»
Ð»Ð°Ð³ Ð´
ĠÑį Ð·
5 47
9 47
9 56
Ò¯Ò¯Ð´ Ð¸Ð¹Ð³
Ò¯ Ð³
Ò¯Ò¯Ð» Ð¶
ÑįÐ³ ÑĤ
ĠÑ ĳ
Ð°ÑĢ Ñħ
9 39
9 38
Ñı ÑĤÐ°Ð´
8 67
Ġ Ð°
ĠÐ µ
Ð°Ð¹ Ð´
ÑįÑį Ð³
Ò¯Ò¯Ð½ Ð¸Ð¹Ð³
Ð² ÑįÐ»
Ð°Ð» Ð³
55 4
44 4
ÑįÑį Ñħ
Ġ ÑįÐ»
ÑĮ Ñģ
a l
Ġ Ð°Ð³
ĠÐ ²
20 13
8 66
ĠÐ Ľ
Ñħ Ð°Ð¼
ÐĲ Ð»
e s
Ð¾Ð¾ Ð´
ĠÓ©Ð¼ Ð½
ĠÐ Ĺ
44 1
Ġ ÑįÐ´
Ð´ Ó©ÑĢ
Ñĥ Ð³Ð°Ð°ÑĢ
44 2
ĠÐ¼ÑįÐ´ ÑįÑįÐ»
Ð ¯
Ð¼ Ð¸Ð¹Ð½
ĠÑħÐ°Ð¼ ÑĤ
8 47
8 46
ĠÑħ Ð°Ð°Ð½
ĠÑģ ÑĥÐ´
Ð¸ÑĢ Ð´
ĠÐ°Ð¼ ÑĮÐ´
6 67
55 3
Ð¸Ðº Ð¸Ð¹Ð½
54 3
9 78
Ð³ ÑįÐ½
Ð¾ÑĢ ÑĤ
Ð» Ð°Ð¶
Ð¾ ÑĨ
44 3
ĠÐ¼ Ð°ÑĪ
ÑĢÐ¾Ð³ ÑĢÐ°Ð¼
8 77
55 1
Ð¸Ð½ Ñĭ
Ñģ ÑĭÐ½
Ðµ Ð´
7 67
55 2
Ð¸ Ð°Ð»
20 16
ĠÐ±Ð¾Ð» Ð¾Ð¼Ð¶
ÑĢÐ¾ ÑĨ
Ð» Ð³
ĠÐ´ Ð°Ð²
ĠÑħÒ¯ Ñĩ
ĠÐ±Ò¯ Ñħ
Ġ Ð°Ð»Ð´
Ð³ Ó©Ð½
ĠÐ Ń
ĠÑħ Ñĥ
ĠÐ· Ó©Ð²
ĠÐ°Ð¶Ð¸Ð» Ð»Ð°Ð³
ĠÐ· Ð°Ñħ
ĠÐº Ð¾Ð¼Ð¿
Ó©Ð´ Ó©Ð»
Ð¶Ð¸Ð» ÑĤ
ĠÑħ ÑįÐ²
ÑĮ ÑĨ
ÑįÑĢ Ð³Ð¸Ð¹Ð½
ÐĲ ÑĢ
Ð£ Ð»
Ð° ÑģÐ°Ð½
Ñģ Ð½Ñĭ
ĠÐ±Ð°Ð¹ Ð¶ÑįÑį
Ð°Ð³Ð´ ÑģÐ°Ð½
Ðµ ÑħÐ½
ĠÑĤ ÑįÐ´
Ð» Ð¸Ð¹Ð³
ÑįÐ² Ñģ
Ð´ ÑįÐ»
ÑĤ ÑįÐ½
ĠÑģ Ð°ÑĢÑĭÐ½
ĠÒ¯ Ð»
Ó©Ó© Ñģ
Ñģ ÑĢ
Ð¸Ð³ Ð´
Ð± Ò¯
ÑĥÑĥ Ð½Ñĭ
Ð¸Ð½ Ð¾
Ð° Ð±
ÑĤ Ð°Ð»
Ð½ Ð³
ĠÐ±Ð¾Ð» Ð¶
Ò¯Ò¯Ð» ÑģÑįÐ½
8 99
9 90
Ð² Ð°Ð»
Ð³Ð° ÑĨ
55 5
ĠÐ¾ÑĢ Ð¾Ð»ÑĨ
Ð¾ Ð¾Ð½Ñĭ
ÑĥÑĥÐ´ Ð°Ð´
Ñĩ Ð¸Ð¼
ĠÐ´ Ð¾ÑĤ
Ð¾Ð³ ÑĤ
ĠÐ½Ð¸Ð¹ ÑĤ
Ð¸ ÑĥÐ»
Ó© Ó©Ð½
9 40
Ð¾ ÑĪ
ĠÑĤ Ó©Ð²
ĠÑĤ Ò¯Ò¯Ð½Ð¸Ð¹
Ð¾Ð¾ÑĢ Ð¾Ð½Ð´
ĠÑħ Ð¾ÑĢ
ĠÐ± Ð¸Ð¹
ĠÑħ Ð¾Ð¹
ÑĥÑĥÐ» Ð°Ð½
Ð¸ Ð°
Ð°Ñħ Ð°Ð´
Ð» ÑĭÐ³
ĠÐ ĸ
ĠÑĤ Ò¯Ò¯Ñħ
ĠÐ´ ÑĥÐ½Ð´
ĠÒ¯Ð¹Ð» Ð´Ð²ÑįÑĢ
54 2
ĠÑģÑĥÑĢ Ð³ÑĥÑĥÐ»
9 77
54 1
ĠÓ©Ð½ Ð´Ó©ÑĢ
i c
Ð¸Ð½ Ð´
ĠÑģ Ð°Ð»
Ġ Ð°Ñģ
Ġ Ó©Ð²
ĠÐ ł
66 2
ĠÑĪÐ¸Ð½ Ñį
ÑįÐ³ Ñĩ
8 68
Ġ ÑįÐ¼
Ð´ Ó©Ð³
ĠÐ ¨
39 9
Ð± Ð¾Ð»
ĠÑģ Ð°Ð¹
Ð³ Ð°Ð¶
Ð ķ
ĠÐ Ĵ
Ó©Ð½ ÑħÐ¸Ð¹
Ð´ Ð¸Ð¹Ð½
Ñħ Ó©Ð½
ĠÑħ Ð¾Ð¾ÑĢÐ¾Ð½Ð´
Ð°Ð» ÑĤÐ°Ð¹
ĠÑĤ Ð°Ð²
Ð°Ð³ Ð½
ĠÐ· Ð°Ð¼
Ð± ÑįÐ»
ÑĢÐ¾ÑĨ ÐµÑģÑģ
Ò¯ Ð½Ð´
Ñħ Ð¾Ð½
Ð°Ð³ Ð¸Ð¹Ð½
ĠÐ±Ð¸ Ðµ
Ð¾ Ð¾Ð½
ĠÐ± ÑĥÐ¹
Ò¯Ð¹ ÑĨ
ĠÑħÒ¯ Ð¼
ĠÓ©Ó©ÑĢ Ð¸Ð¹Ð½
ĠÑĪÐ¸Ð½ Ð¶
Ġ 1
ÑįÐ½ Ñħ
Ð¶ Ð¸Ð¹Ð½
Ñĩ ÑĥÑĥÐ´
00 0
Ó©Ð¼ Ð±
Ð° Ð¿
Ð°Ð°ÑĢ Ð´
ĠÐµ ÑĢ
Ð°Ð½ Ð°
ĠÐ±ÑĥÑģ Ð°Ð´
s t
ĠÐ´ ÑĥÑĢ
ĠÐ±Ð°Ð¹ Ð´Ð»
ÑĥÑĥÐ» Ð´Ð°Ð³
ĠÑĥ ÑĥÐ»
Ġ 3
Ġ Ð°Ð¹Ð¼
ÑįÐ» Ð´
ĠÑģ ÑĥÐ¼
ĠÐ¼ Ð¾Ð½Ð³Ð¾Ð»
ĠÑħÑįÑĢÑįÐ³ Ð»ÑįÐ³
ĠÑįÑħ ÑįÐ»
Ġ S
ĠÐ½ÑįÐ³ ÑįÐ½
_ (
o l
ÑĢ ÑįÐ³
Ð¸ Ð¿
Ð¼ ÑĭÐ½
39 2
ĠÑĤ Ð¾Ð¾
Ðŀ ÑĢ
ĠÑħÑįÐ» Ð±ÑįÑĢ
9 67
Ð¾ Ð¿
Ò¯Ð» Ð¶ÑįÑį
ÑĢ Ð¸Ð¹Ð½
ĠÐ½ Ð°Ñģ
65 1
Ġ Ð¾Ð´
Ó© Ó©Ð³
ĠÐ½ ÑįÐ¼
50 0
ĠÐ´ Ò¯ÑĢ
ĠÑģ ÑįÑĤÐ³
ĠÑĪ Ð¸Ð»
ĠÐ´Ð°Ñħ ÑĮ
3 21
Ð¾Ñħ Ð¸ÑĢ
ĠÐ°Ð² Ñĩ
ĠÐ°Ð½Ñħ Ð½Ñĭ
ĠÐ±Ð¾Ð»Ð¾Ð² Ñĩ
Â »
ĠÐ ¤
Ð°ÑĢ Ð´
ĠÑħÒ¯ÑĢÑĤ ÑįÐ»
ĠÑħÑĥ Ð³Ð°ÑĨ
Ġ Ó©Ð´
Ð» Ð¾Ð½
39 0
39 4
Ð³ ÑįÐ»
Ð³ Ð°Ñħ
38 4
38 6
Ð± Ð°Ð°
Ġ ÑįÐ½
Ð½ Ñħ
Ð» ÑįÐ´ÑįÐ³
ĠÑħ Ñı
Ġ I
Ð¾ Ð±
39 1
66 4
ĠÑįÑģ Ð²ÑįÐ»
Ð½ ÑįÑįÑģ
38 5
57 3
ÐµÑĢ Ð¼
Ð¾ ÑģÐ¾Ð½
Ò¯ Ð·
Ñħ ÑįÐ»
ÑĪ Ð¸Ð³
38 9
45 9
ĠÐ³ ÑĥÑĢ
66 1
ĠÑģ ÑĥÑĥÑĢ
ĠÐ±Ð°Ð³ Ð°
ĠÐ½ÑĥÑĤ Ð°Ð³
a c
Ñģ Ð¸Ð¹Ð½
64 1
ĠÑĥÐ´ Ð¸ÑĢÐ´
Ġ 4
Ð°Ð½ Ð¸
ĠÑħ Ð°Ð½Ð³
39 8
ĠÐ³ Ò¯Ð¹ÑĨ
Ó©Ð» Ó©Ó©Ð»
3 22
Ġ Ð°Ñħ
46 3
ĠÐ¼ Ó©ÑĢ
Ð¾Ð´ Ð¾Ð³
38 2
ĠÑĥ ÑĤ
ĠÑĥ Ñħ
39 6
ĠÑĤ Ò¯ÑĢ
40 8
ĠÐ´ Ð°Ð¼Ð¶
64 3
ĠÐ¼ ÑįÑĤ
r e
45 6
40 3
40 9
46 5
66 3
ĠÐ· Ð°Ð³
Ġ C
Ñħ Ð°Ð°
Ñħ ÑĥÐ²
Ð°Ð½ ÑĤ
ĠÑĤ Ò¯
45 8
Ñ Ķ
76 1
76 5
ĠÑĥ Ð³
ĠÑħÑĥÐ² ÑĮÐ´
ÑĮÑİ ÑĤÐµÑĢ
ÑĢ Ð°Ð»
ĠÑħ Ð°Ð´
40 0
Ð³Ð° ÑģÐ°Ð½
ÐŃ ÑĢ
ĠÑħÐ°Ð¼ Ð³Ð°Ð°Ð»
ĠÒ¯Ðµ Ð¸Ð¹Ð½
Ò¯ Ð´
38 1
40 5
47 5
58 6
ĠÑħÑįÑģ ÑįÐ³
Ġ Ò¯Ò¯ÑĢ
Ñģ Ðº
38 8
Ð°Ñħ Ð³Ò¯Ð¹
Ð¸Ð¼ ÑĤ
ÑĩÐ» ÑįÐ½
ĠÐ¶Ð¸Ð» Ð¸Ð¹Ð½
Ð» ÑįÑį
40 7
ĠÐ´ Ð°Ð¹
66 5
ĠÑħÒ¯Ð¼ Ò¯Ò¯Ñģ
a t
Ñ Ĭ
ÑĤ ÑĭÐ½
Ó©Ð³ Ñĩ
ĠÐ±Ò¯ ÑħÐ¸Ð¹
ĠÐ°Ð» Ð±
e t
Ð» Ð´
Ðµ Ð³
38 3
50 2
Ð³Ð° Ð°Ð³
ĠÑħÒ¯ Ð½Ð´
ÑĩÐ´ Ð¸Ð¹Ð½
Ġ Ð°Ð´
Ñħ ÑįÐ³
Ð°Ð½ ÑĮ
39 7
46 7
58 3
50 7
ĠÐ´ Ð°Ð³
ĠÐ±Ð°Ð¹ Ð»Ð°Ð°
65 3
ĠÒ¯ Ð½
ĠÑĪ Ð°Ð°ÑĢÐ´
ÑĢÐ¾ Ð¿
ĠÐ¸Ð» Ò¯Ò¯
Ñį Ð¶ÑįÑį
Ð» ÑįÐ¶
Ñģ Ð³
39 5
38 0
48 1
47 1
49 2
50 1
ĠÑģ Ð¾Ð½
ĠÑģ Ð¾Ð½Ð³
ÑįÑħ Ò¯Ò¯
i s
Ñĥ Ð¶
ĠÐ §
Ò¯ Ñħ
ĠÐ± Ð¸Ð»
38 7
ÑĮ Ñı
48 0
57 9
58 2
50 9
64 2
ĠÑĪ Ð¸Ð¹
ÐĲ Ð¼
ĠÑħÑįÐ¼ ÑįÑįÐ½
ĠÐ¿ ÑĢÐ¾Ð³ÑĢÐ°Ð¼
Ð°Ð°Ð³ Ò¯Ð¹
45 2
46 2
46 9
47 9
ĠÐ±Ò¯ÑĤ ÑįÑįÐ»
ĠÑĤÑįÐ¼ Ð´ÑįÐ³
Ð» Ð¸
Ð´ Ð°ÑĢ
Ð´ ÑįÐ¶
ĠÐ± ÑįÐ»
45 4
46 4
ĠÒ¯ Ð³
Ġ Ð°Ð½Ð³
Ð¸Ð¹ Ð¼
48 3
49 1
49 3
56 8
60 2
66 6
65 2
Ñħ Ð¾ÑĢ
ĠÑħ Ó©ÑĢ
45 5
46 6
48 4
49 8
Ð± Ð°Ð»
ĠÑģ Ð°Ð¹Ð½
ÑĤÐ³ ÑįÐ»
r o
60 1
ĠÑĥ Ð´Ð°Ð°
ĠÐ±Ð¾Ð» Ð¶ÑįÑį
ÑĩÐ´ ÑĭÐ½
Ð³ Ð°Ð¹
Ñħ ÑįÑĢÑįÐ³
ĠÑħ ÑĥÑĥÐ»
69 0
ÑįÐ² Ñĩ
Ñİ ÑĥÐ»
ĠÐ£ Ð»
ÑĢ Ð°
58 9
Ð¼ ÑįÐ´
Ð¾Ð» ÑĭÐ½
49 0
60 0
Ð°Ð¼ ÑĭÐ½
ÑĥÑĥÐ» Ð°Ð»ÑĤ
Ò¯Ò¯Ð» ÑįÐ½
ÑĩÐ¸Ð» Ð³ÑįÑį
ĠÐ±Ð¸Ð» ÑįÑį
4 24
Ġ Ð¾
45 1
40 6
57 4
50 4
69 6
76 3
ĠÑĨ ÑįÑĢÐ³Ð¸Ð¹Ð½
ĠÑħÐ°ÑĢ Ð¸Ð»ÑĨ
ĠÑħÑįÐ´ ÑįÐ½
u s
Ð½ Ð¸Ð¹Ð³
ÑįÐ³ ÑĤÑįÐ¹
50 8
56 5
78 1
68 9
Ġ 10
Ð³ ÑįÐ´
Ð´ ÑĥÐ³Ð°Ð°ÑĢ
ĠÑĤ ÐµÑħÐ½
49 7
60 5
ÐµÑĢ ÑĤ
Ð¢ ÑįÐ´
ĠÐ±Ð°Ð³ ÑĤ
4 34
Ġ 5
Ñħ Ò¯
Ð°Ð½ ÑĨ
39 3
ÑĮ Ð¶
46 0
Ð°Ð¼ Ð±
ĠÓ©Ð¼Ð½ Ó©
l e
Ġ A
Ñħ ÑįÑį
Ñħ Ò¯Ò¯
45 7
Ð°Ñı Ð½
ĠÑĤÐ°Ð» Ð°Ð°ÑĢ
ĠÐ±Ð¾Ð»Ð¾Ð¼Ð¶ ÑĤÐ¾Ð¹
ĠÑĤ Ò¯Ò¯Ð½Ð¸Ð¹Ð³
48 9
47 8
50 5
60 7
68 0
ĠÐ´ ÑįÑįÐ´
Ó©Ð» Ó©Ó©
ĠÑį ÑĨ
Ñģ ÑĥÑĢ
ĠÑħ Ð°ÑĤ
ĠÑĤ Ð¾ÑħÐ¸
49 5
70 9
77 5
ĠÑĤÑĥÐ» Ð´
ĠÑĤÑįÐ¼ ÑĨ
Ð¸ Ð±
ĠÐ ¦
Ñħ ÑįÐ½
20 15
ĠÑħ Ó©Ð´Ó©Ð»
45 0
48 5
59 9
60 9
78 2
90 1
Ð°Ð¼ Ð´
ĠÑħÐ¸Ð¹ Ñħ
ĠÓ©Ð³ Ó©Ð³Ð´
Ñĥ ÑĪ
ÑĤ Ð¾Ð¼
ĠÑĤ ÑįÐ½
40 4
59 1
78 8
76 4
Ò¯Ò¯Ð´ ÑįÐ´
Ġ Ð¸Ð½
Ñħ Ò¯ÑĢ
46 8
47 6
47 7
49 6
58 7
56 3
67 6
ĠÑħÐ°Ð¼ Ð°Ð°ÑĢ
ĠÑħÐ¸Ð¹ Ð¶
ĠÐ·Ð°ÑĢ Ð¸Ð¼
Â «
Ġ P
Ñģ ÑĥÐ¼
Ð¼ Ó©ÑĢ
Ð°ÑĢ Ð³Ð°
40 1
48 6
47 2
50 3
59 7
76 2
Ò¯Ò¯Ð» Ð´ÑįÐ³
Ð¢ÑįÑĢ ÑįÑįÑĢ
ĠÑĤÑĥÑħ Ð°Ð¹
ÑĤ Ð¾ÑĢ
Ð°ÑĢ Ð»
47 0
80 9
ĠÑĥ Ð½
87 3
Ð¸Ð¼ Ð¿
ĠÑĤÑĥÑħ Ð°Ð¹Ð½
i t
Ð» Ð¾Ñħ
ÑĮ ÑĤ
48 2
47 4
60 8
69 7
ĠÑĨ ÑįÑĢÑįÐ³
ĠÑĥÑĢ ÑĤ
ĠÑħÐ¾Ð»Ð± Ð¾Ð¾
ĠÒ¯Ð½Ð´ ÑģÑįÐ½
ĠÐ·Ð°Ñģ Ð³Ð¸Ð¹Ð½
Ñĥ Ð±
Ð¼ ÑįÐ»
Ð°ÑĢ Ð³
46 1
58 5
59 6
Ð°Ð° ÑģÐ°Ð½
60 6
80 0
Ð»Ð°Ð³ ÑĭÐ½
Ð½ ÑĥÑĥÐ´
ĠÑĤ Ð°ÑĤ
57 5
57 8
56 1
Ð°Ð° Ñħ
Ð°Ð° Ð¶
60 4
67 7
ĠÑģ Ò¯Ò¯Ð»
ĠÑı Ð¼Ð°ÑĢ
Ðĺ Ð¹
ĠÐ°Ð¼ Ð¶Ð¸Ð»ÑĤ
in g
ĠÐ·Ð¾ÑĢ Ð¸ÑĥÐ»
Ñį ÑģÑĤ
ÑįÑį Ð¶
49 4
57 0
56 7
ÑįÑĢ ÑħÐ¸Ð¹
79 3
79 7
70 4
ĠÐ´ Ð°Ð»
ĠÑģ Ò¯Ð»Ð¶ÑįÑį
ĠÐ±Ð¾Ð» Ð´Ð¾Ð³
ÑĥÐ´ Ð°Ð»Ð´
Ðĺ Ñħ
5 28
Ð°Ð½ Ð¶
ÑįÑį Ð½Ð´
59 2
ĠÐ¾ÑĢ Ð¾Ð½
ĠÐ³Ð°ÑĢ Ñĩ
ĠÓ©Ó©ÑĢ ÑĩÐ»
Ð¸Ð· Ð¼
ĠÒ¯Ð½Ð´ ÑįÑģ
4 37
Ġ Ð¸Ð´
Ñĥ ÑĤÐ³
ĠÐ ķ
Ñģ Ð½Ð¸Ð¹
57 2
57 6
59 5
79 9
68 2
89 4
75 2
Ò¯ÑĢ ÑįÐ½
Ó©Ñħ Ó©Ó©ÑĢ
Ð°Ð³Ð´ Ð°Ñħ
ĠÑĤÓ©ÑĢ Ð¸Ð¹Ð½
ĠÑĤÓ©ÑĢ Ó©Ð»
ĠÐ¸ÑĢ ÑģÑįÐ½
Ð¾ ÑĦ
ÑĤ Ó©ÑĢ
ĠÑħ Ð°Ð»
ĠÐ½ Ð¾Ð¼
ĠÐ½ Ó©Ñħ
48 7
57 7
58 4
56 2
56 6
ĠÐ· Ò¯Ð¹
ĠÐ¿ ÑĢÐ¾ÑĨÐµÑģÑģ
Ó©Ð¼Ð± Ó©Ð³
ĠÐ³Ò¯Ð¹ÑĨ ÑįÑĤÐ³
4 26
4 21
Ġ ÑįÑĢÐ³
ÑĤ Ð¸Ð¹Ð½
ĠÐ± Ð°ÑĤ
ĠÑħ Ð°Ñı
ÑįÑį Ð½Ð¸Ð¹
Ñĩ ÑĢ
45 3
49 9
50 6
56 0
78 0
78 9
68 6
80 2
Ó©Ð¼ Ð¶
Ð°Ð³Ð´ Ð°Ð¶
Ð¥Ð°ÑĢ Ð¸Ð½
Ð´ Ð´ÑįÐ³
78 5
ĠÑĤÐ¾ÑħÐ¸ Ð¾Ð»Ð´
4 30
ÑĤ Ó©Ð»
59 4
Ð± Ð¸
70 6
77 4
ĠÑĥ ÑĩÐ¸ÑĢ
87 5
Ð¾Ñģ ÑĭÐ½
ĠÐ°ÑĢ Ð³Ð°
ĠÐ³Ð°Ð´ Ð½Ð°
Ñħ Ð¸
Ðµ ÑģÑĤ
47 3
56 4
68 7
70 0
70 5
98 1
Ð¢ Ò¯Ò¯Ð½Ð¸Ð¹
ÐŃ Ð½
ĠÐ±Ò¯ Ñģ
ĠÐ±Ð¾Ð»Ð¾Ð² ÑģÑĢ
4 15
a s
Ð³ Ð°Ð¼
Ò¯ Ð½Ð¸Ð¹
Ñģ Ð°ÑĢ
Ñģ Ð°Ð°ÑĢ
56 9
79 0
Ð¾ÑĢ Ð¶
70 8
98 5
ĠÑĤÓ©ÑĢ Ð»Ð¸Ð¹Ð½
ti on
) ,
Ò¯ Ð¶
Ñģ Ð°ÑĢÑĭÐ½
58 1
79 8
68 8
69 2
69 3
69 4
80 8
ÑįÑħ Ð´ÑįÑį
74 1
Ó©Ð¼ Ó©ÑĢ
ÐµÑĤ ÑĢ
ĠÑĤÐ¾Ð³Ð» Ð¾Ð»ÑĤ
4 14
4 23
4 29
Ð¸ Ð¾
Ñĥ Ñı
Ò¯ Ð³ÑįÑįÑĢ
ÑĤ ÑįÐ¼
Ñħ ÑĥÑĢ
ĠÑĤ Ð°Ð½
ĠÑĤ Ó©Ñģ
79 6
78 3
70 2
77 6
80 3
75 1
85 2
ĠÐ¾Ð½ ÑĨ
ĠÐ·Ð¾ÑħÐ¸ Ð¾Ð½
4 11
5 30
Ñį Ð·
Ð°Ð½ Ð³Ð¸Ð¹Ð½
58 8
59 8
78 6
98 2
Ðº Ñģ
Ð°Ñħ ÑĭÐ½
Ð»Ð°Ð³ Ð¸Ð¹Ð½
ĠÑĩ Ð°Ð½
Ð»ÑįÐ» Ð¸Ð¹Ð½
ĠÑįÑģ ÑĢÑįÐ³
4 32
o c
ÑĤ Ð½Ð¸Ð¹
Ñģ Ð»
Ó© Ð¶
ÑĥÑĥ Ð³
ĠÑĤ Ó©Ð³
ĠÑĤ ÑĥÑĢ
79 2
79 4
68 3
68 4
69 9
Ð± Ð°Ð³
70 7
98 4
98 8
ĠÐ³ Ð¸ÑĪ
75 3
ÐŃ Ð´
ĠÐ³Ð°Ð· ÑĢÑĭÐ½
Ð¾Ð»Ð³ Ð¾Ð¹
t er
ÑĥÑĥ ÑĨ
57 1
59 3
60 3
79 1
70 3
67 3
88 5
89 5
89 6
86 1
ĠÐ·Ó©Ð² ÑħÓ©Ð½
5 21
I I
Ð ®
Ġ -
Ġ M
Ð¾ ÑģÑĤ
20 14
ĠÑĤ Ð°ÑĢ
58 0
Ð¾ÑĢ Ð´
Ð± Ò¯ÑĢ
67 4
90 8
80 5
80 6
86 4
Ð°Ð°ÑĢ Ð°Ð°
ĠÑĪ Ð¸Ð³
Ðĳ Ð°ÑĢ
ĠÑĩ ÑĥÑħ
ĠÑħÒ¯ Ð½Ð¸Ð¹
e l
Ġ 12
ÑĢ Ð°Ð´
78 4
69 1
98 6
Ð· Ð°ÑĢ
Ð· Ð³Ð°Ð°ÑĢ
90 0
88 8
89 1
86 5
ĠÐ·Ð¾ÑĢ Ð¸Ð»Ð³
ĠÐ·Ð°Ñħ Ð¸ÑĢ
ĠÐ°Ñģ ÑĥÑĥÐ´
4 10
Ð¾Ð» ÑĮ
78 7
67 1
90 3
88 3
89 7
97 4
94 1
ĠÑĪ Ð°ÑĪ
ĠÐľÐ¾Ð½Ð³Ð¾Ð» ÑĭÐ½
ĠÐ°Ð´ Ð¸Ð»
5 20
Ð° Ð°Ð»ÑĤ
Ð½ ÑįÑĢ
48 8
68 5
69 8
70 1
99 3
Ó©ÑĢ Ð²
ĠÐ¾ÑĢ ÑĩÐ¸Ð¼
ĠÑħÐ¾Ð¹ ÑĪ
4 18
68 1
ÑįÐ» Ð¸Ð¹Ð½
98 3
88 7
Ð¾Ð³ Ð¸Ð¹Ð½
97 2
87 2
ĠÑĥÑĢ Ð°Ð½
Ð³Ó© Ó©Ð½
6 13
Ġ 18
Ġ Ó¨
Ð¸ ÑĨ
ĠÐ½ Ð¸Ð¹Ð³
ÑĪ Ó©Ó©ÑĢ
Ð¸Ð» ÑĤ
67 5
77 2
87 1
ĠÑħÑįÐ¼ ÑįÑįÑħ
ĠÒ¯Ð· Ð´ÑįÐ³
ÐľÐ¾Ð½Ð³Ð¾Ð» ÑĭÐ½
ĠÐ´ÑįÐ» ÑħÐ¸Ð¹Ð½
ĠÓ©Ð´ Ó©ÑĢ
ĠÑĥÑĤ Ð³Ð°
4 36
5 27
Ð´ Ð°Ð²
ĠÐ ¯
ÑĤ Ó©Ð½
Ñģ Ð³Ð°Ð»
ĠÑħ Ð¾ÑĪ
69 5
98 0
ÑĪ Ð¸Ñħ
90 6
77 1
84 1
ĠÐŀ ÑĢ
ĠÑĤ ÑįÑĢÐ³
79 5
98 9
Ð¸Ð» Ð»
67 2
77 3
99 6
87 4
85 3
ÑįÐ¼ ÑĤ
Ð°ÑĤ ÐµÑĢ
ĠÑı ÑĢ
ĠÐ±Ð¸ ÑĪ
ÐµÐ» ÑĮ
Ġ 6
90 2
90 5
88 9
80 4
ÑĥÑĥÐ» Ð°Ð³Ñĩ
ÑįÑħ ÑįÐ´
ÑįÐ² ÑĤÑĢ
ĠÐ°Ð² ÑģÐ°Ð½
ĠÐ°ÑĢ Ð´
ĠÑħÐ¸Ð¹ ÑģÑįÐ½
ĠÐ±Ð¾Ð»Ð³ Ð¾Ð½
ÑıÑĤÐ°Ð´ ÑĭÐ½
ÑĮÑģ Ð³Ð°Ð»
Ð±Ò¯ ÑĤ
ĠÑįÑħÑįÐ» ÑģÑįÐ½
ĠÐ³ÑĥÑĢ Ð²Ð°Ð½
a m
c h
ÑĢ Ð°Ñħ
Ð¸ Ð¾Ð½
Ð¼ Ð°Ð°ÑĢ
90 7
ĠÐ¼ Ð¾Ð´
Ñı Ð»
Ð¸ÑĢ Ñħ
ÑģÑĤ Ð¾Ð¹
Ðĺ Ð½
ĠÐ°Ð² Ð°Ñħ
ĠÑħÐ°ÑĢ ÑĮÑĨ
ĠÐ°Ð¶Ð¸Ð» Ð»Ð°Ð¶
Ò® Ò¯Ð½
Ð¾Ð»Ð¾Ð³ Ð¸Ð¹Ð½
ĠÐµÑĢ Ó©Ð½ÑħÐ¸Ð¹
a d
Ð¸ ÑĥÐ´
ĠÑħ Ó©Ð»
ÑĨ Ð¸Ð¹Ð½
ĠÑģ Ð°Ñı
80 7
96 2
ÑįÑįÑĢ ÑįÑį
Ð°Ð² Ñĩ
ÐµÑĢ Ð²
ĠÑĩÑĥÑħ Ð°Ð»
4 27
Ð´ ÑįÐ½Ñį
Ñģ ÑįÐ»
Ð°Ð³ Ð°
ĠÐ½ Ð°Ð¹ÑĢ
Ò¯Ò¯ Ð½Ð´
ÑįÐ³ Ð´ÑģÑįÐ½
ÑįÐ½ ÑĤ
59 0
Ð± Ð¾Ð´
ĠÐ´ ÑįÐ¼Ð¶
99 5
89 2
97 1
85 1
4 25
Ð¸ Ð³Ð¸Ð¹Ð½
Ò¯ Ñģ
ĠÑħ Ð°Ð½
Ñĩ ÑįÑį
ĠÑĥ Ñģ
Ñı Ð²
ĠÐ³Ð°ÑĢ ÑĥÐ¹
ĠÐ°ÑĪ Ð¸Ð³
ĠÐ´Ð°Ñħ Ð¸Ð½
ĠÐ° ÑİÑĥÐ»
ĠÑħÐ°Ð´ Ð³Ð°Ð»
Ð³ Ð°Ð°Ð½
Ð» Ð°ÑģÐ°Ð½
Ñħ Ð°Ð´
ĠÑħ Ð°Ð½Ð´
Ð± Ð¸Ñĩ
ĠÐ±Ð°Ð¹ Ð¶
90 4
80 1
99 2
86 3
Ð¸Ð¶ Ð¸Ð³
5 12
5 19
5 18
Ġ T
Ð½ Ð°Ð°Ñģ
Ð» Ð°Ð´Ð°Ð³
ÑĤ Ð¾Ð½
Ð°ÑĢ ÑĤÐ°Ð¹
Ð¾ÑĢ Ð½
99 4
97 5
ĠÑĢ ÑĥÑĥ
ĠÐºÐ¾Ð¼Ð¿ ÑĮÑİÑĤÐµÑĢ
ĠÐ°Ð¹Ð¼ Ð³Ð¸Ð¹Ð½
4 16
5 34
6 11
o m
u l
Ð¾ Ð·
Ð¸ Ð°Ð´
Ñĥ ÑĨ
ÑģÐ°Ð½ Ð´
97 3
96 1
Ð¾Ð¼ ÑĭÐ½
ÑįÐ² Ñħ
ĠÑĩ ÑĥÐ»
ÐĶ Ð°ÑĢ
Ðĵ ÑįÐ²Ñĩ
Ð»ÑįÐ³ Ð´ÑģÑįÐ½
ÑįÑĢÐ³ ÑįÐ¶
ĠÑįÐ´ Ð¸Ð¹Ð½
ĠÐ´Ð¾ÑĤ Ð¾ÑĢ
6 23
Ġ Ó©Ñģ
Ð¼ Ð°Ð³
ĠÐ± ÑĥÐ»
ĠÑħ Ð°Ð°Ð½Ñĭ
ĠÑħ Ò¯Ò¯Ñħ
Ð¾Ð» Ð»
Ñĩ ÑĥÑĥÐ´ÑĭÐ½
Ð°Ð° ÑĪ
ÑĨ Ð°Ð³
88 4
88 6
89 3
Ð°Ñģ Ð½Ñĭ
ÐĲ Ð½
ĠÑħÒ¯ Ð»
Ð¾Ð² ÑĤ
Ð»Ð°Ð³Ð° ÑĤÐ°Ð¹
ÑĢÐ°Ð½ ÑĨ
4 20
4 17
5 33
5 44
6 22
ÑįÐ» ÑĨ
99 7
ÑĥÑĥÐ´ ÑĤÐ°Ð¹
Ð¢ ÑĥÑģ
Ò¯Ò¯Ð» ÑįÐ»ÑĤ
ĠÐº Ð¾Ð¼
ĠÓ©ÑĢ Ð³Ó©Ð½
ĠÐ°Ð¶Ð¸Ð»Ð»Ð°Ð³ Ð°Ð°
4 35
7 24
Ð½ Ò¯Ò¯Ð´
ĠÑħ Ð°Ð²
ĠÑħ ÑĥÐ´Ð°Ð»Ð´
Ð°Ð³ Ñģ
90 9
99 1
86 2
ĠÑĪ Ð°ÑĤ
Ð°Ð³Ð´ Ð´Ð°Ð³
ĠÑħÑĥÐ² ÑĮ
ĠÐ¸Ð» ÑįÑĢÑħÐ¸Ð¹
Ó©Ð²Ð» Ó©Ð»ÑĤ
ĠÑģÐ°Ð» Ð±Ð°ÑĢ
ĠÐ°Ð»Ð± Ð°Ð½
4 28
4 31
i l
Ð» ÑįÑģÑįÐ½
Ò¯ ÑĤ
Ð¼ Ð½
ĠÐ± Ð°Ñģ
Ð¶ Ò¯Ò¯Ð»ÑįÑħ
Ð¸Ð» Ð´
Ð¸Ð½ Ð¸Ð¹
Ð°Ñħ Ð¸Ð»Ð³
ÐĿ Ð¥
ÐĶ ÑįÐ»
ÐµÐ½ ÐµÑĢ
ÑĦ ÑĢ
Ð°Ñı ÑĢ
Ò® Ð½Ð´
ĠÐ±Ò¯ÑĤ ÑįÑįÐ³
ĠÐ±Ð¸Ñĩ Ð¸Ð³
ĠÑħÑĥÑĢ Ð´
4 13
5 24
5 31
Ð³ ÑĥÑĥÑĢ
ÑĤ Ð¾Ð³
Ð¾Ð» ÑĤÐ¾Ð¹
98 7
ĠÐ±Ð°Ð¹ Ð´Ð°Ð»
88 0
99 9
Ð¿ Ð¾ÑĢÑĤ
ĠÐ³Ð°Ð· ÑĢ
ĠÒ¯Ò¯Ñģ Ð³
Ó©ÑħÓ©Ó©ÑĢ Ó©Ð¼Ð¶
4 22
6 10
ÑĤ Ð¾Ð³ÑĤ
88 1
88 2
96 3
Ð°Ðº ÑĤ
Ð±Ð°Ð° ÑĤÐ°ÑĢ
ÐŃÐ´ Ð³ÑįÑįÑĢ
4 19
5 32
6 16
7 26
9 10
Ñĥ Ðº
ĠÐ½ Ð°Ð¼
Ð¥ Ð°Ð¼
114 5
ĠÐ½ÑĥÑĤ Ð³Ð¸Ð¹Ð½
ÐĺÐ¹ Ð¼
4 12
4 33
t h
u m
Ġ Â«
Ð° Ñĩ
Ð¸ Ð°ÑĢ
Ð¼ Ð°Ð½
Ð¼ ÐµÑĢ
Ð°Ð½ Ðº
ĠÑħ Ð¾Ð½
Ð°Ð» Ð³Ð°Ð°
Ðµ Ð·
Ð± ÑĥÑĢ
77 7
Ð¥ ÑįÑĢ
Ò¯Ò¯Ð» ÑįÐ³
Ð°Ð»ÑĤ ÑĤÐ°Ð¹
ĠÑįÑĢ Ð´
Ð´Ð» Ð¸Ð¹Ð³
ĠÐ°Ð» ÑĮ
ĠÑħÐ¾Ð»Ð± Ð¾Ð³Ð´
ĠÑĳ Ñģ
5 17
i r
Ð´ ÑĥÑĥ
Ñĥ Ð·
ÑĤ ÑįÑĢ
Ñħ ÑįÐ¼
Ð¾Ð» ÑĭÐ³
Ð¾Ð» Ð¾Ð½Ð³
Ðµ Ð¶
Ð¾Ð¹ ÑĢ
âĢ ĵ
ÐµÐ¹ Ð½
ĠÐ·Ð°Ð³ Ð²Ð°ÑĢ
ÐŃÐ½ ÑįÑħÒ¯Ò¯
5 15
5 23
7 25
8 11
Ð³ Ò¯Ò¯ÑĢ
Ñħ Ð°Ð¹
Ð°Ð³ Ð°Ñģ
Ð°Ð° Ð²
ĠÐ¾ÑĢ ÑĪÐ¸Ð½
ÑįÐ² ÑįÑĢ
Ðĸ Ð¸ÑĪ
Ð±Ð°Ð¹ Ð³ÑĥÑĥÐ»
ĠÐ·ÑĥÑĢ Ð°Ð³
6 14
8 15
8 28
e c
Ð³ ÑĭÐ½
ÑĤ Ð°ÑĤ
ĠÑħ Ó©
Ð°Ð» Ñħ
Ó©Ð³ Ó©Ó©
95 2
Ðľ Ð°ÑĢ
Ð³Ò¯Ð¹ Ð³ÑįÑįÑĢ
ÑĥÐ¹ Ð½
ĠÓ©Ð½ Ð³Ó©
ĠÐ·Ð°Ñģ Ð°Ð³
6 19
Ġ 7
Ġ 8
Ġ G
Ġ R
Ġ Ð¾Ð²
Ð³ Ð¸Ñģ
Ð´ Ð¾Ð¾
Ð°Ð» ÑĥÑĥ
Ðµ Ð±
Ð· ÑĥÑĢ
Ð¾Ð³ Ñģ
95 3
ÐµÑĢ Ð½
ĠÑĪ Ð°Ð³Ð½
ĠÐ¾ÑĢ Ð¶
ĠÐ¾Ð½ Ð³
ĠÐ¶ Ð¸Ð¶Ð¸Ð³
Ò¯Ò¯Ð½ ÑįÑįÑģ
ĠÑĨÐ°Ð³ Ð°Ð°Ð½
Ð¾Ð»Ð¾Ð³ Ð¸
ĠÑĤÐ¾Ð¾ ÑĨ
5 11
6 24
6 21
e m
ÑĤ ÑĥÐ»
13 90
ĠÑĤ Ð¾ÑħÐ¸ÑĢ
Ð¾ÑĢ Ð¼
ĠÐ±Ð°Ð¹ Ð³Ð°Ð°Ð³
ĠÑģ Ð°ÑĢ
ĠÑĥ ÑĩÑĢ
ÑĥÑĥÐ´ Ð°Ð°Ñģ
Ð¥ Ò¯Ð½
Ð¿ Ð¾Ð½
ÐĲ Ð²
ĠÑĨ Ð¾Ð¼
ÐĿ Ð£
Ð»ÑįÐ³ Ñĩ
ĠÐĲ Ð»
ĠÐ±Ð°ÑĢ ÑĥÑĥÐ½
ĠÐ±Ð°ÑĢ Ð¸Ð¼ÑĤ
ÐµÐº ÑĤ
ĠÐ° Ñĩ
ĠÐ°Ð¼ÑĮÐ´ Ð°ÑĢ
5 10
8 13
9 34
Ð¸ Ð°Ð½
Ð² ÑĢÐ¾Ð¿
Ð¾ÑĢ Ð»
ĠÑģ Ð¾Ñĳ
ĠÑģ Ð°ÑĢÐ´
ĠÐ· ÑĥÑĥÐ½Ñĭ
Ð¾Ð³ ÑĨ
ĠÑĥ ÑĥÑĢ
ĠÐĲ ÑĢ
ÐµÐº Ñģ
Ð»Ð°Ð³Ð´ ÑģÐ°Ð½
Ð°ÑħÐ¸Ð»Ð³ Ð°Ð°Ð½
6 17
6 27
Ð³ Ð¾ÑĢ
Ð³ Ð°Ð°Ñģ
ÑĤ ÑįÑį
ĠÐ±Ð°Ð¹ ÑģÐ½
95 1
Ð¿ ÐµÑĢ
ĠÑĪ Ð¸ÑĢ
Ð½Ñį ÑĤ
Ð»Ð¾Ð³ Ð¾
Ð¾Ð¾Ð³ Ð¾Ð¾ÑĢ
ĠÐ¾Ð¹ Ð»Ð³
ĠÑĤÐ¾Ð´Ð¾ÑĢÑħÐ¾Ð¹ Ð»
5 14
5 13
5 26
6 20
Ð°Ð½ Ð¸Ð¹Ð½
ĠÑħ ÑıÐ½
Ñĩ Ð¸Ñħ
Ð¾Ð¾ Ð¼
Ðľ ÑįÐ´
ĠÑħÑįÑĢÑįÐ³ ÑĤÑįÐ¹
ĠÓ©Ð³Ó©Ð³Ð´ Ð»Ð¸Ð¹Ð½
a y
Ġ Ð°Ñı
ÑĢ Ð¾ÑĤ
Ñħ Ð¾Ð»Ð±
ĠÐ´ Ð¾ÑĢ
Ð· Ð¾ÑĢ
Ð¾Ð¾ ÑģÐ¾Ð½
ĠÑĪ Ð°Ð»ÑĤ
ĠÐ¾Ð½ Ð¾Ð¾Ñģ
ĠÐ½ÑĥÑĤ Ð°Ð³ÑĤ
ĠÐ¾Ð¹ ÑĢ
ĠÐĺ Ñħ
5 16
7 20
7 21
Ð³ Ó©ÑĢ
20 10
Ð°Ð» ÑĮ
Ð°Ð» Ð³Ð°ÑĢ
Ð°Ð° ÑĤ
ĠÑħÒ¯ ÑĩÐ¸Ð½
Ð°Ð»Ð´ Ð°Ð°Ð½
ĠÐ°Ð¶ ÑįÑį
ĠÐ±Ñĥ ÑĨ
en t
5 22
6 34
6 37
7 37
Ñģ Ð»ÑįÐ»
Ñħ Ð°Ð°Ð½
11 88
ĠÑĤ Ò¯Ð¼
ĠÐ½ Ð°ÑĢÑĭÐ½
Ð· Ð¾ÑħÐ¸
ĠÑģ ÑįÑĢÐ³
ĠÐ¼ ÑıÐ½
Ð¾Ð¾ Ñħ
Ð»Ð°Ð³ Ñĩ
ÐµÐ¼ ÐµÐ½ÑĤ
ĠÐ¸Ñħ ÑįÐ½Ñħ
ĠÑħÐ¾ÑĤ ÑĭÐ½
ĠÑĳ ÑģÑĤÐ¾Ð¹
ĠÐ·Ó©Ð² ÑĪÓ©Ó©ÑĢ
8 18
u n
Ġ L
Ñģ ÑįÑįÑĢ
Ñħ Ð°Ð³
ĠÐ± ÑĥÑĢ
ĠÐ± Ð¾Ñģ
Ð°Ð» Ð´Ð°Ð³
ÑĥÑĥ Ð¶
Ðµ Ð¿
ĠÑĤ Ð¾Ð»Ð³Ð¾Ð¹
Ð· Ð°Ñħ
Ðĳ ÑĢ
ĠÑĨ ÑįÑĢÐ³
ĠÐĳ ÑĢ
ĠÐ±Ò¯ÑĢ Ð¸Ð¹Ð½
ĠÐ±Ð°Ð¹Ð³ÑĥÑĥÐ» ÑģÐ°Ð½
ĠÐ·Ð¾ÑħÐ¸ Ð¾Ð»
ĠÑģÑĥÐ¼ ÑĭÐ½
ĠÑħÐ¾Ð»Ð±Ð¾Ð¾ ÑĤÐ¾Ð¹
5 29
6 18
8 12
8 21
l o
u r
Ġ D
Ð³ ÑĭÐ³
Ð³ ÑįÑįÑģ
10 45
12 03
ÑĤ Ð¾Ð´
ĠÑħ ÑįÑĢ
ĠÐ´ ÑĥÐ³Ð°Ð°ÑĢ
Ð°Ð¶ Ð¸Ð»
ĠÑĪ ÑĥÑĥÐ´
ĠÑħÒ¯ Ñģ
ĠÐ±Ò¯ Ð»ÑįÐ³
ĠÐº Ð¼
Ò® Ò¯Ð½Ð¸Ð¹
Ð¨ Ð¸Ð½
Ð°Ð°Ð³ Ð¸Ð¹Ð½
ĠÑıÐ² ÑĨ
ĠÑģÐ°Ð½ Ð°Ð»
ĠÑĩÐ°Ð´ Ð²Ð°ÑĢ
6 31
7 42
20 11
ĠÑħ Ò¯Ò¯
Ð¾Ð½ Ð¾
Ð± ÑĥÐ»
Ð± Ð°ÑĤ
ĠÐ· ÑįÐ²Ñģ
Ó©ÑĢ Ð¸Ð¹Ð½
ĠÒ¯ Ñģ
Ò¯Ò¯Ð» ÑįÐ³Ñĩ
ĠÐ¾ÑĢ Ñĩ
ĠÑĥÑĢ Ð³Ð°Ð¼
ĠÑĪÐ¸Ð¹ Ð´Ð²ÑįÑĢ
Ò¯Ð¶ Ð¸Ð³
5 36
8 26
a p
Ð» Ó©Ð³
Ð´ Ð°Ñħ
Ð´ ÑĥÑĢ
Ñħ ÑįÐ²
ĠÑħ Ó©Ð½
ĠÑĤ Ð°ÑĢÑħ
ĠÑĤ Ó©ÑħÓ©Ó©ÑĢÓ©Ð¼Ð¶
ĠÐ½ Ó©Ð»Ó©Ó©Ð»
Ð°Ð° Ð·
Ð± Ó©Ð¼Ð±Ó©Ð³
Ñı Ð¼
Ðĳ Ð°ÑĤ
ÑįÑģ Ð½Ð¸Ð¹
ĠÐ±Ò¯ÑĢ ÑįÐ½
ĠÐ¼ÑįÐ´ÑįÑįÐ» ÑįÐ»
ĠÐ±Ð°Ð¹Ð´Ð» Ð°Ð°ÑĢ
ĠÑħÑı Ð·Ð³Ð°Ð°ÑĢ
6 15
6 30
7 15
7 30
8 14
8 23
8 30
a tion
Ð´ Ó©Ó©
Ð´ Ð»Ð¸Ð¹Ð½
10 30
ÑĤ ÑĥÑģ
ÑįÑį ÑģÑįÐ½
ĠÐ´ ÑįÐ²
ĠÐ¼ ÑįÑĢÐ³ÑįÐ¶
ĠÐ¾ÑĢ ÑĩÐ¸Ð½
Ò¯Ò¯Ð´ ÑĤÑįÐ¹
114 6
Ð£ Ð³
ĠÑĥÐ»Ñģ Ð°Ð´
ĠÒ¯Ð¹Ð» ÑĩÐ¸Ð»Ð³ÑįÑį
ÑĥÑĥÐ»Ð°Ñħ Ð°Ð´
ÑĩÐ¸Ð» ÑģÐ°Ð½
ĠÑĤÑĥÑĢ ÑĪ
ĠÐ³Ð¸ÑĪ Ò¯Ò¯Ð½
Ð°ÑĤÐµÑĢ Ð¸Ð°Ð»
ĠÑħÒ¯Ð» ÑįÑįÐ½
6 12
6 26
6 29
8 10
v v
10 54
Ð°Ð» ÑĨ
ĠÐ´ Ð°Ð¹Ð½
Ð°Ñħ ÑĭÐ³
ĠÐ· ÑįÑįÐ»
Ð¾Ð¹ Ð´
Ò¯Ò¯Ð´ ÑįÑįÑģ
ĠÐº Ð¾Ð´
Ðŀ Ð»Ð¾Ð½
Ð¾Ð¾Ð³ Ð¸Ð¹Ð½
ÑģÐ³ Ó©Ð»
ĠÐ£Ð» ÑģÑĭÐ½
ĠÐ½Ó©Ñħ ÑĨ
ĠÐ¾Ð½Ð³ Ð¾ÑĨ
7 14
7 23
Ġ W
Ñĥ Ð½Ñĭ
13 55
13 42
16 09
23 28
ĠÐ½ ÑįÐ²ÑĤÑĢ
ÐµÑĢ Ð³
ÐµÑĢ Ð¸Ð¹Ð½
ÑĤÐ°Ð¹ Ð³Ð°Ð°ÑĢ
Ó©Ó© ÑĨ
ĠÐ¾ÑĢ Ð½Ñĭ
ĠÑĩ Ð¸Ð³
ĠÐº Ð¸Ð½
ĠÑħÑįÑģ ÑįÐ³ÑĤ
ĠÒ¯ÑĢ Ð³ÑįÐ»
ĠÐºÐ¾Ð¼Ð¿ Ð°Ð½Ð¸
ĠÑĤÒ¯ Ð²
ĠÑħÓ©Ð´Ó©Ð» Ð³Ó©Ó©Ð½
6 25
7 29
i d
Ġ B
Ġ N
10 20
10 46
Ñģ Ð¸Ð¹Ð³
Ð¼ Ð¶
ĠÑħ Ð°Ð»Ð´
Ð°Ð³ Ò¯Ð¹
ĠÐ½ Ð¸Ñģ
Ð· Ð¸Ð¹Ð½
Ð· Ð°Ñģ
ĠÐ³ ÑįÐ´
ÑĥÑĥÐ» Ð³Ð°
Ñı Ð³
Ñı ÑĢ
Ð¾Ð¾ ÑħÐ¾Ð½
Ð¾Ñħ Ð¾Ð´
ĠÑĥÐ» Ð¸ÑĢ
ĠÐ³Ð°ÑĢ Ð³Ð°Ð¶
ĠÑıÐ² Ð´Ð°Ð»
ÑĥÐ³ Ð»
ĠÑħÑįÐ¼Ð¶ÑįÑį Ð½Ð¸Ð¹
ĠÑįÐ· ÑįÐ»
ĠÑħÑĥÐ³Ð°ÑĨ Ð°Ð°Ð½Ð´
5 25
7 28
i g
Ð½ ÑĭÐ³
12 79
12 65
Ñģ Ð°Ð¹
13 82
13 92
Ñħ Ð°Ð½Ð³
ĠÑħ Ð¾Ð¾Ð»
Ò¯Ò¯ ÑĨ
Ð¾ÑĢ Ð¾Ð½
ÑįÐ» ÑĤÑįÐ¹
ĠÐ³ Ð°Ð½ÑĨ
Ð¢ ÑįÐ³
ĠÐ±Ð°Ð³ Ð¸Ð¹Ð½
Ð»Ð¾Ð³ Ð´
Ð¾Ð¾Ð³ Ò¯Ð¹
5 35
5 37
6 44
7 13
7 17
7 36
8 54
9 24
Ð´ Ò¯ÑĢ
10 98
12 17
14 30
Ñģ Ð°Ð»
Ð¶ ÐµÐ½ÐµÑĢ
ĠÑĤ Ð°Ñģ
ĠÐ½ Ð°Ð°Ð´
ÑĪ Ð¸Ð¶
Ð· Ð°Ð½
ĠÐ· ÑįÑĢÐ³
ĠÐ· Ò¯Ò¯Ð½
ĠÐ¼ Ð°Ð½
Ð¾Ð¹ Ð½
ÑĥÐ» Ñģ
ÐĿ Ð¸Ð¹
ÐµÐº ÑĤÑĢ
Ð´ÑįÑħ Ò¯Ò¯Ð½
ĠÐ°ÑĪÐ¸Ð³Ð» Ð°Ð¶
ĠÑħÓ©Ð³Ð¶ Ð¼Ð¸Ð¹Ð½
ĠÐ´Ð°Ð³ ÑĥÑĥ
ĠÓ©Ó©ÑĢÑĩÐ» Ó©Ð»ÑĤ
7 33
9 32
9 76
o f
Ġ H
Ġ 16
Ð³ Ð°Ð´
Ð» Ð°Ð»ÑĤ
ÑĢ Ð¾Ð¼
10 83
12 45
12 02
ÑĤ Ð°Ð²
13 49
11 15
19 38
19 64
ĠÑħ Ð¸Ð»
Ð°Ð» ÑģÐ°Ð½
Ðµ ÑĦ
Ð°Ð¼ Ð¸ÑĢ
ÑĥÑĥÐ» Ð¶ÑįÑį
Ð¿ Ð¾Ð½Ñĭ
112 0
ĠÐ³Ð°ÑĢ Ð³Ð°ÑģÐ°Ð½
ĠÐĲ Ð¼ÐµÑĢ
ĠÐ´Ð°ÑĢ Ð°Ð°Ð»
ĠâĢ ĵ
ĠÑĤÑįÐ´ Ð½Ð¸Ð¹
7 43
8 37
9 64
Ð½ ÑįÐ³
Ð½ Ð°Ð¼
Ð¸ Ð°Ñģ
10 84
Ñģ Ó©Ð»Ð´
Ñħ Ð°Ð²
Ð¼ Ð°Ð»
ĠÐ± Ð¸Ð´
ĠÑħ ÑĥÑĥÑĢ
27 05
Ðµ Ð½Ð´
ÑįÑĢ Ñħ
ĠÐ¼ ÑĥÐ¶
Ðĳ Ð¸
112 2
113 0
113 1
âĢ ľ
ĠÐ°Ð¼ ÑĮ
ĠÑĤÓ©ÑĢ ÑģÓ©Ð½
ĠÑįÑħ Ð»
ĠÐ½ÑįÑĢ ÑĤÑįÐ¹
ÑĤÑĢ Ð°Ð½
ĠÐ¼ÑįÐ´ÑįÑįÐ» Ð»Ð¸Ð¹Ð³
ĠÑģÑĥÑĢÐ³ÑĥÑĥÐ» ÑĮ
ĠÑħÐ°Ð½Ð³ Ð°Ð¼Ð¶
Ó©ÑĢÐ² Ó©Ð½
6 35
7 27
8 27
9 25
a g
o d
u t
Ġ 9
Ġ E
Ð½ ÑįÑįÑĢ
Ð³ Ð°Ð´Ð°Ð³
ÑĢ Ó©Ð½ÑħÐ¸Ð¹
ÑĤ Ð°Ñģ
11 75
16 33
Ð¼ Ð¾Ð»
19 82
ĠÑħ Ð°Ð¹ÑĢ
Ð°Ð¹ Ð·
ĠÐ½ Ð¾Ñĳ
Ð¾ÑĢ Ð³
Ð¸Ð½ ÑĤ
Ð°ÑĤ Ð¾ÑĢ
Ð°Ð°Ñģ Ð°Ð°
ĠÑħÒ¯ÑĢ Ð³
Ð°Ð°Ð³ Ð°Ð°
Ð³Ð°Ð½ Ð°
ĠÐ°ÑĪÐ¸Ð³Ð» Ð°Ð´Ð°Ð³
ĠÐ´ÑįÐ» ÑħÐ¸Ð¹
ĠÑģÑįÑĤÐ³ ÑįÐ»
ĠÑģÑįÑĤÐ³ Ò¯Ò¯Ð»
" ,
6 32
6 54
9 15
9 19
9 33
o w
Ð´ ÑįÐ½
10 77
10 85
Ñħ Ó©Ð³Ð¶
11 98
15 01
17 39
ĠÑĤ Ð¾Ð¾Ð½Ñĭ
ÑĮ ÑģÐ°Ð½
Ðº Ð²
ĠÐ· Ð°Ð¹
ĠÐ¼ Ðµ
ĠÑı Ð½
Ð»ÑįÐ³ Ð¸Ð¹Ð½
ĠÐº Ð¸Ð½Ð¾
Ó¨ Ó©ÑĢ
an d
ĠÐ´Ð°ÑĢÐ°Ð° Ñħ
ĠÑħÐ¾ÑĪ ÑĥÑĥ
% -
7 16
12 71
ÑĤ Ð°Ð°
ÑĤ Ò¯ÑĢ
Ñģ ÑĥÐ´
13 77
13 04
13 63
13 51
Ñħ Ð°Ð»
11 66
15 59
Ð¼ Ó©
19 89
18 16
ĠÑħ Ð¸Ð¹Ð³
ĠÑĤ Ð°Ð¹Ð»
Ðľ Ð°Ð½
Ð£ ÑĢ
ĠÐ³Ð°ÑĢ ÑģÐ°Ð½
ĠÐ¶ Ð¸Ð½
ĠÐ¾Ð» Ð³
Ðĺ Ð½Ð³
ĠÑħÐ°ÑĢ Ð¸Ð½
ĠÐ´ÑįÑįÑĢ Ñħ
ĠÐ°ÑĪÐ¸Ð³Ð» Ð°Ñħ
Ð²Ð°Ð» Ð¶
ĠÑģÑĥÑĥÑĢ ÑĮ
ĠÑģÐ¾Ð½ Ð¸ÑĢÑħ
ÐµÑĢÐ² ÐµÑĢ
7 19
7 31
8 55
8 31
9 27
v Ð¹
v er
Ġ V
Ġ s
10 49
10 88
10 41
12 16
12 32
12 54
12 51
13 79
11 19
16 81
19 19
Ð¾Ð½ ÑĤ
ĠÐ¼ Ð¾ÑĢ
ĠÑĪ Ð°ÑĢ
Ò¯Ò¯Ð» Ð¶ÑįÑį
ĠÐ¾ÑĢ ÑģÐ¾Ð½
Ð°Ð»ÑĤ ÑĭÐ³
ÑįÑįÑģ ÑįÑį
Ðĵ ÑįÑħÐ´ÑįÑį
Ð°Ð½Ð´ Ð°ÑĢÑĤ
ÑĥÑĥÑĢ ÑĭÐ½
Ð³ÑįÑį Ð´
ÑĩÐ¸Ð» Ð¶
Ð»Ð¾Ð³ Ñĩ
ĠÐ±Ò¯ÑĤ ÑįÑĨ
Ð¦ Ð°Ð³
ĠÑģÐ°Ð½ Ð°Ð°
ĠÐ½Ð¸Ð¹ Ð»
ĠÑĤÐ¾Ð¼ Ð¾Ð¾ÑħÐ¾Ð½
ĠÐ½ÑįÐ¼ ÑįÐ³Ð´
ĠÐ¾Ð½ÑĨ Ð»Ð¾Ð³
6 28
6 33
6 55
7 44
8 33
9 31
Ð» Ð°Ð²
Ð´ ÑįÐ²
10 32
10 04
12 40
12 64
14 03
Ñħ Ð°Ð½Ð´
Ð¼ Ð°Ð°Ñģ
23 51
Ð°ÑĢ Ðº
ÑĪ ÑįÑį
Ð¸Ð» Ð¶
ĠÐ³ Ò¯Ð½
ĠÑĥ Ñĥ
Ð°Ñģ Ñģ
ÐĲ Ð¹
ÐĲ Ð½Ñħ
ÑįÐ² ÑĩÐ»ÑįÐ½
114 8
Ò® Ð¹
ĠÐ½ÑįÑĢ Ð»ÑįÐ´ÑįÐ³
ÑģÐ½ Ð°Ð°ÑĢ
ÑĥÐ³ ÑĥÐ¹
ĠÑĤÑįÑĢ ÑįÑįÑĢ
ĠÑĪÐ°Ð°ÑĢÐ´ Ð»Ð°Ð³Ð°ÑĤÐ°Ð¹
ÑĥÑı Ð°
7 32
8 42
9 44
9 43
Ð» Ð°Ð»ÑĭÐ½
Ð´ Ð¶ÑįÑį
Ñĥ ÑģÑĤ
12 97
12 08
14 68
Ñģ ÑĥÑĥÑĢ
13 36
13 80
13 65
13 09
11 57
11 85
20 58
15 67
16 45
19 16
19 59
Ð² Ð¾ÑĢ
Ð°Ð» Ð¶
Ð°Ð» ÑĭÐ³
ĠÑĤ Ó©Ð´
Ð¸Ð» Ð±Ð°ÑĢ
ĠÐ±Ð°Ð¹ Ð»Ð´
Ð¸Ð½ ÑĮ
ĠÐ¼ Ó©
Ð¢ ÑĥÑħ
Ð¾Ð² ÑĭÐ½
ĠÐ¾Ð» Ð¶
Ð¾Ð³Ð´ ÑģÐ¾Ð½
ĠÐ°ÑĪÐ¸Ð³Ð» Ð°Ð½
Ð£Ð» Ð°Ð°Ð½
ĠÐ´Ð°Ð¹ Ð½Ñĭ
ĠÑħÓ©ÑĢ Ó©Ð½
ĠÑĩÐ°Ð½ Ð°ÑĢ
7 10
7 11
7 54
9 29
Ġ Ð°Ð½
Ð³ Ð¸Ð¹
Ð³ Ó©Ó©
Ð´ Ð¸Ð¹Ð³
10 15
10 39
10 31
12 14
12 85
14 02
ÑĤ Ò¯
13 52
Ñħ Ð¸Ð¹Ð³
11 95
16 34
17 71
19 12
19 70
19 65
24 39
Ð°Ð» Ð»
ĠÐ½ ÑĥÑĤÐ³
Ð± Ð°Ð¹ÑĢ
ĠÑģ ÑĤ
Ð¥ Ð£
Ð°ÑĤ ÑĭÐ½
Ðĳ Ð°Ð¹
Ð³Ò¯Ð¹ ÑĨ
ÑįÑĢÐ³ Ò¯Ò¯ÑĨ
ĠÑįÑħ Ð½Ð¸Ð¹
ĠÑĤÓ©Ð» Ó©Ó©
ĠÐ¼ÑįÐ´ÑįÑįÐ» Ð»Ð¸Ð¹Ð½
ĠÑħÑĥÑĥÐ» ÑĮ
ĠÑĤÓ©Ð³ Ñģ
ĠÑıÐ½ Ð·
7 35
8 20
8 29
8 44
9 28
h e
Ñį Ð±
Ð³ Ð¾Ð¾ÑĢ
ÑĢ Ð°Ð³
Ð¾ Ð¶ÑįÑį
10 76
10 03
14 35
13 00
11 16
15 52
15 71
16 53
17 29
19 74
18 72
29 64
Ð¾Ð» Ð¾Ð¾
ĠÐ½ ÑĥÑĥÑĨ
ĠÐ´ ÑįÑħ
ÑĪ Ð¸ÑĢ
ĠÐ±Ð°Ð¹ Ð³Ð°Ð»
Ð¸Ð½ Ð³Ð¸Ð¹Ð½
ĠÑģ Ò¯Ð¼
Ð°Ñħ Ð´Ð°Ð°
Ð¢ Ð¸Ð¹Ð¼
ÐĲ Ð£
ĠÐ°Ð¶Ð¸Ð» Ð»Ð°Ñħ
ĠÐ±Ò¯ÑĢ ÑįÐ»
Ð³Ð°Ð½ Ñĭ
ĠÑĦ Ð°Ð¹Ð»
ĠÑĢ Ò¯Ò¯
ĠÐ½Ð°ÑĢ Ð¸Ð¹Ð½
ĠÐ°Ð¼ÑĮÐ´ ÑĢ
ÑįÐ²Ñģ Ð³ÑįÑĢ
ĠÑĪÐ¸Ð» Ð¶
ĠÑĥÑħ Ð°Ð°Ð½
ÑĢÐ° ÑĦ
ĠÐ¸Ð´ ÑįÐ²Ñħ
ĠÑħÐ°Ñı Ð³
ĠÑĤÐ¾ÑħÐ¸Ð¾Ð»Ð´ Ð¾Ð»Ð´
Ð¼Ð½ Ó©Ð´
2 105
2 115
8 32
9 26
o p
Ð½ Ò¯
Ð½ Ó©
10 78
10 53
10 94
12 80
12 04
12 07
12 00
12 91
13 24
Ñħ Ó©Ð»
Ñħ Ð¾Ð¾
11 80
11 96
15 18
16 02
17 09
17 91
26 97
ĠÑĤ Ð°Ð»Ð´
ĠÐ³ ÑįÐ½Ñį
ĠÐ· Ð°Ð½
ĠÐ¼ ÑįÐ´ÑįÐ³
114 7
Ð°ÑĪ Ð¸Ð½
215 7
ĠÑįÑĢ Ñģ
ĠÓ©Ó©ÑĢ Ñģ
ÑĩÐ´ ÑĭÐ³
ĠÑģÐ°Ð½ Ð°Ñħ
ĠÑħÐ¾ÑĤ Ð¾Ð´
ĠÑıÐ» Ð³Ð°Ð°
ĠÐ³Ð°Ð´ Ð°Ð°Ð´
ĠÒ¯Ò¯ÑĢ ÑįÐ³
ĠÑĥÑĩÑĢ Ð°Ð°Ñģ
7 22
8 16
Ġ F
Ġ c
Ġ Ð¸
Ġ ÑįÐ²
Ð³ ÑĥÑĢ
Ð´ Ò¯Ð³ÑįÑįÑĢ
10 11
10 35
10 36
10 44
10 82
12 58
12 50
12 93
14 69
14 88
14 97
13 99
13 54
13 08
Ñħ Ð¾ÑĤ
11 12
11 65
17 02
18 12
18 49
25 54
47 84
ĠÐ´ Ð¾Ð²ÑĤ
Ð¸Ð» Ð³Ð°
Ð· Ò¯Ð¹
Ðº Ð¾Ð¼
Ð°Ñħ Ð°Ð°ÑĢ
Ð¸ÑĢ ÑĥÑģ
ÑĤÑįÐ¹ Ð³ÑįÑįÑĢ
ÐŃ Ð»
ÐĿ Ð°ÑĢ
ĠÐ¸ÑĢ Ð³ÑįÐ´
ĠÐ±Ð¸Ñĩ ÑģÑįÐ½
es s
ĠÑħÐ°Ð¼ÑĤ Ð»Ð°Ð³
ĠÑħÒ¯Ñĩ Ð½Ð¸Ð¹
Ó©Ó©Ð½ Ð¸Ð¹
ÑĬ Ñı
ÑĤÐ¾Ð³ Ð»
6 36
7 66
8 19
8 36
Ġ Ð¸Ð¶
Ð´ ÑģÐ°Ð½
10 33
10 61
12 67
14 48
14 78
13 11
13 64
11 92
16 26
16 35
16 07
19 11
19 84
18 47
18 01
ĠÐ± ÑĥÑĥÐ´
ĠÑħ Ð¾Ð»
30 06
36 69
40 96
Ò¯Ò¯ Ð³Ð¸Ð¹Ð½
ÑįÐ³ Ð¸Ð¹Ð½
ÑįÐ½ Ð³
Ð± Ó©ÑĢ
Ð· Ð°Ð³
Ð¸ÑĢ ÑĤ
Ð¾Ð¾ Ð¶
ĠÐ¶ Ð°Ð³Ñģ
ÑĥÐ½ Ðº
ÑģÐ½ ÑįÐ³ÑĤ
Ð¾Ð¼Ð¿ ÑĮÑİÑĤÐµÑĢ
ĠÑĤÓ©Ð» Ó©Ó©Ð»
ĠÐ´ÑĥÑĥ Ñģ
ĠÐ·Ò¯Ð¹ Ð½
ĠÑĳÑģ Ð¾Ð¾ÑĢ
2 134
8 25
9 18
9 42
a v
p l
Ð½ Ó©Ñħ
10 24
10 47
10 69
12 13
12 70
14 13
14 91
13 25
13 50
13 03
11 87
11 83
15 48
16 15
16 16
16 43
ĠÐ± Ð¾Ð³
25 48
26 58
Ð°Ð¹ Ñħ
ÑįÑį Ð³Ò¯Ð¹
34 26
36 51
ĠÑĤ ÑĥÐ½
ĠÐ½ ÑĥÑĢ
22 13
58 29
Ðº Ð¾
ĠÐ· Ð¾Ð³Ñģ
ĠÑĥ ÑģÑĤ
Ð°ÑĤ ÑĥÑĢ
112 6
ĠÐ¾ÑĢ Ð¾Ñħ
ÐŃ Ñħ
ÐŃ Ð¼
Ð¾Ð² Ñĩ
Ò¯Ð¹Ð» Ð´Ð²ÑįÑĢ
ĠÑĥÐ» Ð°Ð¼Ð¶
216 6
ĠÐ°Ð² Ð°ÑĢÐ³Ð°
218 8
Ð°Ð°Ð³ Ð°Ð°ÑĢ
Ð¸Ñĩ ÑįÑįÐ»
ĠÐ°Ð³ Ð°Ð°ÑĢ
ĠÑįÐ´ Ð³ÑįÑįÑĢ
ĠÐ¸Ð½ ÑĤÐµÑĢ
ÐĶÑįÐ» ÑħÐ¸Ð¹Ð½
2 139
4 252
9 16
9 65
Ġ 11
Ð» Ð¸Ð½
10 18
10 73
10 62
10 08
ĠÐ ®
12 21
12 43
14 49
14 50
14 00
13 21
11 17
11 55
15 88
15 89
26 53
Ð¶ ÑĢ
35 61
Ð°Ð° ÑĤÐ°ÑĢ
Ð± Ð°
ÑĪ Ð¸Ð¹
ÑįÐ¹ Ð½
Ð°ÑĤ Ð¸Ðº
Ð´Ð°Ð³ Ñĩ
ÐŃ Ó¨
Ð¡ ÑĤ
114 4
Ð°Ð½Ð´ ÑĭÐ½
227 7
228 3
ĠÐ±Ð°Ð³ ÑĪ
ĠÑħÑįÐ» Ð½Ð¸Ð¹
ÐµÐ» ÐµÐ²
ĠÒ¯Ð· ÑįÐ»
ĠÐ·Ð¾ÑħÐ¸ ÑĨ
ÐµÑĢÐ¼ Ð°Ð½Ñĭ
ĠÑħÐ°Ð¼Ð³Ð°Ð°Ð» Ð°Ñħ
8 43
9 17
9 30
t r
Ġ 15
10 28
10 37
10 95
10 43
10 01
10 09
10 05
10 00
12 95
12 61
14 38
14 58
Ñħ Ó©
Ñħ Ð°Ð¹ÑĢ
11 78
20 39
20 69
20 31
20 02
15 69
15 74
15 94
16 24
16 64
17 40
19 29
19 03
18 10
18 57
23 27
23 86
Ð°ÑĢ Ð¸Ð¼
26 43
Ð°Ð¹ ÑĤ
37 70
37 42
Ñĩ Ð°Ð´
38 00
48 73
ÑįÐ³ Ð´ÑįÑħ
ĠÐ´ ÑįÑį
Ð¸Ð» ÑģÐ°Ð½
Ð°Ð¼ ÐµÐ½ÑĤ
ĠÐ· Ò¯Ð³
Ð¾Ð³ Ñĩ
ÐµÑĢ Ñģ
ĠÑĨ Ð°ÑħÐ¸Ð»Ð³Ð°Ð°Ð½
Ò¯Ò¯Ð´ ÑįÐ»
ĠÑħÐ°Ð¼ ÑĤÑĢÐ°Ð½
225 0
ĠÒ¯Ð¹Ð» Ð´Ð»Ð¸Ð¹Ð½
ĠÑįÑĢ ÑĤÐ½Ð¸Ð¹
Ó¨ Ð²
ĠÑįÑħ Ð»ÑįÐ½
ĠÐ¸Ð» Ð³ÑįÑį
ĠÐ» Ð°Ð¼
ĠÑįÐ½ ÑįÑħÒ¯Ò¯
ĠÒ¯ÑĢÐ³ÑįÐ» Ð¶
5 281
7 34
7 55
9 12
9 35
9 22
9 66
Ġ )
Ð½ ÐµÑģ
Ð³ Ð¾Ð¹
ÑĢ Ð¾Ð½
Ð´ Ð°Ð½
10 26
10 80
10 06
12 24
12 25
12 34
12 73
Ò¯ ÑĤÐ³
ÑĤ Ð¾Ð¾
Ñģ ÑįÑĤÐ³
13 35
13 43
13 07
Ñħ Ñı
11 50
11 79
11 70
11 90
11 97
20 55
20 73
20 09
15 79
15 05
16 10
17 56
19 95
18 59
18 67
27 11
29 77
29 85
34 14
39 57
59 04
Ð± ÑįÑįÑĢ
ĠÐ´ ÑįÐ´
ĠÐ´ Ò¯Ò¯ÑĢ
ĠÐ¼ Ð°ÑĤÐµÑĢÐ¸Ð°Ð»
Ð¿ ÑĢ
113 3
Ðĵ ÑįÑĢ
ĠÐ¶ Ð¸ÑĪ
Ò¯Ò¯Ð½ ÑĩÐ»ÑįÐ½
220 4
ĠÐ±Ð°Ð¹Ð³ÑĥÑĥÐ» Ð°Ð³Ð´ÑģÐ°Ð½
ÑıÐ½ ÑĮ
Ð³Ó© Ð¶
ĠÑĢ Ð°Ð´
ĠÑĪÐ¸Ð½Ð¶ Ð»ÑįÑħ
Ð°ÑĢÐ» Ð°Ð¼ÐµÐ½ÑĤ
4 185
7 18
7 290
8 24
8 34
9 13
9 21
o t
Ð½ ÑįÐ»
Ð½ Ð°Ð°ÑĢ
Ð³ Ð°Ð»ÑĤ
10 14
10 13
10 17
10 27
10 29
10 48
10 90
10 97
10 93
12 38
12 83
12 82
12 81
14 15
14 17
14 34
14 65
14 05
13 68
13 76
13 93
Ñħ Ð°ÑĤ
Ñħ Ð½Ñĭ
11 58
11 56
11 77
11 86
11 52
15 57
16 89
16 06
Ð¼ Ð¸
17 21
17 76
19 10
ĠÐ± ÑįÑħ
23 60
23 31
24 42
24 07
28 91
35 09
36 12
Ð¾Ð» Ð¾Ð½
Ñĩ Ò¯Ò¯Ð´
ĠÑĤ Ð¾Ð¹ÑĢ
45 57
Ð¾ÑĢ ÑĭÐ½
ĠÑģ Ð°Ð¹Ð´
ĠÑĥ ÑĤÐ³
ÑĥÑĥÐ´ Ð°Ð°ÑĢ
ĠÐ¾ÑĢ Ð¾Ð½Ð´
113 8
114 2
110 7
110 8
ĠÐ¶ Ò¯Ð¶Ð¸Ð³
229 1
224 8
218 0
ĠÐ´Ð°ÑĢ Ð³Ð°
ÐĹ Ð°ÑĢÐ¸Ð¼
ĠÓ©Ð³ ÑģÓ©Ð½
Ð¾Ð»ÑĨ Ð¾Ð¾
ĠÐ°Ð¼Ð¶Ð¸Ð»ÑĤ ÑĤÐ°Ð¹
ĠÐ½Ð¸Ð¹Ð³ Ð¼Ð¸Ð¹Ð½
ĠÐ°ÑİÑĥÐ» Ð³Ò¯Ð¹
Ð¾Ð»Ð¾Ð½Ð³ Ð¾Ñģ
ÐľÑįÐ´ ÑįÑįÐ»
4 184
8 17
9 14
9 23
Ġ Ð°ÑĤ
Ð½ ÑįÐ¼
Ð½ Ð¾Ð¼
Ð³ Ð°Ð²
Ð³ Ò¯Ò¯Ð´
10 55
10 99
12 98
12 89
12 63
14 36
14 98
14 86
13 38
13 60
13 86
13 96
11 71
20 68
20 54
15 14
15 24
16 29
16 95
16 94
16 01
16 51
17 18
17 47
17 55
17 75
17 43
19 67
19 08
18 21
18 79
18 88
Ð°Ð½ Ð½
24 27
24 91
25 15
25 46
26 30
26 72
ĠÑħ Ð¾Ñģ
ĠÑħ ÑıÑĤÐ°Ð´
27 69
Ð¶ Ð°Ð²
34 92
36 14
Ð¾Ð½ Ñģ
Ñĩ Ð½Ñĭ
ĠÐ½ Ò¯Ò¯ÑĢ
57 67
33 12
Ð¸Ð» ÑĮ
ĠÑģ ÑĥÐ²
Ðº Ð¸Ð¹Ð½
ÑįÑħ Ð¸Ð¹Ð³
112 1
ĠÐ¾ÑĢ ÑĪÐ¸Ñħ
113 9
ĠÑĥÑĢ ÑĮÐ´
ĠÒ¯Ðµ ÑįÑĢ
ÑĩÐ» Ð°Ð»
ĠÑħÐ°ÑĢ Ð¸
335 6
320 5
ĠÑħÑĥÐ² Ð¸Ð»Ð±Ð°ÑĢ
ĠÑĤÑĥÑģ Ð³Ð°Ð°ÑĢ
ĠÑĤÐ°Ð» ÑĭÐ½
ĠÑĤÐ°Ð» Ð±Ð°Ð¹
857 7
ĠÑįÐ» ÐµÐ¼ÐµÐ½ÑĤ
ĠÑģÑĥÑĢÐ³ÑĥÑĥÐ» ÑĮÐ´
ĠÑįÐ½ Ð³Ð¸Ð¹Ð½
ĠÑįÑĨ ÑįÐ³
ÐĸÐ¸ÑĪ ÑįÑį
ÐµÐ»ÐµÐ² Ð¸Ð·
1 103
4 193
4 251
Ġ p
Ġ 30
Ġ ÑįÑĢÑįÐ³
Ð½ Ð°Ð¹ÑĢ
Ð½ ÑĥÑĥÐ´ÑĭÐ½
ÑĢ Ð¸ÑģÑĤ
10 34
10 21
12 20
12 37
12 22
12 86
14 28
14 22
13 19
13 18
13 34
13 48
13 02
11 53
11 94
20 04
20 00
15 16
16 20
16 00
Ð¼ Ó©Ð½
19 04
18 31
18 94
23 53
23 62
23 09
24 47
24 44
25 49
Ð°ÑĢ Ð¸
Ð°ÑĢ Ð³Ð°Ð»
26 95
28 64
28 52
34 33
34 05
35 02
Ð°Ð³ Ð°Ð´
39 13
ĠÑģ Ð¼
ĠÑģ Ð¾Ð»
ĠÐ· Ó©Ð²Ð»
86 11
96 35
53 13
52 25
ĠÑĪ Ð°Ð»Ð³Ð°ÑĢ
Ð°Ñģ Ð³Ð¸Ð¹Ð½
ĠÑĨ ÑįÑĨ
113 6
ÐĿ ÑįÐ³
Ðĵ ÑĢ
Ð£ ÑĩÐ¸ÑĢ
Ð°Ð½Ð´ Ð°Ð°
ĠÑĥÑĢ ÑģÐ³Ð°Ð»
225 2
217 1
327 1
329 0
ĠÐ¸Ñħ ÑįÐ²ÑĩÐ»ÑįÐ½
Ó¨ ÑĢ
ĠÐ±Ò¯ÑĢ Ð´
ĠÐ¼ÑįÐ´ ÑĢ
Ó©Ð²Ð» Ó©ÑĢ
ĠÐ±Ð¾Ð»Ð³ Ð¾Ð¶
Ð£Ð» Ñģ
ĠÑĤÒ¯ Ð³ÑįÑį
ĠÑħÐ°ÑĤ ÑĥÑĥ
ĠÐ½Ð¸Ð¹Ð³ ÑįÐ¼
Ò®Ò¯Ð½ ÑįÑįÑģ
Ð¥ÑįÑĢ ÑįÐ²
ĠÐ¸Ð¶ Ð¸Ð»
) .
4 137
5 354
6 140
6 243
7 12
8 76
8 332
Ġ Ð¾Ñħ
Ð½ ÑĮ
Ð» Ó©Ð³Ñĩ
Ð´ Ð°Ð¼Ð¶
10 50
10 81
12 49
12 57
12 31
12 53
12 01
12 92
14 27
14 29
14 39
14 64
ÑĤ ÑĥÑĢ
Ñģ Ð¿
13 30
11 60
11 89
11 63
11 82
11 72
20 12
20 62
20 92
15 68
15 32
15 73
16 22
16 68
17 24
17 86
17 84
18 11
18 38
18 86
18 95
24 45
24 93
ĠÑħ ÑĥÑĥ
ĠÑħ ÑĥÑĥÐ´
30 57
30 66
30 94
35 60
35 75
36 28
37 26
ĠÐ½ Ó©Ð»Ó©Ó©
45 79
Ð°Ð° ÑĤÐ°Ð¹
70 14
ÑĪ Ð³Ò¯Ð¹
Ð°Ð´ Ð°ÑĢ
42 29
63 27
Ð¿ ÑĢÐ¾Ð³ÑĢÐ°Ð¼
Ð¢ Ó©Ð²
91 14
ĠÑĨ ÑįÐ³
Ð¸Ð¼ Ð¸Ð¹Ð½
Ñİ ÑĥÐ½
ÑįÑįÐ» ÑĤ
Ð°Ð³Ð´ Ð°Ð½Ð°
Ðŀ Ð´
219 6
227 4
ĠÐ¥ ÑıÑĤÐ°Ð´
ĠÑħÑįÑĢÑįÐ³ Ð»ÑįÑħ
323 2
ĠÓ©Ó©ÑĢ Ó©Ó©
Ó¨ Ð³
Ð¶Ð¸Ð» Ð³ÑįÑį
438 2
ÑģÐ½ ÑįÑįÑĢ
778 7
ĠÑħÓ©Ð³Ð¶ Ð¸Ð¼
ĠÑĤÓ©Ð» Ó©Ð²
ĠÑįÐ¼ ÑįÐ³ÑĤÑįÐ¹
ĠÒ¯Ð½Ð´ÑįÑģ Ð½Ð¸Ð¹
ĠÑĤÒ¯Ð² ÑĪÐ¸Ð½
1 105
3 118
4 333
8 22
8 137
9 55
9 124
d ow
r i
Ð³ ÑįÑĨ
Ð» Ð¾Ð¾
Ð» ÑįÐ½Ñį
Ð» Ð±Ð°ÑĢ
Ð» ÑĥÐ±
Ð¾ Ñĥ
Ð¸ ÑĦ
Ð´ ÑĢ
10 22
10 56
10 70
10 42
10 02
10 91
12 39
12 72
14 33
14 54
ÑĤ Ó©Ó©
ÑĤ ÐµÑħÐ½
Ñģ Ð¸ÑģÑĤÐµÐ¼
13 12
13 45
13 47
13 94
13 41
13 91
Ñħ ÑĥÑĥÐ»
11 69
11 99
11 61
20 72
15 15
15 35
15 08
15 61
16 69
Ð¼ ÐµÐ½ÑĤ
19 01
18 20
18 84
18 92
23 15
23 33
Ð°Ð½ Ð¶Ð¸Ð½
24 17
24 77
25 37
25 50
26 15
26 94
27 90
29 47
29 95
30 76
Ð¾Ð» Ð´Ð»
38 91
45 98
22 19
22 21
48 64
47 57
47 51
79 70
79 95
68 37
Ð¾ÑĢ Ð¾Ð»ÑĨ
ĠÐ´ Ó©ÑĢÐ²Ó©Ð½
ĠÑģ ÑĥÑĥ
ĠÑģ ÑĥÐ»
ÑĥÑĥÐ» ÑĭÐ½
89 56
Ð¢ Ð°Ð¹
Ð¢ ÑĥÑĢ
Ð¡ ÑĥÑĢ
113 5
ÑįÑģ Ð½ÑįÑįÑĢ
Ð¾Ð² ÑģÑĢ
ÐµÐ½ ÑĨ
Ð¾ÑĤ Ð¾Ð¹
Ð°Ñı Ð³
Ð°Ð½Ð³ ÑĥÐ¹
ĠÐ°Ð¼ ÑĭÐ½
228 9
ĠÐĲ ÐĿÐ£
ÐµÐ¼ Ð¿ÐµÑĢ
334 2
Ð¾Ð¶ Ð¸Ð¼
Ð¸Ð· Ð¸Ðº
Ò¯Ð» Ñħ
438 9
ĠÐ¸ÑĢ Ð³ÑįÐ½
Ð»Ð°Ð½ Ð°
668 3
970 6
ĠÑĤÑįÐ´ Ð³ÑįÑįÑĢ
ĠÑħÐ¾Ð¹ Ð´
ĠÑģÐ°Ð¹ ÑħÐ°Ð½
ÐµÐ¼Ð¿ÐµÑĢ Ð°ÑĤÑĥÑĢ
1 101
2 144
8 206
9 37
9 54
a in
c e
e x
o s
Ġ /
Ġ Ð¸Ð¹Ð¼
Ð» ÑįÑįÑĢ
Ð¾ Ð¾Ð½Ð´
10 16
10 23
10 79
10 67
10 89
10 72
12 36
12 88
12 99
12 75
12 74
14 59
14 90
14 71
13 14
13 17
13 78
13 84
13 73
11 14
20 78
20 42
20 52
20 93
15 39
15 60
15 64
15 41
16 37
16 50
16 86
17 13
17 17
17 06
19 20
19 78
19 83
19 51
18 45
18 00
24 32
24 53
26 10
26 56
27 18
27 00
29 78
29 70
29 07
29 00
34 62
35 06
37 12
ÑĥÑĥ ÑĤÐ°Ð¹
Ðµ ÑĨ
ĠÑĤ Ð¾Ñģ
38 50
40 15
40 90
46 65
47 47
50 47
59 68
Ð± Ð¸ÑĤ
Ð°Ð¼ Ñģ
ĠÑģ Ò¯ÑĢ
44 49
ĠÐ· ÑĥÑĥ
76 12
ĠÐ¼ Ð°Ð»
85 46
Ó©Ð» Ð¸Ð¹Ð½
Ð´Ð°Ð³ Ð³Ò¯Ð¹
ĠÐ¾ÑĢ Ð´
Ð°Ñı Ð°ÑĢ
Ðĺ ÑĢ
215 8
229 0
229 5
ĠÐ°ÑĢ Ñħ
ĠÒ¯Ð· ÑįÐ¶
ÑĥÐ¼ ÑĭÐ½
ĠÓ©Ð³ Ó©Ñħ
ĠÐ¢ Ó©Ð²
546 4
848 6
ĠÐ±Ð¾Ð´ Ð¸Ñģ
ÑĪÐ¸Ð» ÑĤ
ĠÑįÐ» Ñģ
ĠÓ©Ð¼Ð½ Ó©Ð´
ĠÑħÒ¯Ñĩ ÑĤÑįÐ¹
ĠÑĤÒ¯Ò¯Ñħ ÑįÐ½
ĠÑģÑĥÑĢÐ³ÑĥÑĥÐ» Ð¸Ð¹Ð½
ĠÑĥÑħ Ð°Ð°Ð½Ñĭ
ĠÐ¸Ð»ÑįÑĢÑħÐ¸Ð¹ Ð»
Ð±Ó©Ð¼Ð±Ó©Ð³ Ð¸Ð¹Ð½
ĠÑĩÐ¸Ð³ Ð»ÑįÐ»
Ò®Ð¹ Ð»
ĠÐ±Ð¾Ð³ Ð¸Ð½Ð¾
" -
1 104
4 262
5 135
9 11
9 36
a b
p er
Ð Ļ
Ð´ Ð°Ð¹Ð½
10 10
10 19
10 38
10 59
10 66
10 86
12 10
12 60
12 55
12 76
12 09
12 06
14 32
14 31
14 04
14 83
14 06
14 08
ÑĤ Ð°Ñħ
Ñħ Ñĥ
11 54
11 64
11 81
20 67
15 25
15 38
16 55
16 87
16 75
16 42
16 84
Ð¼ Ñģ
Ð¼ Ð¸Ð½
17 15
17 27
17 83
19 48
19 88
19 86
19 61
18 26
18 46
18 48
ĠÐ± Ð¾ÑĢ
24 76
24 81
25 65
Ð°ÑĢ ÑĪ
26 62
ĠÑħ Ð¾Ð²
27 80
27 32
Ð¶ Ð¸Ð¶
28 95
29 68
29 92
29 71
30 23
30 24
Ð°Ð¹ Ð³
35 65
36 23
36 71
39 25
39 46
40 86
47 10
ÑįÐ³ ÑĪ
58 34
50 74
56 35
56 46
56 81
69 73
Ð¾ÑĢ Ñĩ
ĠÐ´ Ð°Ð¹ÑĢ
ĠÐ´ ÑįÐ²ÑģÐ³ÑįÑĢ
77 32
Ó©ÑĢ Ó©Ð²
ĠÐ¼ ÑįÐ½Ð´
Ðĳ Ð°ÑıÐ½
ĠÑĨ ÑįÐ²ÑįÑĢ
ĠÑĨ ÑĥÐ³Ð»
Ò¯Ò¯Ð´ ÑįÑįÑĢ
ÐĶ Ð°ÑĪ
Ðļ Ð°ÑĢ
Ð¾Ñģ Ð¾ÑĦ
215 2
216 5
224 9
ÑĩÐ» Ð°Ð½
ĠÑħÑįÐ» Ð±ÑįÐ»
ĠÑģÑĥÑĢ Ð°Ð»ÑĨ
ĠÐ¸Ð» ÑĢ
ĠÐ´ÑįÐ» Ð³ÑįÑĢ
ĠÑĤÓ©Ð» Ó©Ð²Ð»
ĠÐ±Ð¾Ð´ Ð»Ð¾Ð³
ĠÐ¼Ð°ÑĪ Ð¸Ð½
ĠÐ¾Ð´ Ð¾Ð¾
ĠÑĪÐ¸Ð» Ð´ÑįÐ³
ĠÑĤÐµÑħÐ½ Ð¸Ðº
ĠÑĤÑįÐ½ ÑĨ
ÑĤÑįÐ¼ ÑĨ
ÑĤÑįÐ¼ Ð´ÑįÐ³
Ó©Ð²Ð»Ó©Ð»ÑĤ Ð¸Ð¹Ð½
ÑĢÐ¾ÑĤ Ð¾Ðº
ĠÑıÐ»Ð³Ð°Ð° ÑĤÐ°Ð¹
3 124
3 100
4 140
4 246
4 221
5 158
5 357
6 129
Ð½ Ð¾Ð¾Ñģ
ÑĢ Ó©Ð³
10 12
10 40
10 58
10 60
10 68
10 52
10 71
12 15
12 23
12 35
12 48
12 94
13 87
11 67
20 80
20 63
15 13
15 11
15 17
15 46
15 33
15 65
15 07
16 21
16 73
16 03
Ð¸Ð¹ Ð»
17 19
19 13
19 18
18 35
18 87
18 83
18 07
ĠÐ± ÑĥÑĥÑĢ
ĠÐ± Ó©Ñħ
23 38
23 32
23 92
24 15
25 39
25 53
26 29
26 48
26 60
27 21
27 51
28 93
29 97
29 53
30 58
34 79
35 00
36 77
36 04
Ðµ Ñħ
39 82
39 00
Ñĩ Ð¸Ð¹Ð³
ĠÑĤ ÑĥÑĪ
45 39
45 49
22 20
40 57
40 74
46 29
48 46
47 45
50 58
56 50
59 50
78 30
ÑĨ ÑįÑį
ÑĪ Ð°ÑĤ
55 21
ĠÐ· Ð°Ð²
ĠÐ· Ð°Ð»ÑĥÑĥ
54 28
ÑĥÑĥÐ» Ð½Ð°
89 13
112 9
ÑĤÐ³ ÑįÑħ
110 0
110 9
ÑįÑįÐ» Ð±ÑįÐ»
ĠÑĥÑĢ Ð»Ð°Ð³
ĠÒ¯Ðµ ÑįÑģ
ĠÐ°ÑĢ Ð²Ð°Ð½
ÑĩÐ» Ð°Ð»ÑĭÐ½
ĠÐĲ Ð²
335 2
317 3
Ð´Ð» ÑĭÐ³
ĠÑħÐ¸Ð¹ Ð´ÑįÐ³
ĠÐ±Ð°Ð¹Ð³ÑĥÑĥÐ» Ð¶
438 0
ĠÐ¸ÑĢ Ð¶
Ð¾Ð»ÑĤ ÑĭÐ½
750 5
860 1
959 9
ĠÒ¯Ò¯Ñģ ÑģÑįÐ½
ĠÑħÐ°Ð°Ð½ ÑĤ
ĠÑģÑĥÐ´ Ð»Ð°Ð°
ĠÐ±Ð°Ð¹Ð´Ð» ÑĭÐ³
ĠÐ¤ ÑĢÐ°Ð½ÑĨ
ro t
ĠÐ¾ Ñĩ
ĠÑģÒ¯Ð»Ð¶ÑįÑį Ð½Ð¸Ð¹
ĠÓ©Ð½Ð³Ó© ÑĤÑįÐ¹
3 148
3 169
3 221
4 166
4 235
4 232
4 242
5 146
5 291
8 35
9 20
i m
Ñį Ðº
Ð» Ð°Ð°ÑĢ
Ð» Ð¸Ð³
Ð» Ð°Ð¼Ð¶
Ð¸ Ñı
Ð´ Ð°Ð»Ð´
10 63
12 18
14 12
14 21
14 60
14 77
14 87
14 74
14 51
14 09
13 13
13 83
11 84
11 51
20 27
15 10
15 76
15 31
15 54
15 00
16 47
16 60
16 93
16 08
16 92
16 61
Ð¼ Ð°Ð°
17 23
17 68
17 90
17 07
19 07
19 81
18 29
18 32
18 51
18 09
18 08
18 71
ĠÐ± ÑĥÐ´
26 13
26 38
26 06
28 32
29 35
29 84
Ð² Ð°ÑĢÑĭÐ½
30 47
30 74
30 00
34 55
35 49
35 94
37 47
Ð¾Ð» Ð¶
39 45
39 79
39 55
Ð¾Ð½ ÑĨ
Ñĩ Ð½Ð¸Ð¹
38 78
38 84
38 83
45 10
45 65
22 10
22 23
40 24
40 99
46 28
46 67
58 62
Ð± Ð°ÑıÑĢ
ĠÐ´ ÑĥÑĥÐ´
ĠÐ´ ÑĥÑĤ
98 76
Ð¸Ð» Ð¾ÑģÐ¾ÑĦ
67 27
Ð¸Ð½ Ð°
80 47
80 31
86 22
86 51
Ð¥ Ð¾ÑĳÑĢ
73 25
83 18
ÑĤÐ°Ð¹ Ð½
Ð¾Ñħ Ð³Ò¯Ð¹
Ð°Ñģ Ð³Ð°Ð»
ÑĥÐ» Ð°Ð°Ð½
41 14
112 5
113 7
114 1
ÑĤÐ³ ÑįÐ¶
Ð¸Ðº ÑĤ
ĠÐ±Ò¯ Ð»
ÑĥÐ² ÑģÐ°Ð½
ĠÑĥÐ» Ð¼Ð°Ð°Ñģ
ĠÐ³Ð°ÑĢ Ð³Ð°Ñħ
Ð¸ÑĤ Ð¼
227 2
227 9
ĠÐ¥ ÑıÑĤÐ°Ð´ÑĭÐ½
223 0
335 4
ĠÑħÑįÑĢÑįÐ³ Ð»ÑįÐ´ÑįÐ³
323 8
327 2
328 3
336 3
330 4
318 2
ĠÐ³Ð°Ð· Ð°ÑĢÑĤ
ĠÐ±Ð°Ð¹Ð³ÑĥÑĥÐ» Ð»Ð°Ð³Ð°
ĠÑįÑģ ÑįÑĢÐ³Ò¯Ò¯ÑĨ
Ó©Ð³Ð´ ÑģÓ©Ð½
Ð¸Ð»Ð³ ÑĭÐ½
948 8
ĠÑħÒ¯ÑĢÑĤ ÑģÑįÐ½
ĠÑģÐ¸ÑģÑĤÐµÐ¼ Ð¸Ð¹Ð½
ÑħÐ°Ð¼ Ð³Ð°Ð°Ð»
ĠÓ©Ð¼Ð½ Ó©Ñħ
ĠÐ´Ð°Ð² ÑħÐ°ÑĢ
ĠÐ°Ð¶Ð¸Ð»Ð»Ð°Ð³ Ð°Ð°Ð³
ĠÓ©Ð² Ó©ÑĢ
ĠÑħÒ¯Ð¼Ò¯Ò¯Ñģ Ð¸Ð¹Ð½
ÑĬ Ñĳ
ĠÒ¯Ð½ ÑįÐ»
ĠÐ´Ð°Ð» Ð°Ð¹Ð½
2 118
2 124
4 309
5 150
5 372
6 127
6 190
6 376
7 303
8 261
Ġ U
Ġ Ò¯Ò¯Ð´
Ġ Ð°Ð»ÑĤ
Ġ Ò¯Ò¯Ð½Ð¸Ð¹Ð³
Ð° Ð¾
Ð° ÑĦ
ÑĢ Ð°ÑĤ
10 51
10 07
10 92
12 59
12 87
12 96
12 62
14 57
14 66
14 44
14 42
ÑĤ Ð¾
ÑĤ Ó©Ð³
13 56
13 69
13 98
13 31
Ñħ Ó©Ð´Ó©Ð»
11 11
20 35
20 36
20 40
20 41
15 19
15 29
15 50
15 97
15 62
15 09
16 23
16 27
16 30
16 49
17 14
17 80
17 54
17 74
17 62
17 72
17 41
19 80
19 54
19 75
19 52
19 09
19 05
18 13
18 17
18 44
18 64
18 53
18 73
18 05
23 54
23 63
24 98
24 55
25 55
25 72
25 61
26 36
26 79
26 76
ĠÑħ Ó©Ð²
27 93
28 14
28 88
28 53
28 02
34 34
34 40
34 67
34 01
34 08
34 81
35 66
36 20
36 36
37 95
ĠÑĤ ÑįÐ¶ÑįÑį
38 77
38 87
ĠÐ½ ÑįÐ»
ĠÐ½ Ó©Ó©ÑĨ
45 86
45 01
49 24
49 22
58 80
50 50
50 33
56 63
59 28
Ð°Ð° Ñĩ
60 98
60 54
79 56
79 51
Ð± Ñĥ
ĠÐ´ Ò¯Ð½
90 40
90 82
99 67
ĠÐ· Ó©ÑĢ
ÑĥÑĥÐ» Ð°Ð³
89 90
65 36
ĠÐ¼ ÐµÑĤÑĢ
85 56
84 21
84 31
Ð¥ ÑĥÐ²
Ó©Ó© Ñħ
ĠÑĨ Ð°Ð°ÑĪ
112 4
Ð»Ð°Ð³ Ð°Ð´
Ð»Ð°Ð³ ÑĭÐ³
Ð¡ Ð°Ð½
Ð¾Ð² ÑģÐº
ÐĿ Ð¸Ðº
ĠÐ±Ò¯ Ð³
ĠÑĥÐ» Ð°Ð°Ð½
ĠÐ³Ð°ÑĢ Ð°Ñħ
ĠÐ³Ð°ÑĢ Ð°Ð»ÑĤÐ°Ð¹
ÑįÑįÐ» ÑįÐ½
Ð¸ÑĤ Ð°Ð»
ĠÐ°Ð¼ ÑĮÑĤ
220 6
335 3
339 0
ĠÑħÑĥÐ² Ð¸ÑĢ
ĠÐ°Ð¶Ð¸Ð» Ð»
ĠÓ©Ð³ Ð´Ó©Ð³
ÑįÐ»ÑĤ Ð¸Ð¹Ð½
ĠÓ©ÑĢ Ð³
ĠÓ©ÑĢ ÑģÓ©Ð»Ð´
647 8
ĠÐ±Ð¾Ð»Ð³ Ð¾Ñħ
Ð¢ÑįÑĢ Ð±ÑįÑįÑĢ
Ð¸Ð½Ð³ Ð¸Ñģ
ĠÐ² Ð°Ð½
ĠÐŃ ÑĢ
ĠÐ±Ð°Ð¹Ð´Ð» ÑĭÐ½
ĠÑĥÑĥÐ» ÑĭÐ½
ÐµÐºÑĤÑĢ Ð¾Ð½
2 106
3 130
5 365
5 292
6 103
6 151
6 162
6 234
8 293
9 161
9 651
o o
Ġ 50
Ð³ Ð°Ð°Ð½Ñĭ
Ð³ Ð°Ð¹Ð»
Ð» Ð¾Ð»
10 75
12 47
12 42
12 05
12 41
14 25
14 67
14 84
14 82
13 10
13 26
13 85
13 72
13 81
11 18
11 59
11 73
11 62
20 46
20 50
20 66
15 49
16 11
16 39
16 46
16 58
16 79
16 80
16 76
16 82
17 20
17 85
17 42
17 81
19 42
18 40
18 56
18 78
18 69
18 66
23 39
24 72
25 24
25 47
25 94
26 20
26 22
26 55
ĠÑħ ÑįÐ½
ĠÑħ Ó©Ð´
27 29
27 30
27 04
27 01
27 61
28 25
28 43
29 82
30 60
30 88
34 39
35 17
35 33
35 53
36 40
36 46
36 64
36 84
36 92
37 38
Ðµ Ð»Ð¸Ð¹Ð½
Ñĩ ÑįÑįÑĢ
40 87
46 99
47 34
49 14
21 10
21 14
Ò¯Ò¯ Ð³
58 77
58 42
56 90
56 77
56 84
60 97
79 34
79 87
68 39
69 34
33 15
ĠÐ´ Ò¯Ð½Ð´
67 57
90 23
55 30
80 59
76 40
ĠÑĥ ÑģÐ½Ñĭ
86 38
97 50
87 33
43 29
85 48
42 11
Ð¥ Ð¾ÑĤ
ĠÒ¯ Ð½Ñį
62 29
ĠÑĪ Ð°Ð»Ð³
Ð¾Ð¼ Ð¾Ð³
ĠÑĨ Ó©Ð¼
ÐŃ Ð½Ð´
ĠÑĩ Ó©Ð»Ó©Ó©
114 0
114 3
ÐĶ Ð°Ð»
ĠÐ¾Ð» Ð¸Ð¼Ð¿
Ð°Ð½Ð³ ÑĥÑıÐ°
220 9
Ðŀ Ð¹
218 2
228 7
226 2
ĠÑħÑįÑĢÑįÐ³ Ð»ÑįÑį
ĠÑħÑįÐ» ÑįÐ»ÑĨ
ĠÑħÑĥÐ² Ð¸Ð¹Ð½
ĠÐ¿ ÑĢ
ĠâĢ Ķ
ĠÑģÑĥÑĢ Ð²Ð°Ð»Ð¶
545 1
ÑĥÐ³ Ð°Ð¼
446 1
656 2
549 2
949 3
950 5
ar e
957 7
ÐµÑĢÐ¼ Ð°Ð½
ĠÑħÐ°ÑĢÐ¸Ð»ÑĨ Ð°Ð½
ĠÑĤÑįÐ½ Ð³Ð¸Ñģ
ĠÐķ Ð²ÑĢÐ¾Ð¿
ĠÐ·Ð¾ÑĢÐ¸Ð»Ð³ Ð¾Ð¾ÑĢ
ĠÐŀÑĢ Ð¾Ñģ
Ò®Ò¯Ð½ Ð¸Ð¹Ð³
ĠÐºÐ¾Ð¼ Ð°Ð½Ð´
Ò®Ð½Ð´ ÑįÑģÐ½Ð¸Ð¹
Ð¥Ð°Ð¼ Ð³Ð¸Ð¹Ð½
ĠÐ¼ÑıÐ½ Ð³Ð°Ð½
Ð¢Ð¸Ð¹Ð¼ ÑįÑįÑģ
) -
2 111
2 125
2 140
4 370
4 237
4 356
5 154
6 287
6 551
7 156
8 275
8 182
8 253
9 176
Ġ 25
Ġ ÑįÐ½Ð´
Ð» ÑĮ
Ð» Ð¾Ðº
Ð´ Ð°Ð¶
10 57
12 12
12 27
12 33
14 19
14 23
14 26
14 45
Ò¯ Ðµ
Ñģ ÑĭÐ³
13 89
13 05
13 06
Ñħ ÑįÑĢ
Ñħ ÑįÐ½Ñį
11 93
11 91
20 48
20 60
20 32
20 06
20 08
15 27
15 43
15 42
15 04
15 02
15 93
16 17
16 19
16 70
16 74
16 83
16 91
Ð¼ ÑĥÐ½
17 26
17 99
17 61
19 34
19 49
19 44
19 00
18 28
18 34
18 99
18 74
18 02
18 62
ĠÐ± Ð°Ñı
23 93
24 19
25 04
26 49
26 65
26 83
26 61
27 79
28 19
28 69
Ð² Ð¾Ð»
30 93
34 18
35 84
36 63
37 40
Ð°Ð³ ÑĪ
45 15
45 67
40 40
40 56
40 63
46 55
46 51
46 08
48 56
48 66
47 70
49 56
58 44
58 89
58 97
56 38
68 45
68 63
69 86
33 11
ĠÐ´ Ð°ÑıÐ°ÑĢ
66 45
80 50
32 16
32 19
ĠÐ· Ð°Ð°
Ó©ÑĢ Ó©Ð³
89 42
Ð°Ð°ÑĢ Ð°Ð»
95 36
95 37
42 14
63 16
Ð¥ Ð¾ÑĢ
Ð¥ ÑįÐ´
73 30
Ð¿ ÑĢÐ¾ÑĨÐµÑģÑģ
Ð°Ñģ ÑĤ
112 7
113 4
Ð¾Ð² ÑĮ
ÐĿ Ðľ
ĠÑĥÐ» Ð¼Ð°Ð°ÑĢ
Ð°Ð· Ð°ÑĢ
229 7
225 4
228 0
226 3
ĠÑħÑįÑĢÑįÐ³ Ð¶
317 5
320 1
329 1
324 5
336 8
Ð´Ð» ÑĭÐ½
ĠÓ©Ð³ Ó©Ð³
438 8
646 6
647 1
ĠÑĩÐ°Ð´ ÑģÐ°Ð½
ĠÑħÑįÐ´ Ð¸Ð¹
ÑįÑįÑħ ÑįÐ½
Ð¸Ð³Ð´ ÑģÐ°Ð½
ĠÑģÐ°Ð¹ Ð¶ÑĢ
Ð°Ð¼Ð± Ð°
ĠÑĥÑĤÐ³Ð° ÑĤÐ°Ð¹
ĠÐĳÑĢ Ð¸ÑĤ
ĠÑĤÐ°Ð¹Ð» Ð±Ð°ÑĢ
ĠÓ©Ó©ÑĢÑģ Ð´Ð¸Ð¹Ð½
ÑĥÐ½Ðº ÑĨ
1 106
2 119
2 142
2 145
3 128
4 155
4 197
4 205
4 379
6 306
6 252
7 145
7 553
8 234
8 402
I D
n i
Ð½ ÑįÑį
Ñį ÑĪ
Ð» ÑĥÑĥÐ´
12 69
12 77
14 37
14 55
14 75
14 85
14 63
14 62
13 15
13 23
13 37
13 58
13 70
13 88
Ñħ Ó©Ó©
20 34
20 49
20 84
20 83
15 82
16 59
16 66
16 44
16 96
17 10
17 30
17 60
17 64
17 53
17 04
19 25
19 36
19 45
19 32
19 87
19 96
19 93
19 41
18 36
18 98
18 96
18 52
18 81
ĠÐ± Ó©Ð¼Ð±Ó©Ð³
23 23
23 26
23 94
23 91
24 21
25 73
Ð°ÑĢ ÑģÐ°Ð½
ĠÑħ Ð°Ð³Ð°Ñģ
ĠÑħ Ð¸ÑĩÑįÑįÐ»
27 48
27 94
28 47
28 07
29 86
29 63
30 98
30 04
34 43
34 07
35 99
35 86
36 19
36 80
39 58
39 50
ĠÑĤ Ð°
ĠÑĤ Ð°Ð¹
38 63
ĠÐ½ ÑĥÑĥÑĢ
45 08
40 82
46 50
48 67
47 53
49 25
49 07
58 30
58 71
59 06
60 15
60 77
69 15
69 95
Ð± Ð°Ð¹Ð»
70 50
70 99
98 96
67 12
67 34
Ð· Ð¾Ð½
Ð· Ð³ÑĥÑĥÑĢ
Ð¸Ð½ ÑĤÐµÑĢ
ĠÑģ ÐµÑĢÐ²ÐµÑĢ
80 80
32 10
Ð¾Ð³ Ð¾Ð¾Ð½
76 43
ÑĥÑĥÐ» Ð°Ð»ÑĤÑĭÐ½
87 66
ÑįÑħ ÑįÑįÑĢ
65 16
75 40
74 35
84 30
Ð¸ÑĢ Ð¸Ð¹Ð½
62 27
Ð¿ Ð¿
Ð¢ ÑįÐ¼
82 12
ĠÑĨ Ð¾Ð»
114 9
Ð¾Ð¾ÑĢ Ð¾Ð¾
Ð¾Ñģ ÐºÐ²
215 9
217 5
âĢĿ ,
339 8
337 1
Ó¨ Ð½
Ð»ÑįÐ» ÑĤ
326 4
ÑĥÑĥÐ»Ð°Ñħ ÑĭÐ½
ĠÐ½ÑįÑĢ Ð¸Ð¹Ð³
445 5
447 7
ĠÐ±Ð°Ð¹Ð³Ð°Ð° Ð´
650 4
968 0
679 8
ĠÐ³Ð¾Ð» ÑĭÐ½
738 7
848 1
740 0
558 4
639 8
ar d
859 5
838 2
960 8
958 6
Ò¯Ð³ Ð½
ĠÐ´Ð°Ð² ÑĥÑĥ
ĠÐ·Ð°Ð¼ Ð°Ð°ÑĢ
ĠÐ´Ò¯ÑĢ Ñģ
ĠÐ°Ñħ ÑĥÐ¹
ĠÒ¯Ð½ ÑįÐ½
ÐĲÐ¼ ÐµÑĢ
ĠÐ¸Ð½ Ð¶ÐµÐ½ÐµÑĢ
Ð¾ÑĢÐ½ Ð¾Ð´
ĠÑĨÐ¾Ð¼ Ð¾Ð³
ĠÐ±Ð°Ð¹ÑģÐ½ ÑĭÐ³
ĠÑĪÐ°Ð»ÑĤ Ð³Ð°Ð°Ð»
ÐĿÐ¸Ð¹ ÑĤ
ĠÑģÑĤ Ð°Ð½Ð´Ð°ÑĢÑĤ
dow s
2 102
4 146
5 186
5 297
5 347
5 364
6 122
6 247
7 195
8 148
8 157
8 257
8 233
8 441
9 662
w or
Ġ 100
Ð» ÐµÑĢ
Ð¾ Ñĩ
10 64
10 96
10 74
12 11
12 56
12 44
12 52
14 11
14 20
14 99
14 53
14 52
14 93
14 72
14 92
13 28
13 57
13 59
13 33
13 97
13 74
Ñħ Ð¾ÑĪ
11 13
11 76
20 25
20 44
20 71
15 26
15 95
15 72
16 18
16 77
16 63
16 62
17 28
17 98
17 77
17 95
17 01
17 82
19 17
19 23
19 57
19 92
18 25
18 90
18 04
18 91
ĠÐ± Ð°Ð°ÑĤÐ°ÑĢ
23 59
23 87
23 01
23 03
23 06
24 48
24 50
24 56
24 97
24 64
24 84
24 52
25 07
Ð°ÑĢ Ð¼
26 64
26 73
ĠÑħ Ó©Ð³
27 37
27 89
27 71
28 18
28 44
28 63
29 90
29 54
30 55
30 87
34 28
34 49
35 23
35 46
35 56
35 87
35 72
35 41
36 38
36 78
36 66
36 08
36 81
37 17
Ðµ ÑĪ
Ðµ Ð½Ð¸Ð¹
39 99
39 08
39 71
ĠÑĤ Ò¯Ò¯Ð½Ð´
38 10
38 85
ĠÐ½ Ð°Ð¹Ð¼
45 66
45 74
22 16
40 34
40 32
40 43
ÑĮ Ðµ
46 17
46 58
46 77
48 27
48 35
48 01
48 51
47 78
47 04
57 53
57 01
58 99
58 93
79 68
68 85
69 68
Ð± Ð¾Ñģ
33 27
Ð¸Ð» Ð¸Ð¹Ð½
67 10
ĠÐ³ ÑįÐ¼ÑĤ
88 90
88 94
66 56
ĠÑģ Ð¿Ð¾ÑĢÑĤ
80 56
44 19
99 17
32 20
76 79
89 29
97 16
ÑįÑħ Ð¸Ð¹Ð½
65 24
42 23
74 18
94 29
84 10
63 11
ÑĥÐ» Ð°
112 8
Ð¾Ñģ ÑĦ
ĠÐ±Ð¸ Ð·
216 2
ĠÐ°Ð² ÑĤÐ¾Ð¼
220 0
224 6
218 5
228 4
217 3
ĠÐĲ Ð·
323 0
329 2
âĢĿ -
328 6
325 3
336 0
336 6
339 7
ĠÑħÑĥÐ² Ð°
330 7
ĠÑĤÑĥÑģ Ð³Ð°Ð¹
ĠÐ±Ð°Ð¹Ñħ Ð°Ð´
ĠÐ±Ð¸Ñĩ Ð¸Ð¶
ĠÐĵ ÑĢ
559 4
656 6
ĠÑĤÐ¾Ð³ÑĤ Ð¼Ð¾Ð»
769 2
ti c
678 5
ĠÑįÐ· ÑįÐ¼
ĠÑĳ ÑģÐ½Ñĭ
Ð°Ð¹Ð´ Ð²Ð°ÑĢ
ĠÐ°Ð¼ÑĮÐ´ ÑĢÐ°Ð»
Ð£Ð» ÑģÑĭÐ½
Ð£Ð» Ð¼Ð°Ð°ÑĢ
ĠÒ¯Ð» Ð´ÑģÑįÐ½
ĠÐ¾ÑĢÐ¾Ð»ÑĨ ÑģÐ¾Ð½
ĠÑħÐ¾Ð¾ÑĢÐ¾Ð½Ð´ Ð¾Ð¾
ĠÑĤÐ°Ð² Ð°Ð½
ĠÐ³ÑĥÑĢ Ð°Ð²
ĠÑģÐ¾Ð½Ð³ ÑĥÑĥÐ»
it y
Ò®Ð½Ð´ ÑģÑįÐ½
ĠÑįÑĢÐ´ ÑįÐ¼
ÑıÐ³ ÑĤ
ÑĤÐ¾Ð¾ ÑĨ
Ò¯Ð»Ñħ Ò¯Ò¯ÑĢ
1 102
2 147
4 260
4 355
5 155
5 172
5 361
6 126
6 121
6 157
6 180
7 139
7 286
8 243
9 111
9 553
Ġ O
Ġ X
Ġ m
Ð³ ÑĥÑĥÐ´
Ð³ vÐ¹
Ð» Ð¸Ðº
Ð» ÑįÐ¶ÑįÑį
14 61
ÑĤ Ò¯Ò¯Ñħ
13 16
13 22
20 30
20 56
20 87
15 47
15 75
15 92
15 91
15 81
16 12
16 38
16 98
16 31
16 65
Ð¼ Ð¾Ð´
17 11
17 25
17 50
17 79
17 97
17 93
17 05
19 60
19 79
19 98
19 53
19 63
18 14
18 19
18 60
18 89
18 93
ĠÐ± ÑĥÑĥ
23 18
23 25
23 35
23 90
24 28
24 43
25 57
25 56
25 60
25 78
25 97
26 31
26 86
26 82
ĠÑħ Ò¯Ð¹
ĠÑħ ÑįÑįÑĢ
27 10
27 99
27 83
28 36
28 37
29 28
34 86
34 03
36 95
36 07
37 16
37 69
37 54
37 86
38 88
38 93
45 14
22 24
22 26
40 28
40 49
40 60
46 38
46 86
47 41
49 17
49 38
49 82
49 08
Ò¯Ò¯ Ð¶
58 76
58 87
50 16
50 03
56 36
56 02
59 60
59 44
60 46
60 88
79 19
79 23
79 02
68 60
68 86
33 14
ÑĨ ÑįÐ½
ÑĨ Ó©Ð³
ÑįÐ» ÑģÑįÐ½
ĠÐ´ Ð¾Ð¾ÑĢ
98 95
67 28
Ð· Ó©Ð²
Ð°Ð¼ ÑĮÐ´
88 69
66 60
77 26
80 87
76 11
89 18
86 79
65 57
75 35
43 34
53 20
93 14
93 24
62 19
ĠÑĪ Ð°Ñħ
Ðľ Ð¾Ð½
ĠÑĨ Ð°ÑĨ
ĠÑĨ Ð¾Ð³ÑĨ
ÑģÑĤ ÑĢÐ°Ð»
ĠÐ¾ÑĢ ÑĥÑĥÐ»ÑģÐ°Ð½
ĠÐ¾ÑĢ ÑĥÑĥÐ»Ð¶
113 2
ÑģÐ¾Ð½ Ð³
ÐĶ Ð°Ð²
Ð°Ð½Ð³ Ð¸Ð»
229 2
225 6
219 5
227 6
218 3
218 7
223 1
223 6
317 4
317 8
327 5
338 2
334 3
ĠÐ¸Ñħ ÑįÑįÑħÑįÐ½
ĠÐ±Ð°ÑĢ Ð°Ð³
ĠÐ±Ð°ÑĢ ÑĮÐ¶
Ð¸Ñģ Ðº
319 4
ÑħÐ°Ð½ Ð¸Ðº
Ð°Ðº Ñģ
ĠÐ±Ð°Ð¹Ð³ÑĥÑĥÐ» Ð°Ð¼Ð¶
ĠÓ©Ð½ Ð³Ó©ÑĢ
Ð¸Ð² Ð°Ð°
ĠÐ±Ð°Ð¹Ñħ Ð´Ð°Ð°
Ð¤ ÑĢ
650 5
448 4
Ð´Ð°Ð» Ð³Ò¯Ð¹
779 1
779 2
550 2
759 0
ĠÑĤÐ¾Ð³ÑĤ Ð½
ĠÑĥÐ´ Ð°Ð°Ð½
ĠÒ¯Ð½Ð´ ÑįÑģÑĤ
ĠÑĨÐ°Ð³ Ð¸Ð¹Ð½
945 1
740 8
ĠÑĤÐ¾Ð³Ð» Ð¾Ð¶
746 5
ĠÑıÐ» Ð°Ð»ÑĤ
ĠÑıÐ» Ð³Ð°ÑĢ
ĠÐ¾ÑĢÐ¾Ð»ÑĨ Ð¾Ð¶
ĠÐ½Ð°Ñģ ÑĤÐ°Ð¹
ĠÑħÑı Ð¼
ĠÐ°Ð½Ð³ Ð¸Ð»
ÑĤÓ©Ð» Ð±Ó©ÑĢ
ĠÑĪÐ°ÑĪ Ð½Ñĭ
Ð¢ÑĥÑħ Ð°Ð¹Ð½
ĠÐ½ÑįÐ» ÑįÑįÐ´
2 127
2 137
2 149
2 132
3 108
4 150
4 100
4 238
4 276
4 233
4 283
5 235
6 156
6 184
6 370
6 244
6 261
7 138
8 145
8 240
8 237
8 285
8 346
9 142
9 148
9 256
I P
Ð³ Ó©Ó©ÑĢ
10 25
10 87
Ñĥ Ð³Ð°Ð»
Ñĥ Ð³Ð°Ð°
12 19
12 46
12 68
12 66
14 10
14 46
14 56
14 79
14 80
14 07
Ò¯ Ð²
ÑĤ Ð»Ð°Ð³
13 20
13 53
13 71
Ñħ Ó©ÑĢ
Ñħ Ð°Ð»Ð´
11 10
20 37
20 33
20 01
15 77
15 53
15 84
15 63
15 83
16 90
16 05
Ð¼ Ð¸Ð¹Ð³
17 35
17 48
17 63
19 14
19 26
19 68
19 69
19 90
19 02
19 06
18 24
18 39
18 33
18 43
23 48
23 95
23 08
23 00
23 61
24 38
24 79
24 80
24 51
24 06
24 08
25 62
26 24
26 57
26 75
27 14
27 24
27 40
27 87
28 46
28 48
28 01
29 99
29 32
29 51
Ð² Ð¸Ð½
30 15
30 86
34 27
34 36
34 77
34 65
34 00
35 40
35 55
35 31
36 67
36 41
37 20
37 53
37 51
ÑĥÑĥ ÑĤ
39 51
ĠÑĤ Ð°Ð¼Ð¸ÑĢ
ĠÑĤ Ó©Ð²Ð»Ó©ÑĢ
ĠÑĤ ÐµÐ¼Ð¿ÐµÑĢÐ°ÑĤÑĥÑĢ
38 58
38 72
ĠÐ½ Ò¯Ð´
45 75
45 53
22 17
22 22
40 33
ÑĮ ÐµÑĤ
46 36
46 37
46 39
46 54
46 61
48 89
48 75
48 94
48 93
47 56
49 21
49 63
49 83
57 28
58 14
58 28
58 84
50 02
56 33
56 51
59 23
59 96
60 00
79 45
78 23
68 23
68 31
69 30
69 69
70 15
70 45
33 34
ĠÐ³ Ð°Ð»
66 30
77 20
77 78
80 53
44 26
99 79
99 90
Ðº Ð¾Ð´
ĠÐ· ÑĥÑĥÐ½
76 53
ÑĥÑĥÐ» Ð°Ð°Ð´
89 78
86 13
87 57
64 17
64 36
64 37
64 45
65 48
95 32
43 23
96 15
42 19
74 38
84 29
84 45
63 24
62 17
ĠÑĪ Ò¯ÑĤ
Ð¢ Ó©Ð¼Ó©ÑĢ
ÑĤÑįÐ¹ Ð³ÑįÑį
Ðĳ ÑĥÑĢ
ĠÐ¾ÑĢ ÑĪ
Ð¸Ð´ ÑĭÐ½
Ð°ÑĪ Ð¸Ð³Ð»
Ñİ ÑĥÑĤ
ÑĦ ÑĦ
ĠÐ¾Ð» Ð´
215 0
215 6
ĠÑĥÑĢ Ð»Ð°Ð³Ð¸Ð¹Ð½
Ðŀ Ð»
219 2
219 3
218 4
218 6
ĠÒ¯Ðµ Ð´ÑįÑį
226 6
Ð³ÑįÑįÑĢ ÑįÑį
ĠÑħÑįÑĢÑįÐ³ Ð»ÑįÐ¶
ĠÐĳ Ð¾Ð³Ð´
ÐµÑĤ ÐµÑĢ
330 6
326 3
ÑĥÑĥÐ»Ð°Ñħ ÑĭÐ³
in dows
545 6
447 3
648 8
ÑĩÐ¸ÑĢ ÑħÑįÐ³
548 0
556 4
556 8
739 3
998 4
898 5
ĠÐ±Ð°Ð¹ÑĢ Ð»
Ð»Ð°Ð» ÑĤÐ°Ð¹
Ð»Ð°Ð³Ð´ Ð°Ð¶
ĠÑħÐ°Ð¼ÑĤ Ð»Ð°Ð³Ð¸Ð¹Ð½
ĠÑĤÒ¯Ò¯Ñħ ÑįÐ½Ð´
ĠÑįÑĨ ÑįÑģÑĤ
ĠÑģÒ¯Ò¯Ð» Ð¸Ð¹Ð½
ĠÑĤÐ°Ð½ Ð¸Ð»ÑĨ
ĠÑĪÐ°Ð³Ð½ Ð°Ð»
ĠÐ°Ð¼ÑĮÐ´Ð°ÑĢ Ñĩ
ÑĤÐ¾Ð´ Ð¾ÑĢÑħÐ¾Ð¹
ĠÐ³ÑįÐ´ Ð³Ð¸Ð¹Ð³
ĠÐ´ÑįÑį ÑĪ
2 109
3 140
3 139
4 147
4 156
4 188
4 196
4 299
4 204
4 268
4 257
4 254
4 374
4 352
5 131
5 208
5 341
6 236
6 258
6 163
6 353
7 147
7 364
7 361
n ter
Â °
Ð½ Ò¯Ò¯Ð´Ð¸Ð¹Ð½
Ð³ Ð¾Ð»
Ð³ Ð°Ð»ÑĤÑĭÐ½
ÑĢ ÑĭÐ³
12 26
12 28
12 29
12 78
14 24
14 47
14 43
Ñģ Ñģ
Ñģ Ð¼
13 27
13 44
13 62
11 68
20 23
20 98
20 64
20 74
20 05
20 61
20 91
15 20
15 23
15 56
15 78
15 70
15 90
15 06
16 54
16 97
16 85
16 71
Ð¼ Ð¾Ð½Ð³Ð¾Ð»
17 16
17 37
17 49
17 69
17 89
17 87
17 08
17 00
19 15
19 24
19 22
19 40
19 21
19 99
19 31
19 73
18 58
18 77
18 42
23 89
23 02
24 22
24 66
24 09
25 16
25 27
25 29
25 95
25 51
Ð°ÑĢ Ñĩ
27 47
27 54
27 52
Ð¶ Ð¸Ð³
28 76
28 75
28 74
28 83
28 00
29 14
29 16
29 61
30 17
30 30
30 34
30 56
30 73
30 52
30 92
34 89
34 83
35 14
35 29
35 79
35 43
36 02
37 68
37 55
37 03
Ð°Ð» Ð¸Ð¼
39 90
Ñĩ Ò¯Ò¯Ð´Ð¸Ð¹Ð½
ĠÑĤ ÑįÑį
ĠÐ½ Ò¯Ò¯Ð´ÑįÐ»
45 21
22 12
40 44
40 62
46 59
46 80
46 96
46 41
48 40
48 95
48 74
48 06
47 30
47 54
47 02
49 80
49 97
58 13
58 61
50 35
50 70
ÑįÑĢ Ð»ÑįÐ³
60 39
60 96
79 40
79 89
79 04
78 57
Ð± Ð¾
33 29
67 15
67 19
67 35
90 12
88 10
88 09
66 10
66 20
66 25
ĠÑģ ÑįÐ´
80 79
32 15
32 23
ĠÐ· Ð°Ð´
76 28
76 52
31 10
54 23
Ð°Ð´ ÐµÐ¼
97 23
65 50
ĠÐ¼ Ð¸Ð½
75 38
43 13
53 23
ĠÑĪ Ð°Ð²
51 10
Ð¢ Ò¯Ò¯Ð½Ð¸Ð¹Ð³
92 12
Ò¯Ò¯Ð» Ð½Ñį
ÐĲ Ð·
ĠÑĨ Ó©Ó©Ð½
112 3
Ð¡ ÑĥÐ´
Ð½Ð° ÑģÐ°Ð½
ĠÑħÒ¯ ÑģÐ½ÑįÐ³ÑĤ
ÐµÐ½ ÐµÐ¶
Ð´ÑįÐ³ Ð³Ò¯Ð¹
ĠÑĥÐ» Ð°Ð¼
ĠÐ°Ð² Ð´Ð°Ð³
225 3
225 9
226 5
327 3
328 7
337 9
ĠÐ°Ð¶Ð¸Ð» Ð»Ð°Ð´Ð°Ð³
ĠÐ±Ð°Ð¹Ñħ Ð³Ò¯Ð¹
Ð¾Ð³Ð´ Ð¾Ð¶
545 2
445 3
446 5
648 4
648 5
650 0
646 7
646 8
538 3
Ð¾Ðº Ñģ
778 2
658 6
945 6
ĠÑĤÐ¾Ð¼ Ð¸Ð»
758 8
856 3
ĠÑħÑįÐ¼Ð¶ÑįÑį Ð½Ð´
850 8
ĠÑįÐ· ÑįÐ½
846 4
667 2
Ð¾ÑĨ Ð¸Ð°Ð»
ĠÐ°Ð»Ð´ Ð°ÑĢÑĤÐ°Ð¹
990 9
ĠÐ½Ð¸Ð¹ÑĤ Ð¸Ð¹Ð½
ĠÐ½ÑįÐ¼ ÑįÐ»ÑĤ
Ð¼ÑįÐ´ ÑįÑįÐ»
oc ol
ĠÑĪÐ°ÑĪ Ð¸Ð½
ĠÓ©Ñģ Ó©Ð»ÑĤ
ĠÐ±Ò¯ÑĤÑįÑįÐ³ Ð´ÑįÑħ
ĠÐ·ÑįÑĢÐ³ Ð¸Ð¹Ð³
Ó¨Ó©ÑĢ Ó©Ó©ÑĢ
rot ocol
2 129
3 156
4 161
4 281
5 200
5 176
6 254
6 371
7 109
7 250
7 297
7 308
7 283
8 245
8 359
9 308
9 354
9 341
T P
Ð½ Ð¸
Ð½ Ð¾Ð¾
Ð´ Ð¸Ð¹
Ð´ ÑįÑįÑĢ
10 65
12 30
14 14
14 18
14 40
14 76
14 89
14 95
13 39
13 32
13 01
Ñħ Ò¯Ð½
11 74
20 70
20 95
20 53
15 30
15 34
15 37
15 58
15 51
16 14
16 78
16 04
Ð¸Ð¹ Ð²
17 67
17 88
19 46
19 91
18 23
18 70
18 63
ĠÐ± Ó©Ð¼Ð±
23 13
23 19
23 40
23 56
23 99
23 85
24 16
24 24
24 25
24 54
24 02
25 30
25 43
25 93
26 14
26 00
ĠÑħ ÑįÑĤ
27 20
27 19
27 36
27 43
27 74
27 63
27 06
27 91
Ð¶ Ð¸Ñħ
28 27
28 80
28 97
28 96
29 21
29 50
29 72
29 06
Ð² ÑįÑį
30 48
30 83
34 22
34 56
34 70
35 80
35 63
35 91
36 29
36 59
36 85
37 15
37 21
Ð°Ð» Ð¼
Ð°Ð» Ð³Ò¯Ð¹
ĠÑĤ Ð°Ð°ÑĢ
38 40
38 56
45 20
45 89
45 81
22 28
40 54
40 85
46 26
46 40
48 32
48 81
47 15
47 94
47 63
47 00
57 29
57 60
57 09
58 95
56 09
Ð°Ð° ÑĤÐ³
60 62
60 51
79 16
79 00
78 14
68 65
Ð± ÐµÑĢ
Ð± Ð°Ñı
70 35
70 77
ĠÐ´ ÑĥÐ³ÑĥÐ¹
98 18
98 64
98 85
67 14
Ð· Ð°Ð¼
88 35
88 64
77 16
77 21
77 42
80 63
99 94
32 12
ĠÐ· Ò¯ÑĤÐ³
76 30
89 34
86 45
65 22
ĠÐ¼ Ð°Ñħ
43 39
Ñı ÑĨ
53 37
94 32
84 23
ÐµÑĢ Ð»
Ð¥ ÑıÑĤÐ°Ð´ÑĭÐ½
ĠÒ¯ Ð³Ò¯Ð¹
ĠÑĪ ÑĥÐ²
Ð¢ Ò¯Ò¯Ð½ÑĩÐ»ÑįÐ½
Ð°Ñģ ÑĤÐ°Ð¹
92 18
Ðĳ Ð¾Ð»
ĠÑĨ ÑĥÐ²
ĠÑı Ð°Ð¼
Ó©Ó©ÑĢ ÑĩÐ»
ĠÐ°Ð¼ ÑĮÑģÐ³Ð°Ð»
216 1
220 7
220 8
219 4
224 1
ĠÐ°ÑĢ Ð³
228 1
ĠÑĥÐ»Ñģ ÑĭÐ³
223 5
223 8
335 5
ĠÒ¯Ð¹Ð» ÑĩÐ»
324 6
324 8
338 4
339 5
339 9
334 4
ĠÐ±Ð°ÑĢ Ð¸Ð¼
Ð¨ Ð°ÑĢ
318 1
ÐµÐº ÑĤÐ¾ÑĢ
Ð°Ð¹Ð» Ð±Ð°Ð»
ĠÑĤÑĥÑģ Ð»Ð°Ð¼Ð¶
Ð¾ÑĳÑĢ Ñħ
in e
Ð¾Ð³Ð´ Ð´Ð¾Ð³
545 4
445 4
ĠÑħÐ¾Ð»Ð± Ð¾Ð¾Ð½Ñĭ
ĠÑħÐ¾ÑĳÑĢ Ð´ÑĥÐ³Ð°Ð°ÑĢ
ĠÐ½Ð¸Ð¹ ÑģÐ»ÑįÐ»
968 2
ÑħÐ°ÑĢ Ð¸Ð»ÑĨ
440 3
738 8
756 8
ĠÐ¾Ð¹ Ð½
ĠÑĩÐ°Ð´ Ð°ÑħÐ³Ò¯Ð¹
758 9
959 1
ĠÐ³ÑįÑĢ ÑįÑį
878 9
al l
667 7
Ó©Ó©Ð½ Ð´
Ðķ ÑĢÓ©Ð½ÑħÐ¸Ð¹
ĠÐ°Ð¹Ð¼ Ð°Ð³
ĠÑħÑįÐ»Ð±ÑįÑĢ ÑįÑįÑĢ
Ð±Ð°Ð° ÑĤ
ÐŃÑĢ Ð´ÑįÐ½Ñį
ĠÑħÐ°ÑĤ Ð°Ð½
Ð¼Ó©ÑĢ Ð¸Ð¹Ð½
ÐĸÐ¸ÑĪ ÑįÑįÐ»Ð±ÑįÐ»
ĠÐ¾Ð¹Ð»Ð³ Ð¾Ð»ÑĤ
ĠÐĲÐ¼ÐµÑĢ Ð¸ÐºÐ¸Ð¹Ð½
ĠÐ±Ð°Ð¹Ð³Ð°Ð» Ð¸Ð¹Ð½
ÐĿÐľ ÐĲÐ£
2 108
2 130
2 138
3 132
4 129
4 117
4 187
4 243
5 256
5 289
5 402
6 296
6 552
7 262
7 371
9 203
e w
Ġ d
Ġ 13
Ð½ Ð¸Ñģ
Ð» ÑįÑįÐ´
ÑĤ Ð°
ÑĤ ÑįÑĢÐ³
Ñģ Ð¾Ð»
Ñģ ÑĥÐ²
13 40
13 67
13 61
20 29
20 47
20 76
20 97
20 94
15 12
15 36
15 44
16 56
16 52
Ð¼ Ð°
Ð¼ ÑĭÐ³
17 34
17 36
17 46
17 32
17 94
17 73
17 92
19 27
19 97
19 43
19 62
18 18
18 37
18 80
18 82
23 49
23 57
23 88
24 18
24 26
24 30
24 60
25 20
25 26
25 34
25 59
25 79
25 68
25 33
25 09
26 25
26 50
26 88
26 04
26 02
26 41
27 12
27 88
28 24
28 77
29 74
30 49
30 77
30 09
30 91
34 29
34 47
34 21
34 60
34 76
34 97
34 95
34 96
35 11
35 28
35 58
35 67
35 82
36 60
37 39
37 44
37 75
37 93
37 09
37 05
ĠÑĤ Ð¾Ð½
38 59
38 98
38 80
45 17
45 97
22 18
40 18
40 45
40 73
40 00
46 66
46 43
46 73
48 20
48 39
48 45
48 99
48 54
48 02
48 91
47 37
47 60
49 27
49 45
49 70
49 61
57 93
58 86
58 96
50 85
50 94
56 80
60 57
60 09
78 17
78 68
78 64
69 27
69 50
70 11
33 36
ĠÐ´ ÑįÐ³
98 32
Ð¸Ð» ÑįÑįÐ´
Ð· Ò¯Ð¹Ð»
90 20
90 80
66 37
77 73
ĠÑģ Ð°Ð¼
44 12
44 24
99 68
99 42
32 29
31 12
Ð¸Ð¹Ð³ Ò¯Ð¹
97 11
97 18
97 51
87 47
65 58
65 56
65 32
75 12
75 46
95 16
96 59
74 28
94 15
Ò¯ÑĢ Ñħ
63 36
73 36
93 25
62 20
Ð°Ð°Ð½ Ð°Ð°Ñģ
72 13
Ð°ÑĤ ÐµÐ¼
Ð¸Ð³ ÑĤ
Ð¸Ð´ Ð¸Ð¹Ð½
Ð°Ð»Ð´ Ð°Ð½
ÑĥÐ´ Ð¸ÑĢÐ´
ĠÐ¶ ÑĥÑĢ
215 1
216 0
216 3
216 9
229 4
224 4
217 0
217 6
217 8
223 2
ĠÑįÑĢ Ò¯Ò¯Ð»
323 1
327 7
329 7
338 8
ÐŁ ÑĢ
337 4
ĠÐ±Ð°Ð¹Ð³ÑĥÑĥÐ» Ð°Ñħ
ĠÐ¼ÑįÐ´ ÑįÑį
ÑįÑĤÐ³ ÑįÐ»
ĠÓ©Ð³ Ò¯Ò¯Ð»
Ò¯Ð» Ð´
Ò¯Ò¯Ð»ÑįÑħ ÑįÐ´
446 7
648 9
650 2
538 6
559 0
548 7
548 8
968 5
449 7
659 9
540 3
860 3
946 1
668 4
979 1
869 2
950 6
669 5
Ð»Ð°Ð» ÑĭÐ³
939 1
ĠÐ°Ð³ ÑĥÑĥÐ»
ĠÑħÑįÐ² Ð»ÑįÐ»
ĠÑħÐ¾Ð¾ÑĢÐ¾Ð½Ð´ ÑĭÐ½
ĠÑħÑĥÐ³Ð°ÑĨ Ð°Ð°Ð½Ñĭ
ĠÓ©Ð³Ó©Ð³Ð´ Ó©Ð»
ĠÑħÐ°Ð» ÑĥÑĥÐ½
ĠÑĤÐ¾ÑħÐ¸Ð¾Ð»Ð´ Ð¾Ð»
ĠÐŀÑĢ Ð¾ÑģÑĭÐ½
ÐĺÐ½ Ð³ÑįÑįÐ´
ĠÑģÐ¾Ñĳ Ð»ÑĭÐ½
ĠÑĪÐ°Ð»ÑĤ Ð³Ð°Ð°Ð½
Ð¨Ð¸Ð½ Ñį
Ð´Ð°Ñħ ÑĮ
ĠÐ´ÑįÐ² ÑĪ
ĠÐ¼ÑįÑĢÐ³ÑįÐ¶ Ð»Ð¸Ð¹Ð½
Ð»Ð¾Ð³Ð´ ÑģÐ¾Ð½
2 128
2 100
2 131
3 107
3 115
3 146
3 161
4 116
4 109
4 142
4 249
4 291
5 180
5 230
5 238
5 278
5 269
5 308
5 274
5 255
6 165
6 208
6 274
6 181
7 154
7 153
7 287
7 243
7 302
8 236
9 246
9 346
9 643
n et
Ġ ÑįÐ³
Ð½ Ð¸Ðº
Ð³ Ó©Ð»
Ð» Ð°Ð°Ñģ
Ð´ Ð¾Ð²ÑĤ
Ñĥ Ð¶Ð¸Ð¹Ð½
12 90
14 70
ÑĤ Ð°Ð°ÑĢ
ÑĤ Ò¯Ð¼
13 75
Ñħ Ð¸Ð»
20 24
20 57
20 43
20 82
20 81
15 28
15 21
15 99
16 41
Ð¼ Ð°Ð½Ð´
17 58
17 70
17 31
19 30
19 37
19 33
18 50
18 76
18 65
18 06
23 47
23 68
23 67
23 65
24 78
24 63
24 03
25 10
25 40
25 98
25 08
25 00
26 28
ĠÑħ Ð¸Ð¹Ð½
27 16
27 23
27 39
27 78
27 86
27 97
27 82
28 29
28 50
28 79
28 73
29 20
29 25
29 22
29 67
29 80
29 89
29 02
29 41
Ð² ÑĢÐ¸Ð¹Ð½
30 25
30 27
30 69
30 70
30 89
30 61
30 71
34 41
35 39
35 50
35 68
35 64
35 62
36 55
36 94
36 01
36 03
37 19
37 46
37 33
37 43
37 04
37 83
37 61
39 39
39 54
39 52
Ñĩ Ð¸
Ñĩ ÑĥÐ»
38 45
38 51
ĠÐ½ Ó©Ð³Ó©Ó©
45 11
45 96
22 14
22 25
22 27
40 36
40 22
40 58
46 34
46 71
47 17
49 69
49 95
49 94
49 02
49 05
57 58
57 97
57 82
57 41
58 58
50 95
50 00
50 61
56 18
56 79
56 73
56 83
59 37
59 93
60 12
60 48
60 42
79 22
78 26
78 01
68 72
68 81
69 24
69 44
Ð± ÑĢ
70 22
70 44
70 75
70 63
33 21
ÑĨ ÑįÑĨ
67 31
Ð· Ð°Ð²
90 04
88 34
88 49
88 52
88 41
66 63
77 10
77 49
ĠÑģ Ò¯Ð¹
ĠÑģ ÑĥÑĥÐ´
80 29
44 39
44 45
44 21
99 78
99 54
Ð¾Ð³ Ð¾
76 33
76 31
54 13
ÑĥÑĥÐ» Ð³Ð°Ð½
89 15
89 35
89 37
86 30
86 58
86 43
97 49
ÑįÑħ Ð³Ò¯Ð¹
ĠÐ¼ ÐµÑĤ
75 59
95 19
43 37
85 34
Ó©Ð» Ó©Ó©Ð³
Ð¾Ð¹ Ð³
73 38
52 17
83 29
ÑĥÐ» ÑĭÐ½
ÐĲ Ð´
71 14
Ð½Ð´ Ó©ÑĢ
81 14
ĠÑĨ ÑĥÑģ
Ðĵ ÑĥÑĢ
ĠÐ¶ Ð°Ð½Ð¶Ð¸Ð½
220 1
219 9
ĠÐ°ÑĢ Ð³Ð°Ð°ÑĢ
Ð¾Ñĳ Ð»
ĠÐĲ Ð½Ð³
324 0
325 6
Ð¸ÑģÑĤ ÑĢ
337 0
330 2
330 9
ÐĹ Ò¯Ò¯Ð½
ÑĩÐ¸Ð» Ð°Ð½
Ð°Ðº ÐµÑĤ
Ð°Ð½Ñħ Ð¸Ð¼
ĠÑĪÐ¸Ð½ ÑįÑįÑĢ
Ð¸Ð· Ð¼ÑĭÐ½
ĠÑĤÐ°Ð» Ð°Ð°Ñģ
438 7
ÑĪÐ¸Ð½ Ð¶
446 2
446 4
646 4
559 9
747 4
747 5
Ó©Ð³Ð´ Ð»Ð¸Ð¹Ð½
779 5
660 5
659 8
679 5
759 3
768 8
756 0
540 7
638 9
998 7
856 0
856 8
898 9
ĠÐ³ÑįÑĢ ÑįÐ»
ĠÑħÑįÐ¼Ð¶ÑįÑį Ð³
670 9
ĠÐ±Ð¾Ð´ Ð»Ð¾Ð³Ð¾
866 6
ĠÑħÐ¾ÑĢ Ð¸Ð³Ð»
Ð±Ð¾Ð» Ð¾Ð²ÑģÑĢ
ĠÑĥÑĥÐ» Ð·
ĠÑįÑħÑįÐ» Ð¶ÑįÑį
ĠÑħÑı Ð»Ð±Ð°ÑĢ
ĠÐ£Ð» Ñģ
ĠÑħÐ°ÑĢÐ¸Ð»ÑĨ Ð°Ð°
ĠÐ¾Ð½ÑĨ Ð³Ð¾Ð¹
ĠÐ°ÑģÑĥÑĥÐ´ Ð»ÑĭÐ³
ĠÑħÐ¾Ð½ Ð¾Ð³
ĠÑģÐ¾Ñĳ Ð»
ĠÑĥÑĢÐ³Ð°Ð¼ Ð°Ð»
ĠÐ½Ó©ÑħÑĨ Ó©Ð»
ĠÑĤÓ©Ð´ Ð¸Ð¹Ð³Ò¯Ð¹
ĠÐ°Ð¼ÑĮÐ´ÑĢ Ð°Ð»ÑĭÐ½
Ð½ÐµÑģ Ð¸Ð¹Ð½
ĠÐ¾Ñħ Ð¸Ð½
2 103
2 146
3 129
3 136
4 108
4 121
4 165
4 174
4 178
4 288
4 331
4 371
5 118
5 148
5 183
6 137
6 188
6 161
6 268
6 266
6 192
7 102
7 130
7 143
7 198
7 269
7 285
7 309
7 231
7 554
8 150
8 230
8 247
9 101
9 130
9 123
9 145
9 144
9 155
9 268
9 442
f or
s e
u b
v e
Ð½ ÐµÑĤ
Ð³ Ó©Ð»Ð´
Ð» Ð°ÑĤ
Ð» Ð¾Ð²
Ð» ÐµÐ¹
ÑĢ Ð¸Ð¹Ð³
Ð´ Ð¾ÑĢ
Ñĥ Ð°
12 84
14 16
14 01
Ñģ Ð¾ÑĢ
13 29
Ñħ ÑįÑģ
Ñħ Ò¯Ð½Ð´
20 26
20 38
20 45
20 79
20 88
20 03
20 07
15 80
15 03
16 25
17 38
17 78
17 66
17 44
19 50
19 77
19 85
19 72
18 55
18 54
18 61
23 10
23 20
23 75
23 83
24 12
24 20
24 35
24 70
24 71
25 82
26 17
26 09
ĠÑħ Ð°ÑĪ
27 58
27 75
27 03
Ð¶ ÑĥÑĥÐ»Ð°Ð³Ñĩ
28 28
28 39
28 57
28 98
28 84
28 62
28 41
30 13
30 11
30 39
30 95
30 81
34 20
34 15
34 16
34 78
34 44
34 85
34 52
34 06
35 85
35 04
35 73
35 08
36 09
39 83
39 09
Ð¾Ð½ Ð¸
ĠÑĤ ÐµÐ»ÐµÐ²Ð¸Ð·
38 76
ĠÐ½ Ð°Ð¼ÑĭÐ½
45 12
45 18
45 29
45 78
45 72
45 05
45 91
40 79
40 55
40 52
ÑĮ Ð´Ð°Ð³
46 88
46 52
47 85
47 09
47 05
49 15
49 01
49 72
57 14
57 30
57 34
57 52
57 51
58 23
58 21
50 77
50 63
50 71
56 48
56 21
56 86
59 10
59 14
59 61
60 19
60 28
60 65
60 63
60 07
60 08
78 35
78 38
78 50
68 15
68 87
68 94
68 93
69 48
69 49
69 84
70 67
70 65
33 26
ÑĨ ÑĭÐ½
98 14
67 30
67 60
67 75
90 22
90 43
90 92
Ð¸Ð½ Ð¶
Ð°Ð¼ Ð¿
88 25
88 27
88 00
66 34
77 64
80 68
Ðº Ð¸Ð½Ð¾
Ð°Ñħ Ð¸Ð¼
ĠÐ· Ð°Ð»
Ó©ÑĢ ÑĤ
76 22
76 55
31 14
89 52
86 33
ĠÐ±Ð¾Ð» Ð¾Ð¾Ð´
64 24
64 34
64 31
95 22
95 59
85 47
42 24
53 14
53 26
53 29
53 21
94 22
73 23
73 22
83 25
ĠÑĪ ÑĥÐ³Ð°Ð¼
82 24
72 10
ÑĥÐ» ÑģÑĭÐ½
92 16
Ð¸Ð³ Ñĩ
Ðľ Ð¾ÑĢ
Ðĳ Ð¸Ð´
ĠÑĨ ÑįÐ½
Ð¡ Ò¯Ñħ
Ð°Ð»ÑĤ Ð°Ð½Ð´
ĠÐ¾Ð½ Ð¾Ð¾
ÐĿ Ð°Ð¼
Ð»ÑįÐ³ Ð´ÑįÑħ
Ð»ÑįÐ³ Ð´ÑįÐ¶
Ðļ Ð¾Ð½
Ðļ Ð¾Ð¼Ð¿ÑĮÑİÑĤÐµÑĢ
Ó©Ñħ Ó©Ð´
ÑĥÑĤ Ð°Ð³
ĠÐľ Ð°Ð½
Ð°Ð³Ð´ Ð°Ð½
ĠÑĥÑĢ Ð°Ð»Ð´
229 9
225 1
219 0
219 1
224 5
228 2
228 6
228 8
ÑĥÐ½ ÑĤ
217 4
217 7
335 1
226 0
226 8
ĠÑįÑĢ ÑĩÐ¸Ð¼
323 5
ĠÑħÑįÐ» Ð¶
326 2
Ð¨ Ð¢
ĠÑĪÐ¸Ð½ Ð¶Ð¸Ð»Ð³ÑįÑį
438 1
545 0
648 1
546 1
539 2
539 7
778 8
549 9
660 7
ĠÑĩÐ°Ð´ Ð´Ð°Ð³
945 0
945 9
ĠÐ½Ð°ÑĢ ÑĭÐ³
746 0
770 1
949 9
669 4
748 1
ĠÑĤÐ¾Ð´Ð¾ÑĢÑħÐ¾Ð¹ Ð»Ð¾Ñħ
ÐĲÐ» ÑĤÐ°Ð½
ĠÐĹ Ð°ÑģÐ³Ð¸Ð¹Ð½
877 3
ĠÐ´Ð¾ÑĤ Ð¾Ð¾Ð´
ĠÑħÑįÑĢÑįÐ³Ð»ÑįÐ³ ÑĩÐ¸Ð¹Ð½
ĠÐ°Ñħ ÑĥÐ¹Ð½
ĠÐ£Ð» Ð°Ð°Ð½
ĠÑĤÑįÐ¼ÑĨ ÑįÑįÐ½
ĠÐ°ÑģÑĥÑĥÐ´ Ð°Ð»
ĠÓ¨ Ð¼Ð½Ó©Ð´
ĠÑĩÑĥÐ» ÑĥÑĥ
ĠÑħÒ¯Ò¯Ñħ ÑįÐ´
ĠÑħÑĥÑĢÐ´ Ð°Ð½
Ð°Ð»Ð³Ð°Ð° Ð¶
Ð·Ð°Ñħ Ð¸ÑĢ
ĠÑĥÐ»Ð¸ÑĢ Ð°Ð»Ð´
Ð·Ð°Ð³ Ð²Ð°ÑĢ
Ð°Ð¹Ð´Ð²Ð°ÑĢ ÑĤÐ°Ð¹
3 119
3 151
4 107
4 115
4 126
4 134
4 136
4 180
4 306
4 308
4 207
4 357
4 203
4 358
4 201
4 344
4 304
4 202
4 294
4 353
5 160
5 277
5 221
5 279
5 248
5 356
5 355
6 105
6 111
6 132
6 300
6 207
6 295
6 281
6 301
6 367
7 144
7 280
7 232
7 241
7 284
8 128
8 256
8 259
9 175
9 306
9 376
R A
e b
Ġ K
Ġ v
Ð½ Ð°ÑĢ
Ð³ ÑįÐ³
Ð¾ ÑĤÐ³
14 41
14 81
ÑĤ Ó©Ñģ
Ñħ ÑįÐ´
Ñħ Ó©Ð´
20 90
20 65
15 22
15 40
15 98
15 55
16 57
16 88
16 32
Ð¼ Ð¸ÑĤ
17 57
17 33
17 03
19 28
19 39
19 76
19 71
18 68
18 97
ĠÐ± Ð¾ÑĢÐ»
23 55
23 41
24 40
24 59
24 69
24 90
24 87
24 96
24 83
24 01
25 19
25 96
25 42
25 03
Ð°ÑĢ Ð²
26 68
26 52
26 51
ĠÑħ Ð°Ñģ
27 76
28 34
28 33
28 31
28 42
28 92
29 45
29 79
29 42
29 62
29 03
30 28
30 46
30 80
30 53
30 63
30 08
Ð°Ð¹ Ð½Ñĭ
34 10
34 37
34 69
34 88
34 66
34 54
34 82
34 09
35 57
35 54
35 74
36 30
36 32
37 45
37 58
37 50
37 96
37 91
Ð¾Ð» ÑģÐ¾Ð½
Ð¾Ð» Ð¸ÑĤ
Ðµ Ð³Ð¸Ð¹Ð½
39 33
39 75
39 62
39 72
39 91
ĠÑĤ ÑįÑģ
ĠÑĤ ÑĥÑĥÑĢ
38 14
38 60
38 67
38 97
38 75
ĠÐ½ Ð°ÑģÐ°Ð½
45 80
45 64
22 29
40 50
40 97
40 75
40 08
ÑĮ ÐµÑĢ
46 70
46 04
48 59
48 63
49 37
21 13
57 98
57 44
57 87
57 85
50 14
50 30
50 86
50 42
56 96
59 39
59 32
59 31
ÑįÑĢ ÑįÐ½
60 47
60 67
60 06
79 78
79 80
79 31
79 09
78 25
78 98
78 32
78 53
68 16
68 67
69 20
Ð± Ð°ÑĢÑĭÐ½
70 18
33 24
ÑĨ ÑįÐ³
ĠÐ´ Ð°ÑģÐ³Ð°Ð»
98 67
98 06
67 78
67 67
90 99
90 65
90 83
ĠÐ³ Ð¾ÑĢ
ĠÐ³ Ð°Ð²
88 28
88 48
88 56
88 63
77 35
77 58
ĠÑģ Ð°Ð²
ĠÑģ Ð°Ð½Ñħ
55 10
80 14
80 11
80 32
44 41
99 32
99 75
99 63
Ðº Ð¾Ð²
32 11
ĠÐ· Ð°Ð»Ð³
54 37
54 22
54 47
86 37
86 39
97 14
97 17
97 19
97 56
87 35
64 35
65 37
ĠÐ¼ Ð°Ð½Ð´
ĠÐ¼ Ð°Ð³Ð°Ð´
75 20
95 17
Ð¾Ð¹ Ð»Ð³
Ð¥ Ð°Ñģ
Ð¥ ÑıÑĤÐ°Ð´
ÑįÐ¹ Ð»
Ð¢ Ò¯ÑĢ
ÐĲ Ð¥
ÐĲ Ð¨Ð¢
ÑįÐ² ÑįÐ»
ÑĤÐ³ ÑįÑģÑįÐ½
ÐµÐ½ Ñģ
Ðĵ Ð°ÑĢ
ÑįÑĢÐ³ ÑįÐ´
ĠÐ±Ð¸ ÐµÐ»
216 4
216 8
ĠÑĥÑĢ Ð´
225 8
224 0
227 1
217 2
Ð³Ð°Ð°ÑĢ Ð°Ð°
223 7
223 9
320 0
320 7
328 0
328 1
338 1
334 0
334 7
ĠÑħÑĥÐ² Ð°Ð°ÑĢ
ĠÑħÑĥÐ² ÑĮÑģÐ³Ð°Ð»
337 6
ĠÐ±Ð°ÑĢ Ð¸Ð»Ð´
330 3
Ð¾Ð½Ð´ Ð¾Ð¾
326 7
ÐĹ ÑĥÑĢ
318 4
ÑĩÐ´ Ð¸Ð¹Ð³
Ð»ÑįÑħ ÑįÐ´
447 2
ĠÐ°Ð½Ñħ Ð°Ð°ÑĢ
747 6
656 3
440 7
679 3
759 2
ĠÑĥÐ´ Ð¸ÑĢ
740 6
745 2
970 0
969 6
859 6
ĠÑħÑįÐ¼Ð¶ÑįÑį ÑĤÑįÐ¹
ĠÐ³ÑįÑħ ÑįÐ´
850 7
878 1
878 7
Ð¼Ð°ÑĢ Ð´
ÑįÐ³Ð´ ÑįÐ¶
ĠÐ±Ð¾Ð´ Ð¸ÑĤ
840 9
ĠÑģÐ¸ÑģÑĤÐµÐ¼ Ð´
ĠÐ² Ñį
866 2
es t
ĠÐ°Ð»Ð´ Ð°ÑĢÑĤ
ĠÑħÑįÐ² Ð»
977 7
ĠÐ±Ð¸Ðµ Ð¸Ð¹Ð½
Ó©Ó©Ð³ Ð¸Ð¹Ð½
ĠÑħÑĥÐ³Ð°ÑĨ Ð°Ð°
Ð½Ñħ Ò¯Ò¯
ac k
ĠÑĥÐ´Ð¸ÑĢÐ´ Ð»Ð°Ð³ÑĭÐ½
ÐĺÐ¹ Ð½ÑħÒ¯Ò¯
ĠÐ·Ð¾ÑĢÐ¸ÑĥÐ» ÑģÐ°Ð½
ĠÐķ ÑĢÓ©Ð½ÑħÐ¸Ð¹
ĠÐ¿ÑĢÐ¾ÑĨÐµÑģÑģ Ð¾ÑĢ
Ð±ÑĥÑĢ Ð³
ĠÑįÑĢÐ´ ÑįÐ¼ÑĤ
ĠÐ±Ð°Ð¹Ð³Ð°Ð°Ð³ Ò¯Ð¹
ÐµÑĢÐ³ Ð¸
ig h
ĠÑħÑĥÑĥÑĢ Ð°Ð¹
ĠÑĢÐ°Ð´ Ð¸Ð¾
3 116
3 126
3 160
3 149
4 250
4 189
4 240
4 287
4 275
5 209
5 259
5 346
5 173
5 301
5 351
5 444
6 146
6 131
6 166
6 270
6 209
6 286
6 277
6 309
6 272
6 378
6 331
6 361
7 230
7 299
7 259
7 306
7 348
7 331
7 372
8 138
8 144
8 165
8 162
8 244
8 172
8 351
9 103
9 167
9 179
9 236
9 209
9 357
9 552
E E
O S
r a
u e
Ġ Ó©
Ð½ ÑĥÑĥÑĢ
Ð½ Ð¾Ð¾ÑĢ
Ð½ Ð°Ð°Ð´
ÑĢ Ð°Ð²
ÑĢ Ð°Ð»ÑĤ
Ð´ Ð¸Ð½
Ð´ Ð°Ð´
Ð´ Ð¾ÑĢÐ¶
Ñĥ Ð°Ð»
14 96
14 73
ÑĤ Ó©Ð¼Ó©ÑĢ
Ñģ ÑĥÐ½
13 95
20 28
20 86
20 51
15 66
15 86
15 87
15 96
16 36
16 67
16 99
17 22
17 51
19 35
18 30
18 75
18 85
18 41
23 34
23 36
23 21
24 10
24 36
24 65
24 85
24 94
24 62
25 87
25 74
25 01
26 39
26 78
26 69
26 42
27 38
27 22
27 66
27 31
27 65
27 85
27 62
27 07
27 81
28 35
28 49
28 70
28 55
28 54
28 61
29 13
30 10
30 67
30 97
30 85
30 72
34 11
34 30
34 94
34 84
34 04
34 02
35 16
35 38
35 69
35 70
36 35
36 99
37 36
37 49
37 02
37 08
Ðµ Ð°ÑĤ
39 35
39 67
38 49
38 73
38 01
45 90
45 77
45 31
40 46
46 57
46 44
46 76
46 01
48 24
48 78
48 68
48 98
48 07
48 92
47 24
47 29
47 07
49 65
49 81
21 12
57 66
57 83
58 16
58 26
58 66
58 64
58 05
58 41
50 99
50 52
50 72
56 24
56 49
56 99
56 01
59 11
59 18
59 38
59 66
Ð°Ð° Ð´Ð°Ð³
ÑįÑĢ ÑĤ
60 38
60 52
79 84
78 76
78 04
78 62
78 00
68 66
69 17
69 58
69 98
69 66
69 05
69 00
Ð¾ÑĢ Ð¾Ð¾
Ð± ÑįÑħ
Ð± ÑĥÐ´
Ð± Ð¾Ð»Ð³
70 55
70 01
70 51
33 25
ÑįÐ» Ð¶
ĠÐ´ Ð¾Ð»Ð³
ĠÐ´ Ð¾Ð¾Ð´
ĠÐ´ Ó©ÑĢÓ©Ð²
98 28
98 98
98 82
ÑĪ Ð¸Ð¹Ð½
67 33
67 62
90 47
90 76
90 89
90 75
ĠÐ³ Ð¾Ð¾Ð»
88 22
88 42
66 68
77 24
77 39
ĠÑģ ÑĥÑĥÐ»
55 23
55 34
80 65
80 94
99 25
99 70
or t
Ðº Ð»
Ðº Ð¼
ia l
76 50
76 44
54 36
54 31
ĠÑĥ ÑģÐ°Ð½
ĠÑĥ ÑĥÑģ
ÑģÐ°Ð½ Ñĭ
86 10
86 17
97 38
64 32
75 10
75 25
96 22
96 31
85 59
74 25
74 31
94 40
94 21
94 33
84 25
84 40
63 22
Ð¥ ÑĥÑĢ
Ð¥ Ð¾Ð»Ð±
83 22
62 11
Ð¢ Ð¾Ð¼
72 28
41 13
ÐĲ ÐĿ
ĠÐ¾ÑĢ ÑĥÑĥÐ»Ð°Ñħ
ÐŃ Ð½Ñħ
ĠÑħÒ¯ Ð»ÑįÑį
Ð°Ð»ÑĤ Ð°Ð´
ĠÑı Ð³
Ñİ Ðº
Ðļ Ð°Ð»
Ñĳ Ð½
Ð³ÑĥÑĥÐ» ÑĮ
ĠÐ½ÑįÐ³ Ð¶
ĠÐ½ÑįÐ³ Ð´ÑģÑįÐ½
215 5
ÑĥÑĤ Ð°Ð³ÑĤ
220 2
220 5
Ðŀ Ð²
Ðŀ ÑĩÐ¸ÑĢ
219 7
227 3
227 8
218 9
335 9
226 1
ĠÑįÑĢ ÑĤ
323 9
327 8
329 3
329 4
324 1
338 7
325 1
325 9
ÐŁ ÐµÑĢ
ĠÑħÑįÐ» ÑįÑįÑĢ
339 3
ĠÐ±Ð°ÑĢ Ð¸Ð»Ð³Ð°
Ò® Ò¯Ð½Ð´
ĠÒ¯Ð· Ò¯Ò¯Ð»ÑįÐ»ÑĤ
ÐµÐº ÑģÐ°Ð½Ð´
ÐĽ ÑĥÐ²ÑģÐ°Ð½
Ð¶Ð¸Ð» Ð¶
ĠÑĤÑĥÑģ Ð»Ð°Ñħ
ĠÐ¸ÑĢ Ð¶ÑįÑį
ÑģÐ½ Ð°Ð°Ñģ
ĠÐ´ÑįÑįÑĢ ÑįÑį
ĠÑĤÑĥÐ» Ð³ÑĥÑĥÑĢ
on g
445 9
ĠÑģÐ°Ð½ Ð³Ð¸Ð¹Ð½
Ð¾Ð»ÑĨ Ð¾Ð¾Ð³Ð¾Ð¾ÑĢ
Ð¤ ÑĢÐ°Ð½ÑĨ
650 7
650 8
559 1
548 9
747 0
449 9
779 0
549 4
660 6
659 3
759 5
658 7
540 5
848 7
860 9
946 2
ĠÐ´ÑįÐ» Ð³ÑįÑĨ
746 7
969 7
858 7
859 0
640 4
Ð»Ð°Ð³Ð´ Ð°Ñħ
ĠÑįÐ· ÑįÐ½ÑĤ
956 8
Ð°Ð»Ð³ Ð°Ð°Ð½Ñĭ
ÑħÐ°Ð¼ Ð°Ð°ÑĢ
667 1
877 6
767 4
ĠÑĤÑįÐ´ Ð½Ð¸Ð¹Ð³
ĠÑįÐ¼ Ð½ÑįÐ»
Ðķ ÑĢ
ĠÐ·Ð°Ð¼ ÑĭÐ½
ĠÑħÑįÑĢÑįÐ³Ð»ÑįÐ³ Ñĩ
ĠÑħÑįÑĢÑįÐ³Ð»ÑįÐ³ Ð´Ð´ÑįÐ³
ĠI P
ĠÑĥÐ³ Ñģ
ĠÐ¿ÑĢÐ¾Ð³ÑĢÐ°Ð¼ Ð¼
ÐĺÑħ ÑįÐ½Ñħ
ĠÑĤÓ©ÑĢÓ©Ð» Ñħ
ĠÑĤÓ©Ñģ ÑĤÑįÐ¹
II I
ĠÑĤÐ°ÑĢ Ð¸Ð°Ð»
ĠÑĪÐ¸Ð³ ÑĪÑįÑį
ĠÐ¯ Ð¿Ð¾Ð½
ĠÐ¾Ð² Ð³Ð¸Ð¹Ð½
ĠÐ½Ð¸Ñģ ÑįÑħ
ĠÐ¼Ð°Ð½ Ð°Ð¹
Ð²Ð¾ÑĢ ÑĤÐ¾Ð¹
ÑħÑı Ð·Ð³Ð°Ð°ÑĢ
ÐľÑįÐ´ÑįÑįÐ» Ð»Ð¸Ð¹Ð½
ĠÐ±Ò¯Ð³ Ð´
Ð¼ÑĥÐ½ Ð¸ÑģÑĤ
ĠÓ©Ð³Ó©Ð³ Ð´Ð»Ð¸Ð¹Ð³
2 123
2 121
2 148
3 142
3 166
3 153
4 127
4 158
4 177
4 350
4 181
4 282
5 108
5 129
5 350
5 257
5 340
6 124
6 148
6 159
6 143
6 177
6 187
6 289
7 107
7 129
7 136
7 150
7 146
7 166
7 268
7 237
8 156
8 143
8 307
8 241
8 354
8 374
8 361
9 115
9 125
9 121
9 170
9 360
Q L
S t
n g
o u
Ġ Ò¯Ò¯
Ġ Ð°Ð¹Ð»
Ð³ ÑįÑģÑįÐ½
Ð» Ó©Ñħ
Ð´ ÑĥÑĥÐ´
Ð´ Ð¾ÑĤ
Ð´ ÑįÐ¼Ð¶
ÑĤ Ð¾ÑħÐ¸ÑĢ
Ñģ Ò¯Ð»Ð¶ÑįÑį
Ñģ Ò¯ÑĢÑįÐ½
Ñħ Ò¯Ð»
20 75
20 96
15 85
16 13
16 48
16 72
17 12
19 58
19 66
18 22
ĠÐ± Ð¸ÑĤ
ĠÐ± Ð°ÑıÑĢ
23 14
23 17
23 30
23 69
23 76
23 43
23 07
24 34
24 37
24 68
25 80
26 18
26 34
26 45
26 90
26 77
26 74
ĠÑħ ÑĥÐ»
ĠÑħ Ð°Ð°Ð»
27 25
27 35
27 46
27 55
27 09
28 40
28 56
28 94
28 03
28 08
29 11
29 19
29 66
29 94
29 09
Ð² Ð¸
30 12
30 45
30 79
30 02
ÑįÑį ÑĤÑįÐ¹
34 25
34 50
34 59
34 98
34 90
34 99
34 31
34 51
35 52
36 16
36 27
36 37
37 24
37 48
37 31
37 82
39 56
39 59
39 60
39 69
39 85
39 42
39 02
39 05
ĠÑĤ ÑĥÑĤ
ĠÑĤ Ò¯Ð»ÑħÒ¯Ò¯ÑĢ
38 24
38 04
38 09
ĠÐ½ ÑįÐ²
45 04
45 00
40 25
40 26
40 30
48 58
48 70
48 76
48 43
48 42
48 04
47 01
47 62
49 55
49 73
57 20
57 49
57 21
57 42
57 73
58 12
58 74
50 15
50 28
50 98
50 87
56 07
59 54
60 34
60 75
60 41
79 29
79 49
79 74
79 93
78 10
78 67
78 92
78 91
68 22
68 80
68 96
69 52
Ð± ÑĥÐ¼
70 30
70 57
70 59
70 66
33 32
33 31
Ð· Ó©ÑĢ
ĠÐ±Ð°Ð¹ Ð´Ð°Ð»Ð´
90 64
90 53
90 01
ĠÐ³ Ò¯ÑĢ
88 85
88 02
88 62
66 11
66 49
77 12
77 40
77 67
77 62
55 11
55 35
55 37
80 35
44 23
99 24
Ðº Ð°Ð·
32 13
76 18
76 34
76 51
31 13
ÑĥÑĥÐ» Ð°Ð²
89 49
89 77
86 50
86 60
87 49
87 69
64 15
64 19
64 26
65 11
95 30
95 46
43 18
43 30
43 22
96 79
Ð°Ð² ÑĢ
53 27
74 26
84 24
Ð¥ ÑįÑĢÑįÐ³
Ð½Ð¸Ð¹ ÑĤ
Ðľ Ð¾Ð´
Ðľ ÐŃÓ¨
Ð°Ð»ÑĤ Ð°Ð°ÑĢ
ÑĥÑģ Ð°Ð´
ÐĿ Ð°Ð¹ÑĢ
ÐĶ ÑĥÐ½Ð´
Ðĵ Ð¾Ð»
Ð»ÑįÐ³ Ð´Ð´ÑįÐ³
Ðļ ÑĢ
ÑĥÐ¹ ÑĨ
224 2
224 3
ĠÐ¥ Ò¯Ð½
ĠÑħÐ°ÑĢ ÑĮÑı
323 7
317 7
317 9
328 9
338 5
ÐŁ ÑĢÐ¾Ð³ÑĢÐ°Ð¼
ĠÐ¸Ñħ ÑįÑįÑĢ
ĠÑħÒ¯ÑĢ Ñĩ
330 0
326 0
ĠÐ¿ Ð°ÑĢÐ»Ð°Ð¼ÐµÐ½ÑĤ
319 9
ĠÒ¯Ð· Ò¯Ò¯ÑĢ
Ð°Ð°Ð³ Ñĩ
ĠÓ©Ð³ Ñĩ
438 5
ĠÐ¸ÑĢ ÑįÑįÐ´
ÑģÐ½ ÑĭÐ³
ÑĥÐ³ ÑĤ
ĠÓ©ÑĢ Ð³Ó©
439 1
439 3
439 4
ĠÐ±Ð°Ð¹Ð² Ð°Ð»
ĠÐ½Ð¸Ð¹ ÑĨ
Ð³ÑįÑĢ Ð¸Ð¹Ð½
546 9
656 8
968 6
449 4
556 5
ĠÐ¼Ó©Ð½ Ð³Ó©Ð½
658 5
750 7
768 3
845 3
845 8
540 6
638 1
ĠÑĤÐ¾Ð³Ð» Ð¾ÑģÐ¾Ð½
949 4
890 2
957 0
760 2
840 5
ĠÐ·Ò¯Ð¹Ð» Ð¸Ð¹Ð½
947 2
956 9
939 0
ĠÐ°Ð³ ÑĥÑĥÐ»ÑģÐ°Ð½
866 3
ĠÐ°Ð¶Ð¸Ð»Ð»Ð°Ð³ Ð°Ð°Ð½Ñĭ
ĠÐ°Ñģ Ð°ÑĢ
ĠÓ©Ð² Ñĩ
ĠÐ¼Ð¾Ð½Ð³Ð¾Ð» ÑĩÑĥÑĥÐ´
ĠÑħÑįÐ»Ð±ÑįÑĢ Ð¸Ð¹Ð½
ĠÐ¾Ð´ Ð¾Ð¾Ð³Ð¸Ð¹Ð½
ÑĪÐ¸Ð³ ÑĤ
ĠÑĥÐ´Ð¸ÑĢÐ´ Ð°Ñħ
Ð¢ÑįÐ´ Ð½Ð¸Ð¹
ĠÑĤÑįÐ¼ÑĨ ÑįÑįÐ½Ð´
ÑįÐ· ÑįÑį
ÑĨÐ°Ð³ Ð°Ð°Ð½
ĠÐ³Ð°Ð·ÑĢ ÑĭÐ³
Ð°ÐºÑĤ Ð¸Ðº
ĠÐ°Ð¼ÑĮÐ´Ð°ÑĢ Ð´Ð°Ð³
ĠÑħÑįÑĢ ÑħÑįÐ½
ĠÐ½Ó©ÑħÑĨ Ó©Ð»Ð´
ĠÐºÐ¸Ð½ Ð¾Ð½Ñĭ
of t
Ð¦Ð°Ð³ Ð°Ð°Ð½
ĠÑħÓ©ÑĢÓ©Ð½ Ð³Ó©
ĠÐ½ÑĥÑĢ ÑĥÑĥ
2 104
2 117
2 122
3 102
3 131
3 143
4 122
4 170
4 256
4 153
4 280
4 186
4 208
4 244
4 248
4 234
4 359
4 255
4 241
5 105
5 144
5 159
5 143
5 300
5 254
6 119
6 128
6 238
6 265
6 232
6 349
6 377
6 201
6 366
7 194
7 239
7 368
8 159
8 208
8 221
8 231
8 295
8 232
9 150
9 307
9 207
9 272
C P
i p
Ð ģ
Ġ 0
Ġ 24
Ġ 40
Ð³ ÑįÐ¶
Ð´ ÑĥÐ½Ð´
Ò¯ Ð³ÑįÑį
ÑĤ Ó©Ð²
13 66
20 59
Ð¼ Ð¾Ð½
Ð¼ ÐµÑĤ
19 55
18 15
18 27
23 22
23 42
23 72
24 13
24 29
24 88
24 75
24 95
24 73
24 82
24 41
24 00
25 12
25 13
25 36
25 67
25 02
26 26
26 37
26 21
26 80
26 44
26 89
26 96
27 70
27 44
28 12
28 17
28 30
28 38
28 06
29 38
29 48
29 69
29 91
Ð² Ó©ÑĢ
Ð² Ð°Ñģ
30 19
30 50
30 44
30 64
30 42
34 13
34 19
35 19
35 35
35 45
35 51
35 92
36 26
36 89
37 57
37 60
37 90
37 07
37 81
39 12
39 23
39 36
39 38
39 49
39 88
39 32
ĠÑĤ Ð°Ñħ
ĠÑĤ Ð¾Ð¾Ð»
ĠÑĤ Ó©Ð¼Ó©ÑĢ
38 36
38 48
38 90
38 02
ĠÐ½ ÑįÑįÐ»ÑĤ
45 93
45 03
45 82
40 38
40 47
40 65
40 95
40 84
40 83
40 09
40 81
46 62
48 15
48 90
48 88
48 44
47 13
47 92
49 34
49 36
49 40
49 66
49 54
49 09
57 19
57 88
57 64
57 02
58 53
58 83
58 92
50 36
50 40
50 78
50 53
56 31
56 03
56 05
56 92
ÑįÐ½ Ð¸Ð¹
59 98
59 94
60 14
60 20
60 29
60 21
60 55
79 35
79 92
78 36
78 85
78 09
68 58
68 00
69 13
69 80
69 42
Ð± ÑĥÑĨ
70 24
70 25
70 39
70 43
70 94
70 93
70 06
ĠÐ´ Ò¯Ð³Ð½
98 19
98 43
ÑĪ Ð°Ð°ÑĢÐ´
67 38
67 49
67 55
Ð· ÑįÐ²Ñģ
90 24
90 98
90 02
Ð°Ð¼ ÐµÑĢ
88 45
88 81
66 35
66 54
66 62
77 11
80 52
44 18
44 27
44 32
99 37
99 97
Ðº ÑĢ
Ðº Ð¾Ð¼Ð¿
32 27
76 25
76 68
54 16
54 17
54 29
89 19
89 46
89 33
89 53
Ð¸Ð¹Ð³ ÑįÑįÑĢ
Ð°Ð´ ÑĭÐ½
86 70
97 35
97 39
97 40
87 15
87 16
64 28
Ó©Ð½ Ð´
ĠÐ¼ Ð¾Ð»
43 38
96 26
96 28
85 39
42 13
Ñı Ñģ
53 35
74 15
94 28
84 35
52 12
52 13
83 23
72 19
72 18
Ð¾Ñħ Ð¾Ð¹
41 12
Ð¸Ð³ Ð½
ÐĲ ÑĤ
ÐĲ Ñħ
ÐĲ Ð½Ð³
61 13
ĠÐ¾ÑĢ Ð½ÑĥÑĥÐ´
Ð¡ Ð¾Ð½
ĠÑĩ Ð¸Ð¼
ĠÑı ÑĢÐ¸
ÐĶ Ð°Ð½
Ñİ ÑĢ
ĠÐ½ÑįÐ³ Ð´Ò¯Ð³ÑįÑįÑĢ
Ð¸ÑĤ Ð¸
215 3
Ð°Ð³Ð´ Ð¶ÑįÑį
216 7
229 6
228 5
ÑĩÐ» Ð°Ñħ
ĠÒ¯Ð¹Ð» Ð´ÑįÐ»
327 9
320 4
320 8
324 3
325 7
336 2
337 5
ĠÑħÒ¯ÑĢ ÑįÑįÐ»ÑįÐ½
Ð»ÑįÐ» Ð¸Ð¹Ð³
Ò® Ðĳ
ĠÑıÐ² ÑĥÑĥÐ»Ð¶
ĠÑĪÐ¸Ð½ Ð³ÑįÐ½
ĠÐ°Ð» Ð³Ð¾ÑĢ
ĠÑįÑģ Ð¸Ð¹Ð½
Ð¾Ð»Ð´ ÑģÐ¾Ð½
ĠÐĶ ÑįÐ»
447 4
ĠÐ±Ð¸Ñĩ Ð³Ð¸Ð¹Ð½
439 5
ĠÑħÑįÑģ Ð³Ð¸Ð¹Ð½
448 7
539 1
656 1
550 8
658 4
739 1
738 3
768 2
845 6
ĠÑĨÐ°Ð³ ÑĤ
857 9
740 5
638 7
979 7
Ð¾Ð¼Ð¶ ÑĤÐ¾Ð¹
970 5
ĠÐ±Ð¾Ð»Ð³ Ð¾ÑģÐ¾Ð½
770 6
869 8
950 1
856 5
859 4
640 9
ĠÑįÑĢÑħ Ð¸Ð¹Ð³
ÐľÓ©Ð½ Ñħ
947 1
877 4
ĠÐ´ÑĥÐ½Ð´ Ð°Ð¶
ĠÐµÑĢ ÑĤÓ©Ð½
ĠÑĤÒ¯ ÑĪ
ÑİÑĥÐ» Ð³Ò¯Ð¹
Ð°ÑĢÐ³ ÑĭÐ½
ĠÑįÑĢÐ³ ÑįÐ½
ÐĳÐ°ÑĢ ÑĥÑĥÐ½
ĠÐ¯ Ð¿Ð¾Ð½Ñĭ
ĠÑĤÑįÑĢÐ³ Ò¯Ò¯Ð½
ĠÐ´ÑįÐ¼Ð¶ Ð»ÑįÐ³
ÑħÐ°Ð´ Ð³Ð°Ð»
ĠÑĩÑĥÐ» ÑĥÑĥÐ½
Ð¾Ð»Ð¾Ð½Ð³ Ð¾ÑģÑĭÐ½
ĠÑħÓ© ÑĪ
ĠÐºÐ¾Ð¼Ð¿Ð°Ð½Ð¸ ÑĥÐ´
Ð¼Ó© ÑĨ
ÐĺÐ½Ð³ ÑįÑģÐ½ÑįÑįÑĢ
ĠÐ±Ò¯ÑĢÑįÐ» Ð´ÑįÑħÒ¯Ò¯Ð½
ĠÐ¶Ò¯Ð¶Ð¸Ð³ ÑĩÐ¸Ð½
ĠÑħÐ¾Ð² Ð¾ÑĢ
Ð·Ó©Ð² ÑĪÓ©Ó©ÑĢ
ĠÐ¼Ð¸Ð½ ÑĥÑĤ
2 101
2 133
2 135
3 109
3 147
4 103
4 111
4 125
4 143
4 259
4 163
4 239
4 289
4 346
4 231
4 305
4 366
5 116
5 133
5 100
5 189
5 184
5 268
5 198
5 249
5 302
6 139
6 200
6 246
6 360
6 358
6 369
6 292
6 402
6 372
6 362
7 126
7 160
7 141
7 244
7 294
7 332
7 271
7 352
8 180
8 177
8 204
8 360
8 358
8 222
9 166
9 249
9 251
9 402
c ess
f f
Â ²
Ġ 14
Ġ Ò¯Ò¯Ð½Ð¸Ð¹
Ð³ Ð¸Ð»
Ð» Ð°Ð¼
Ð´ Ð°Ð¹
Ñĥ Ð°Ð½
14 94
ÑĤ ÑħÑįÐ³
Ñģ Ð°Ð³
Ñģ Ò¯Ò¯Ð»
13 46
Ñħ Ò¯Ò¯Ñħ
20 85
15 45
Ð¼ Ðµ
17 59
17 96
19 94
23 29
23 70
23 98
23 52
24 58
24 33
24 99
24 74
25 45
26 23
26 33
26 99
26 87
26 71
26 81
ĠÑħ Ð°Ð¹
ĠÑħ Ó©Ñħ
ĠÑħ ÑįÑĢÐ³
27 59
27 72
Ð¶ Ð¸ÑĢ
28 11
28 21
28 60
28 99
28 89
28 09
29 24
29 65
29 52
29 81
30 26
30 22
30 32
30 75
30 96
30 01
30 62
30 41
34 68
34 42
34 74
35 12
35 18
35 27
35 22
35 98
36 88
36 65
36 53
36 00
Ð¸Ð¹Ð½ ÑħÑįÑį
37 10
37 29
37 30
37 59
37 78
37 88
37 66
37 64
37 92
Ð°Ð³ Ð°Ð°Ð´
39 26
39 27
39 30
39 95
Ñĩ Ð¸Ð³
38 39
38 81
ĠÐ½ Ð¸Ð»ÑįÑįÐ´
ĠÐ½ Ð°Ð¹Ð´Ð²Ð°ÑĢÑĤÐ°Ð¹
45 27
45 56
45 52
22 11
40 39
40 68
40 91
46 10
46 15
46 18
46 48
46 21
46 79
46 33
46 82
46 00
46 91
48 17
48 55
48 86
48 97
47 48
47 88
47 97
49 58
49 86
57 24
57 46
57 80
58 33
58 00
50 19
50 80
50 64
56 78
56 43
56 62
ÑįÐ½ Ð´ÑįÑį
59 48
59 77
60 45
60 82
60 05
79 58
79 67
79 99
79 91
78 27
68 50
69 70
69 67
69 88
Ð± ÑįÐ³
Ð± ÑĥÑĥÐ´
70 47
70 09
33 35
98 13
98 20
98 78
98 02
67 16
Ð· Ð°Ð»
90 15
90 96
90 94
90 84
88 68
88 04
66 70
77 36
77 47
55 13
55 45
55 57
55 32
80 28
80 71
44 40
99 12
99 28
99 29
99 76
76 42
86 24
87 37
87 70
64 20
65 39
Ó©Ð½ Ó©
95 13
43 10
96 17
96 32
85 12
85 50
42 10
42 16
42 26
74 36
74 45
84 37
63 25
73 10
52 14
Ð°Ð¶ ÑĥÑĥ
82 20
72 14
72 17
72 26
92 26
41 10
ÐĲ Ð³
ÐĲ ÐĿÐ£
Ðľ Ð°Ð½Ð¶
61 10
ĠÑĨ Ð¾Ñħ
Ð¡ Ò¯Ò¯Ð»
ĠÑĩ Ð¸Ð½
ĠÑħÒ¯ ÑĩÐ¸Ð»
ĠÑħÒ¯ ÑĩÐ¸ÑĢÑħÑįÐ³
ÐĶ ÑįÑįÑĢ
Ðļ Ð°Ð½
ĠÐ°Ð¶ Ð»ÑĭÐ³
220 3
ĠÐ°ÑĢ Ð³ÑĭÐ³
ÐµÐ¼ Ð±
226 7
Ð³ÑįÑį Ð³
317 1
327 4
ĠÐ±Ð°Ð³ Ð°Ñģ
328 8
ĠÑĤÓ©ÑĢ Ð»
325 2
336 9
ÐŁ Ð°ÑĢ
334 1
334 5
ĠÐ±Ð°ÑĢ Ð¸Ñħ
Ó¨ Ð¼Ð½Ó©Ð´
ĠÐ¿ ÑĢÐ¾ÑĤÐ¾Ðº
ÑĢÐ¾ Ðº
Ð¸Ð¶ Ð¸ÑĤÐ°Ð»
ĠÐ±Ð°Ð¹Ð³ÑĥÑĥÐ» Ð»Ð°Ð³
445 1
446 9
ĠÐ±Ð¸Ñĩ Ð¸Ñħ
648 3
ĠÑħÑįÑģ Ð³Ð¸Ð¹Ð³
559 8
539 8
ÑįÑĤ ÑįÐ»
ĠÑĦ Ð¸Ð»Ð¾ÑģÐ¾ÑĦ
778 1
449 3
ĠÑħÐ¾ÑĤ ÑĭÐ³
550 3
440 5
658 2
756 5
540 8
857 8
657 4
657 5
979 9
ĠÑĤÐ¾Ð³Ð» Ð¾Ð¾Ð¼
558 6
745 1
948 3
948 6
949 5
869 3
858 9
557 3
849 1
839 2
769 8
ÑįÐ³Ð´ ÑįÐ»
ÑįÐ³Ð´ Ð´ÑįÐ³
748 5
ĠÑģÐ¸ÑģÑĤÐµÐ¼ Ð¸Ð¹Ð³
867 6
ĠÐ² Ð¸ÑĢÑĥÑģ
Ð¯ Ð¿Ð¾Ð½Ñĭ
846 5
978 0
ĠÐ°Ð»Ð´ Ð°Ð°
ÑĤÑįÐ½ ÑĨ
ĠÒ¯Ð» Ð´ÑįÑį
st r
ÐŀÑĢ Ð¾Ñģ
ĠÑħÑįÐ»Ð±ÑįÑĢ ÑĤÑįÐ¹
ĠI I
ĠÐ·Ð°Ð³ Ð°Ñģ
ĠÑģÐ¾Ð½ Ñģ
ĠÐ¾ ÑİÑĥÐ½
ĠÐ·Ð°ÑħÐ¸ÑĢ Ð³Ð°Ð°Ð½Ñĭ
Ð±Ò¯ÑĤ ÑįÑįÐ»
il l
ĠÐ±Ò¯ÑĤÑįÑįÐ³ Ð´ÑįÑħÒ¯Ò¯Ð½
ĠÐ±ÑĥÑĢ ÑĥÑĥ
ĠÑĨÑįÑĢÐ³ Ò¯Ò¯Ð´
ĠÑıÐ²ÑĨ Ð°Ð´
Ð¾ÑĢÐ¾Ð½ Ð·Ð¾Ð½
Ð³Ò¯Ð¹ÑĨ ÑįÑĤÐ³
pl ay
ÑģÑįÑĤÐ³ Ò¯Ò¯Ð»
ĠÐ¶Ð¸ÑĪ ÑįÑį
ĠÑħÑĥÑĥ ÑĩÐ¸Ð½
ĠÑĤÑįÐ½Ð³Ð¸Ñģ Ð¸Ð¹Ð½
wor k
ĠÑħÓ©Ð³ Ð¶Ð¸Ð»
Ð±Ð°Ð°ÑĤ Ð°ÑĢÑĭÐ½
3 120
3 117
3 141
3 162
4 124
4 159
4 141
4 300
4 194
4 270
4 162
4 172
4 261
4 301
4 272
4 271
5 127
5 132
5 168
5 177
5 246
5 258
5 185
5 309
5 371
6 141
6 194
6 221
6 233
6 344
6 303
7 106
7 148
7 300
7 267
7 182
7 253
7 344
8 116
8 154
8 235
8 277
8 297
8 193
8 252
8 291
8 271
9 204
9 285
9 444
9 652
C h
I X
i on
o g
Ġ Ð¸Ð¹Ð½
Ġ 80
Ð³ Ð¾Ð¾
ÑĢ ÑĥÑĥ
ÑĢ ÐµÐ¹
Ð´ ÑĭÐ³
Ñģ ÑįÑĢ
Ñģ Ð°Ñħ
Ñħ Ó©Ð²
Ñħ Ð¾Ð²
Ñħ Ð°Ð°Ð½Ñĭ
Ñħ Ð¾Ð¾Ð»
Ñħ Ò¯Ð¼
20 77
16 40
Ð¼ Ð°Ð´
17 52
18 03
ĠÐ± Ð°Ð½Ðº
23 16
23 37
23 80
23 44
23 64
23 04
23 73
23 71
23 81
24 23
24 31
25 28
25 66
25 64
25 85
25 06
26 70
26 84
26 05
26 07
26 08
26 92
ĠÑħ Ð¾ÑħÐ¸ÑĢ
27 49
27 56
27 68
27 42
27 73
28 13
28 67
28 87
28 72
28 81
29 36
29 75
29 93
30 18
30 29
30 38
30 59
30 68
30 03
30 05
ÑįÑį ÑĤ
34 12
34 32
34 93
34 61
34 71
35 76
35 93
36 13
36 34
36 49
36 58
36 97
36 96
36 73
36 62
36 82
36 91
37 14
37 79
37 87
39 21
39 68
39 74
39 92
38 70
38 66
38 06
38 61
ĠÐ½ Ð¾ÑĤ
45 34
45 37
45 85
45 84
45 02
40 17
40 23
40 48
40 66
40 42
40 72
46 30
46 90
46 02
46 03
46 05
48 16
48 52
47 12
47 25
47 22
47 40
49 18
49 31
49 85
49 53
49 74
57 27
57 45
58 17
58 56
58 60
58 69
58 94
58 03
58 72
50 29
50 90
56 13
56 16
56 69
56 88
56 53
56 04
59 20
59 34
59 49
59 79
59 84
59 92
ÑįÑĢ Ñĩ
ÑįÑĢ ÑģÑįÐ½
60 16
60 30
60 70
60 76
60 02
79 27
79 82
79 41
78 19
78 99
78 75
78 42
78 93
68 79
68 03
68 82
68 05
69 10
69 19
69 36
69 60
69 55
69 74
Ð± ÑĥÑĥÑĢ
70 34
70 40
33 10
33 18
33 39
33 22
33 33
ĠÐ´ Ð¾ÑħÐ¸
98 16
98 17
98 63
98 62
67 23
67 50
67 64
90 48
90 66
90 63
90 71
ĠÐ³ ÑįÐ³
ĠÐ³ Ð°Ð»ÑĤ
88 15
88 96
88 92
66 24
77 50
77 31
77 54
77 74
77 52
55 41
80 58
99 45
99 21
99 77
Ðº Ð¸Ð½
32 18
76 38
54 10
54 24
Ò¯Ð¹ Ð½
Ð°Ð´ Ð°Ð°Ð´
86 16
87 27
87 30
87 45
87 48
87 59
87 60
ÑįÐ´ ÑįÐ½
65 27
ĠÐ¼ ÑĥÑĥ
ĠÐ¼ Ð°ÑĢÐ³
75 16
75 34
75 57
43 24
96 27
85 49
85 31
94 24
94 38
94 49
Ð¾Ð¾ Ð´ÑĭÐ½
Ð¥ Ðļ
Ð¥ Ó©Ð³Ð¶
Ð¥ Ò¯Ð½Ð¸Ð¹
73 24
73 37
52 11
52 29
ĠÒ¯ Ñħ
83 10
Ð¿ Ð¸ÑĢ
Ð°Ð°Ð½ Ð´Ð°Ð°
Ð¢ Ð°Ð»
82 27
72 12
72 25
Ð¾Ñħ Ð¾Ð¾ÑĢ
Ð°ÑĤ Ð°ÑĢ
91 13
ÑģÑĤ Ð°Ð»
ĠÐ¾ÑĢ Ð½Ð¾
Ð¾Ð² Ð¸Ð¹Ð½
âĢ Ļ
ĠÑı Ð·Ð³ÑĥÑĥÑĢ
Ð¸Ñħ Ð°
Ð¸Ðº Ñģ
Ðĵ Ð°Ð»
ĠÐ³Ð°ÑĢ Ð³Ð°Ð½
ĠÐº Ð°ÑĢÑĤ
ĠÐ°Ð¶ Ð»ÑĭÐ½
229 3
225 7
Ðŀ Ð½
224 7
227 0
ĠÐ¥ Ð¾Ð¹Ð´
ÑĩÐ» ÑįÐ»
Ð¾Ñĳ ÑĥÐ»
223 4
335 7
226 4
ĠÑħÑįÑĢÑįÐ³ Ð¶Ò¯Ò¯Ð»ÑįÑħ
ĠÐĳ Ð°ÑĢ
ĠÐĳ Ð°Ð¹
338 0
338 6
325 4
325 8
337 3
ĠÐ±Ð°ÑĢ Ð¸Ð»Ð³ÑĭÐ½
ĠÑħÒ¯ÑĢ ÑģÑįÐ½
ĠÑħÒ¯ÑĢ ÑįÑįÐ½Ð´
318 3
ĠÐ±Ð°Ð¹Ð³ÑĥÑĥÐ» Ð¶ÑįÑį
ĠÑıÐ² ÑĥÑĥÐ»Ð°Ñħ
ĠÑģÑĥÑĢ ÑĤÐ°Ð»
Ðł Ð°Ð´
Ðł Ð¾Ð¼
Ð¸Ð² Ð¸Ð·
Ð¾Ð³Ð´ Ð¾Ñħ
445 8
Ð»Ð°Ñħ Ð°Ð´
ĠÐ±Ð¾Ð»Ð¾Ñħ Ð¾Ð¾ÑĢ
ĠÓ©ÑĢ ÑĤ
447 9
546 3
539 4
747 2
747 8
ĠÑĦ ÑĥÐ½ÐºÑĨ
968 8
549 1
549 3
660 4
440 0
659 7
an s
556 1
768 7
845 5
540 9
848 3
645 2
645 7
Ð¾Ð»Ð³ Ð¾Ð¾
946 3
745 7
969 3
959 7
849 5
960 0
839 7
957 9
878 5
ĠÑıÐ» Ð°Ð½Ð³ÑĥÑıÐ°
ĠÐ±Ð°Ð¹ÑĢ Ð»Ð°Ñħ
757 0
757 1
ĠÑįÐ· Ð»ÑįÑħ
947 9
938 1
867 5
ĠÑįÐ» ÐµÐºÑĤÑĢÐ¾Ð½
847 7
ĠÐŃ Ð½ÑįÑĤ
ĠÒ¯Ð» Ð´ÑįÐ¶
Ð±Ò¯ Ñģ
ĠÐ´Ð¾ÑĤ ÑĢ
ĠÐ°Ð²Ñĩ ÑįÑį
ÑħÑįÐ» Ð±ÑįÑĢ
ac e
ĠÐ´Ð°Ð¼Ð¶ ÑĥÑĥÐ»Ð°Ñħ
ĠÐ´Ð°Ð¼Ð¶ ÑĥÑĥÐ»Ð°Ð½
ÑĶ ÑĶ
ĠÒ¯Ò¯ÑĢ ÑįÐ³ÑĤÑįÐ¹
ĠÐ´Ð°Ð¹ Ð½Ð´
ÑĬ ÐµÐºÑĤ
ĠÒ¯Ð³ Ð½ÑįÑįÑģ
ÑĥÑĪ Ð³
ĠÐ·Ð¾ÑĢÐ¸Ð»Ð³ Ð¾
ÐĺÐ½ ÑĤÐµÑĢ
ÐĶÐ°ÑĢ Ð°Ð°
ĠÐ¾Ð² Ð¾Ð³
ÑĤÑĥÐ» Ð°Ð»Ð´Ð°Ð°Ð½
ĠÐ°Ñĩ Ð°Ð°Ð»
ĠÑĤÒ¯Ð¼ Ð½Ð¸Ð¹
Ð°Ð¶Ð¸Ð» Ð»Ð°Ð³
ĠÐ·ÑįÐ²Ñģ ÑįÐ³
ĠÐĲÐ¼ÐµÑĢ Ð¸Ðº
ĠÐ°Ð¼ÑĮ ÑĤÐ°Ð½
ĠÐ½Ð¾Ñĳ Ð½
ĠÐ¼Ðµ Ð´Ð°Ð»
ĠÐ±Ò¯ÑĢÑįÐ» Ð´ÑįÑħ
ĠÐ¶Ð°Ð³Ñģ Ð°Ð°Ð»ÑĤ
ĠÑħÐ°ÑĢÐ¸ ÑĥÑĨ
ĠÓ©Ð²Ó©ÑĢ Ð¼Ó©ÑĨ
2 116
2 120
2 136
3 104
3 106
3 152
4 104
4 123
4 139
4 135
4 160
4 200
4 151
4 286
4 278
4 266
4 245
4 265
4 349
4 222
4 302
4 362
5 136
5 149
5 167
5 240
5 280
5 298
5 306
5 295
5 368
5 261
5 222
5 263
5 332
5 443
6 118
6 136
6 160
6 195
6 359
7 117
7 170
7 270
7 307
7 266
7 193
7 276
7 377
7 358
7 402
8 186
8 258
8 309
8 248
8 254
8 255
8 555
9 104
9 109
9 119
9 147
9 250
9 169
9 199
9 291
9 378
9 331
A N
A T
s h
w are
Ġ b
Ġ 60
Ġ of
Ð° ÑĥÐ´
Ð³ ÑįÑħ
ÑĢ ÑĤ
Ð¸ ÑĥÑģ
Ð¸ Ð¾Ð½Ñĭ
Ð´ Ð¸
Ñĥ Ð³Ð¸Ð¹Ð½
ÑĤ Ð¸
ÑĤ Ð°Ð½Ð³
Ñģ Ð°Ð¼
Ñģ ÑĥÐ»
Ñģ ÑįÑĢÐ³
Ñħ Ð¾Ð¹
Ñħ ÑıÐ½
16 28
17 45
17 65
19 47
19 56
23 46
23 50
23 79
23 82
Ð°Ð½ ÑĤÐ°Ð¹
24 11
24 49
24 67
24 05
25 11
25 18
25 77
25 32
25 31
25 84
25 63
25 52
26 35
26 46
26 98
26 54
26 63
26 03
ĠÑħ Ð¾Ð¶
27 26
27 96
27 84
Ð¶ Ð°Ð³Ñģ
28 23
28 26
28 45
28 58
28 78
29 34
29 88
29 87
29 05
30 36
30 99
30 31
ÑįÑį Ð¶ÑįÑį
34 24
34 58
34 53
35 10
35 13
35 37
35 21
35 44
35 96
36 11
36 24
36 56
36 76
36 31
36 42
36 93
37 11
37 27
37 97
37 74
37 73
37 52
37 06
39 18
39 22
39 98
39 77
39 93
39 01
ĠÑĤ Ò¯Ò¯Ð½ÑįÑįÑģ
ĠÑĤ Ð¾Ð²Ñĩ
ĠÑĤ ÑįÐ³ÑĪ
38 69
38 44
38 89
38 64
38 42
ĠÐ½ Ð°Ð²Ñĩ
ĠÐ½ ÑıÐ³ÑĤ
45 19
45 88
45 87
45 94
45 63
40 76
40 89
40 01
ÑĮ Ð¶ÑįÑį
46 47
46 56
46 68
46 75
48 10
48 36
48 31
48 53
47 28
47 35
47 66
47 99
47 64
47 74
47 72
49 60
49 99
49 75
49 92
Ò¯Ò¯ ÑĤ
57 68
57 54
58 57
58 68
58 67
58 02
50 39
50 49
50 21
50 59
50 97
50 75
50 01
56 19
56 34
56 39
56 22
56 47
56 95
59 59
59 78
59 80
ÑįÑĢ Ñģ
60 58
60 50
60 32
60 61
79 17
79 26
79 77
79 85
79 05
78 15
68 40
68 49
69 56
69 63
69 62
69 82
69 92
69 61
Ð¾ÑĢ Ð²
70 90
70 62
70 82
70 08
33 17
ÑĨ Ð°ÑĢ
ĠÐ´ ÑĥÐ»Ð°Ð°Ð½
98 29
98 44
98 97
98 09
67 22
67 21
Ð· Ð°Ð´
90 13
90 16
90 78
90 00
Ð°Ð¼ ÑĪ
88 97
77 34
77 71
80 57
80 07
44 16
44 22
99 11
99 58
99 69
32 25
ĠÐ· Ð°Ð¹Ð»
ĠÐ· Ð°Ð¹Ð´
Ó©ÑĢ Ð³
76 15
76 27
76 47
76 78
54 15
54 49
89 28
89 47
86 28
86 29
86 49
86 32
97 45
97 55
87 40
87 43
64 23
64 27
64 30
64 22
65 18
ĠÐ¼ Ð°Ñı
ĠÐ¼ Ð°ÑĢÐº
ĠÐ¼ ÑĥÐ¶Ð¸Ð¹Ð½
75 26
75 36
43 25
43 35
43 21
96 19
96 46
96 33
85 30
85 58
Ð°Ð² ÑĭÐ½
74 12
84 19
84 36
73 20
52 15
83 15
83 30
83 35
Ð°Ð°Ð½ Ð°
Ð¢ Ð°
Ð¢ ÑįÐ½
ÐĲ Ð±
Ðľ Ð°Ð¹
ÑģÑĤ ÑĢ
ĠÑĩ Ð¸Ð³Ð»
ĠÑĩ Ó©Ð»Ó©Ó©Ð»
ĠÐ¾Ð½ Ð¾Ð»
ÐĿ Ð¸Ñģ
ĠÑİ Ñĥ
Ñİ ÑĤ
Ð£ ÑĥÑĢ
Ðļ Ð°Ð¼
ĠÐ³Ð°ÑĢ ÑĭÐ½
ĠÐ³Ð°ÑĢ Ð´Ð°Ð³
ĠÐº Ð»ÑĥÐ±
ĠÐľ ÐŃÓ¨
225 5
ÑĩÐ» Ð¾Ð½
Ð³Ð°Ð» Ð·
ĠÐĲ Ð·Ð¸Ð¹Ð½
223 3
ĠÑħÑįÑĢÑįÐ³ ÑģÑįÐ»
323 6
320 6
329 5
ĠÐĳ Ð°ÑĤ
ĠÐ±Ð°Ð³ ÑĨ
ÑĥÑħ Ð°Ð¼
339 2
Ð¸Ñģ Ñģ
Ó¨ Ð½Ð´Ó©ÑĢ
326 5
326 6
ĠÑįÑħ Ð½ÑįÑĢ
319 2
319 5
ĠÐ½ÑįÑĢ ÑįÑįÑĢ
ĠÐ¡ Ð¾Ð»Ð¾Ð½Ð³Ð¾Ñģ
ĠÑĤÑĥÑģ Ð´Ð°Ð°
ÑįÐ»ÑĤ ÑįÐ½
in t
Ð§ Ð¾Ð¹
Ð¸Ð² ÑĭÐ½
545 9
439 8
ĠÑħÑįÑģ Ð³
538 0
647 4
647 6
539 3
Ó©Ð³Ð´ Ó©Ñħ
549 7
an g
556 3
739 0
739 6
657 0
645 3
645 9
860 8
998 3
668 6
ĠÑħÓ©Ð³Ð¶ Ð»Ð¸Ð¹Ð½
ĠÑĤÐ¾Ð³Ð» Ð¾Ð´Ð¾Ð³
558 3
948 1
948 9
970 7
746 9
770 9
969 1
858 4
856 6
959 8
849 6
849 8
ĠÑħÑįÐ¼Ð¶ÑįÑį Ð³ÑįÑįÑĢ
839 0
839 3
760 5
Ð°ÑĨ Ð¸
757 5
649 0
ĠÐ·Ò¯Ð¹Ð» Ð¸Ð¹Ð³
947 3
956 7
938 5
938 8
867 4
Ð¯ Ð»
Ð¯ Ð¿Ð¾Ð½
ĠÐ°Ð»Ð´ ÑģÐ°Ð½
Ð¶Ð¸Ð»ÑĤ Ð¸Ð¹Ð½
Ð½Ð³ ÑĭÐ½
940 9
ĠÑĤÒ¯Ò¯Ñħ ÑĤÑįÐ¹
ÑĮÑı Ð°
ÑħÒ¯ Ñģ
ÑĥÐ± Ð¸Ð»
ĠÑĤÐ°ÑĤ Ð²Ð°ÑĢ
as s
ĠÑħÐ°ÑĢÑĮÑĨ Ð°Ð½Ð³ÑĥÐ¹
ĠÑħÒ¯Ò¯Ñħ Ð´
ÐĺÐ¹Ð¼ ÑįÑįÑģ
ÑħÑįÐ¼ Ð¶ÑįÑį
ĠÑĤÐ¾Ð¾ÑĨ Ð¾Ð¾Ð»
ÑħÐ¾Ð»Ð± Ð¾Ð¾
ĠÒ¯Ñģ ÑįÐ³
ĠÐ¾Ð»Ð³ Ð¾Ð´Ð¾Ð³
Ð·Ò¯Ð¹ Ð½
ĠÑħÑĥÑĥÐ´ Ð°Ñģ
ĠÑĤÑĥÑĪ Ð°Ð°Ð»
ÐµÐ½ÐµÐ¶ Ð¼ÐµÐ½ÑĤ
2 126
3 159
3 165
3 155
3 222
4 106
4 148
4 167
4 168
4 290
4 368
4 253
4 293
5 111
5 156
5 157
5 197
5 236
5 205
5 296
5 193
5 349
5 333
5 293
5 352
6 133
6 167
6 189
6 197
6 175
6 235
6 307
6 278
6 340
6 285
6 298
6 346
6 368
6 251
6 302
6 351
6 442
7 133
7 158
7 190
7 238
7 275
7 245
7 541
8 160
8 166
8 246
8 239
8 207
8 283
8 192
9 127
9 126
9 188
9 243
9 254
9 252
9 359
9 347
9 305
9 551
N et
a e
a st
m e
o b
y s
Ġ Ð°ÑıÐ½
Ð° Ð°Ð»Ð´
Ð½ ÑįÐ²ÑĤÑĢ
Ð³ Ð°Ð»Ð´
Ð» Ð·
Ð¸ ÑĦÑĢ
Ñģ ÑĢÑĭÐ½
Ñħ Ð°Ñģ
Ñħ Ò¯Ò¯Ð»
Ñħ Ð°Ð°Ð»
20 99
Ð¼ Ð¾ÑĢ
Ð¼ ÐµÐ´
ĠÐ± ÑĢ
23 78
23 97
23 96
23 05
Ð°Ð½ ÑĮÑİ
24 46
24 57
24 86
24 04
24 61
25 69
25 90
25 75
26 12
26 66
26 01
27 67
27 77
27 41
28 22
28 82
29 26
29 29
29 59
29 44
29 31
29 83
29 08
30 84
34 45
35 25
35 07
36 45
36 70
36 98
36 75
36 43
36 72
37 13
39 16
39 66
39 31
39 97
39 87
39 63
39 06
Ñĩ Ð°Ð½
Ñĩ ÑĥÑĥÐ´ÑĭÐ³
ĠÑĤ Ð°Ð¼
ĠÑĤ ÑįÑĢÑįÐ³
ĠÑĤ Ð¾Ð¾Ð½
38 11
38 15
45 16
45 36
45 22
45 09
45 61
40 19
40 67
40 31
40 93
40 92
46 19
46 23
46 27
46 93
46 92
46 81
48 25
48 37
48 57
48 72
48 71
47 11
47 23
47 21
47 33
47 55
47 44
47 43
47 93
47 71
47 91
49 16
49 47
49 57
49 68
49 03
49 51
Ò¯Ò¯ Ð¼Ð¶
57 17
57 23
57 39
57 47
57 89
58 78
58 70
58 32
58 31
58 01
50 45
50 48
50 88
50 76
50 08
56 60
56 76
56 64
59 69
59 70
59 89
59 53
59 08
59 91
ÑįÑĢ Ð´
60 35
60 80
60 03
79 39
79 60
79 32
79 83
79 61
78 24
78 79
78 74
78 84
78 63
78 73
68 24
68 47
69 16
Ð± Ñį
Ð± Ð¾ÑĢ
70 19
70 78
70 31
70 73
70 03
33 20
33 19
ÑįÐ» ÑĮ
ĠÐ´ Ð°Ð½
98 45
98 49
98 86
98 94
98 07
ÑĪ Ð»
ÑĪ Ð½Ð¸Ð¹
67 11
67 17
Ð· ÑįÐ½
Ð· Ó©Ð²Ð»
90 79
90 88
90 32
90 95
90 52
90 61
ĠÐ³ ÐµÐ½
Ð¸Ð½ Ð°Ð¼
Ð°Ð¼ Ð¸Ð½
88 21
88 57
88 51
66 40
66 46
66 51
77 19
77 28
77 59
77 72
ĠÑģ ÑĥÑĥÐ¶
55 48
55 51
80 10
80 21
80 91
44 36
44 33
99 15
99 64
99 93
32 26
32 28
76 36
89 14
89 20
89 22
89 55
89 76
86 25
86 40
ĠÐ±Ð¾Ð» ÑģÐ½
97 12
97 69
97 54
87 12
43 27
96 18
96 34
85 45
ÑĥÑĥÐ´ Ð°Ð°
Ð°Ð² Ð°ÑĢ
53 38
84 26
63 23
63 26
63 30
Ð¸ÑĢ Ð³
Ð¥ Ó©Ð»
Ð¥ Ð¾Ð¶Ð¸Ð¼
73 14
93 17
Ð¢ Ó©Ð³
72 29
Ð½Ð¸Ð¹ Ð»
Ð°Ñģ ÑĤÐµÑĢ
ÑĥÐ» ÑĥÑĥÐ½
ÐĲ ÑĦ
Ðĳ ÐĲ
Ðĳ ÐµÐ½
Ðĳ ÐĿÐ¥
Ðĳ ÑĥÑģÐ°Ð´
ĠÐ¾ÑĢ Ð¾Ñģ
ĠÐ¾ÑĢ Ð¾Ð»Ð´Ð»
Ð³Ð° Ð·Ð°ÑĢ
Ð¸Ð¼ Ð¾Ð³
ÑģÐ¾Ð½ Ñĭ
ÑįÑģ Ð³ÑįÐ»
âĢ Ķ
ÐĶ Ð°Ð¼Ð´
Ð¾ÑĤ Ð¾ÑĢ
Ð£ Ð´
ÑĥÑĥÑĢ Ñħ
ĠÐ±Ð¸ ÐµÑĤ
ĠÐľ Ð¾ÑģÐºÐ²
Ò¯Ò¯Ð½ ÑĤÑįÐ¹
ĠÐ°Ð¼ Ð¸Ð°
229 8
227 5
218 1
ĠÐ°ÑĢ ÑĮÑģ
ĠÐ°ÑĢ Ð¼Ð¸
ĠÐ¥ Ð°ÑĢ
Ó©Ó©Ð´ Ó©ÑĢ
Ð³Ð°Ð° Ð´
ĠÐĲ Ð½
Ð³ÑįÑį Ð½Ð¸Ð¹
317 2
327 6
320 3
320 9
329 8
324 9
334 8
ĠÑħÑĥÐ² Ð¸Ð¹Ð³
Ò® Ð½
ÐµÐ» Ð»
319 7
er ver
Ð´Ð» Ò¯Ò¯Ð´Ð¸Ð¹Ð³
ÑĩÐ¸Ð» ÑģÑįÐ½
ÐµÐº ÑĥÐ»
ĠÑıÐ² Ð¶
ĠÑıÐ² ÑģÐ°Ð½
438 3
ĠÑĤÑĥÐ» Ð°Ð»Ð´
Ð§ Ð¸Ð½Ð³Ð¸Ñģ
ĠÐļ Ð°ÑĢ
ĠÑģÐ°Ð½ Ð°Ð°Ð³
ĠÐ±Ð¾Ð»Ð¾Ñħ ÑĭÐ³
447 6
Ġ20 00
546 5
546 7
538 1
ĠÑĦ Ð¸Ð·Ð¸Ðº
550 5
440 9
679 1
Ð°Ð³Ñĩ Ð°Ð°ÑĢ
556 2
739 5
750 0
845 1
540 1
857 5
740 3
638 8
645 5
946 0
979 6
979 8
558 5
770 3
770 8
639 9
869 0
890 5
557 4
838 3
838 8
960 9
769 0
760 9
958 1
ĠÐ´ÑĥÑĥ ÑģÑĤÐ°Ð»
ÑĪÐ¸Ð» Ð¶
649 6
840 4
Ò¯Ð³ Ð´
Ð°ÑĢÑħ Ð°Ð³
ĠÐ° Ð¿Ð¿
ĠÑģÑĥÐ´ Ð°Ð»Ð³Ð°Ð°Ð½Ñĭ
899 2
ĠÒ¯Ð¹Ð»Ð´Ð²ÑįÑĢ Ð»ÑįÐ»
ol d
ĠÐ½Ð°Ñģ Ð½Ñĭ
ĠÑħÒ¯ÑĢÑĤÑįÐ» Ñħ
ĠÑģÑĥÑĥÑĢ Ð¸Ð»ÑģÐ°Ð½
ĠÐ¼Ó©ÑĢ Ð½Ð¸Ð¹
ĠÑħÑĥÑĥÐ» Ð±Ð°ÑĢ
ĠÑĤÐµÑħÐ½ Ð¸ÐºÐ¸Ð¹Ð½
Ð°Ð¼Ð´ Ð°Ñħ
ĠÐ°ÑĪÐ¸Ð³ ÑĤÐ°Ð¹
ĠÐ±ÑĥÐ» ÑĩÐ¸Ð½
ĠÑħÑĥÐ´Ð°Ð»Ð´ Ð°Ð°
ĠÑĪÐ°ÑĤ Ð°Ð½Ð´
ĠÑģÐ°Ð»Ð±Ð°ÑĢ ÑĤ
Ð°Ð»Ñħ ÑĭÐ½
ĠÐĲÐ» ÑĤÐ°Ð½
ĠÑħÑıÐ½ Ð°Ð»ÑĤ
ĠÐ·Ð¾ÑħÐ¸Ð¾Ð» Ñĩ
ĠÐ¾Ð½Ð³Ð¾ÑĨ Ð½Ñĭ
ĠÑįÐ·ÑįÐ» Ð¶
ĠÐ¶Ð¸Ð½ ÑħÑįÐ½Ñį
ĠÐ½ÑĥÑĤÐ³ Ð¸Ð¹Ð³
ĠÐ¸Ð´ÑįÐ²Ñħ ÑĤÑįÐ¹
ĠÑĥÐ»Ð°Ð¼Ð¶ Ð»Ð°Ð»ÑĤ
ĠÐ°Ð»ÑĤ Ð°Ð½
ĠÐ³Ð¾ÑĢ Ð¸Ð¼
ĠÑįÑĢÐ´ÑįÐ¼ÑĤ ÑįÐ´
2 141
3 125
3 123
3 137
3 122
3 157
3 163
4 132
4 164
4 269
4 274
4 192
4 364
4 363
5 140
5 166
5 250
5 175
5 290
5 153
5 204
5 307
5 243
5 237
5 231
5 304
5 242
5 374
5 331
5 442
6 102
6 106
6 107
6 130
6 239
6 245
6 241
6 364
6 375
6 553
6 543
7 115
7 189
7 151
7 205
7 181
7 171
7 291
7 293
7 202
7 242
7 662
8 111
8 100
8 250
8 151
8 270
8 279
8 308
8 357
8 267
8 554
8 543
8 541
9 300
9 164
9 287
9 152
9 201
9 664
c om
t o
u re
w w
Ġ Ð°Ð·
Ð½ ÑįÐ³Ð´
Ð³ ÑĥÐ¹
Ð» Ð°Ð´
Ð» Ð°Ð·
ÑĢ Ð°Ð³Ð°
Ð´ ÑĥÑĤ
ÑĤ Ð½Ñĭ
ÑĤ ÑįÑģ
Ñģ Ò¯Ð¹
Ñģ ÑįÐ´
Ñħ ÑĥÑĥÐ´
Ñħ Ð°Ñı
Ñħ ÑĥÐ´Ð°Ð»Ð´
20 22
23 24
23 45
23 58
24 14
24 92
25 58
25 44
25 83
25 41
26 11
26 93
26 91
27 15
27 57
27 53
28 04
28 71
29 10
29 12
29 17
29 23
29 27
29 49
29 57
29 60
29 98
29 76
29 43
29 04
30 21
30 90
30 51
30 07
34 35
34 57
34 75
34 72
35 24
35 36
35 89
35 97
35 42
35 83
35 03
36 15
36 17
36 48
36 47
36 68
36 33
36 44
36 86
36 87
37 18
37 34
37 35
37 67
37 80
37 85
37 01
37 62
Ð¾Ð» Ð¾Ð¾Ð½
Ðµ Ð¾
Ðµ Ñĩ
Ðµ Ð¾Ð´
Ð°Ð³ ÑĩÐ¸Ð´
39 10
39 11
39 15
39 24
39 64
39 43
39 04
39 03
ĠÑĤ Ð°Ð°
ĠÑĤ Ð¾Ð²
38 37
38 46
38 68
38 53
38 82
38 08
45 30
45 48
45 58
45 33
45 99
45 76
45 71
22 15
40 29
40 77
ÑĮ Ñĳ
46 14
46 35
46 49
46 60
46 95
46 74
46 72
48 26
48 48
48 33
47 39
47 49
47 58
47 76
47 31
47 65
47 52
47 03
49 29
49 49
49 88
57 99
58 19
58 25
58 46
58 48
58 75
58 09
58 91
50 24
50 26
50 27
50 22
50 31
50 09
50 92
56 12
56 45
56 67
56 44
56 87
56 65
59 16
59 35
59 21
59 85
59 42
59 07
59 00
60 26
60 49
60 60
60 78
60 90
60 44
60 64
60 73
60 91
60 81
79 47
79 42
79 73
79 08
78 95
68 14
68 83
68 62
68 71
69 21
69 90
69 51
69 71
Ð± Ð°Ð½
Ð± Ð¾Ð»Ð´
Ð± Ó©Ð¼Ð±
70 27
70 79
70 89
70 86
70 74
ÑĨ Ð°ÑĨ
ÑįÐ» ÑįÐ³
ĠÐ´ Ò¯Ò¯
ĠÐ´ ÑĥÑĥÐ½
98 12
98 34
98 35
98 21
98 33
98 31
98 83
ÑĪ Ð°ÑĢ
67 44
ĠÐ±Ð°Ð¹ Ð½Ð³ÑĭÐ½
90 26
90 57
90 58
90 93
90 51
ĠÐ³ Ò¯ÑĢÑįÐ½
ĠÐ³ Ð°Ð¹Ñħ
Ð¸Ð½ Ð¶ÐµÐ½ÐµÑĢ
Ð°Ð¼ ÐµÑĤÑĢ
88 29
88 38
88 93
88 83
66 36
66 21
66 44
66 43
77 29
55 14
55 16
55 25
55 28
55 36
55 47
55 56
80 19
80 78
80 76
80 97
80 95
80 04
80 72
80 61
44 38
44 47
44 31
99 36
99 99
99 62
or d
Ð°Ñħ Ð°Ð°Ñģ
ia n
54 12
54 19
54 38
54 21
89 12
89 59
86 56
86 78
97 10
97 27
97 53
87 56
64 14
64 16
64 49
65 30
75 23
95 10
95 33
43 36
96 39
96 56
42 25
74 17
74 39
74 47
74 21
74 33
94 48
84 32
63 12
Ð¥ Ò¯
Ð¥ Ð°ÑĤ
Ð¥ Ó©Ð´Ó©Ð»
73 29
93 28
62 14
62 18
Ð¢ ÑĢ
Ð¢ Ò¯Ò¯Ð½ÑįÑįÑģ
92 28
Ð°ÑĤ Ð¸Ð²
Ó©Ó© ÑĨÐ¸Ð¹Ð½
Ðĳ Ð°Ð´
ĠÐ¾ÑĢ Ñħ
ĠÐ¾ÑĢ Ð´Ð¾Ð³
Ð³Ð° ÑĤÐ°Ð¹
ÑĤÐ³ ÑįÐ½
Ð°Ð½Ð´ Ð°Ð½
Ðļ Ð»
Ðĺ Ð¡
ĠÑĥÑĢ Ñģ
Ðŀ Ð´Ð¾Ð¾
219 8
ĠÐ°ÑĢ Ð°Ð¹
ÑĥÐ½ Ð³
ĠÒ¯Ð¹Ð» Ð´Ð»Ð¸Ð¹Ð³
ĠÐĳ Ð°ÑıÐ½
324 2
324 4
ĠÑĤÓ©ÑĢ Ó©Ð»Ð´
336 5
ĠÐ±Ð°ÑĢ Ð°Ð°
ĠÐ¿ Ð°ÐºÐµÑĤ
ÐŃÐ½Ñį ÑĤÑħÑįÐ³
319 8
ĠÐ±Ò¯ÑĢ ÑĤ
318 7
Ð´ÑįÑį Ð´
Ð±Ð°ÑĢ Ð¸Ð¼ÑĤ
ÐµÐº ÑģÑĤ
ĠÐ¼ÑįÐ´ ÑįÑħ
ÑįÑįÐ½ ÑįÑįÑģ
ĠÐ±Ò¯ÑĤ ÑįÑįÑħ
ĠÐ±Ò¯ÑĤ ÑįÑįÑģÑįÐ½
ĠÐĶ ÐĿÐ¥
Ð¸Ð² ÐµÑĢ
446 6
ĠÓ©ÑĢ Ð½
648 0
650 3
448 1
ĠÑħÐ¾Ð»Ð± Ð¾Ð»ÑĤ
546 0
646 9
538 5
559 2
548 3
647 0
539 0
656 0
778 0
779 4
779 8
550 1
550 4
660 3
440 1
659 2
659 5
658 8
Ó©Ð»ÑĤ Ð¸Ð¹Ð½
739 4
Ð°Ð¹Ð¼ Ð°Ð³
738 5
750 1
750 4
ĠÑĤÐ¾Ð³ÑĤ Ð¾Ð¾Ñħ
845 4
845 9
657 3
945 2
740 1
740 9
638 3
645 6
946 9
979 5
558 0
558 2
745 6
969 4
639 3
639 4
639 5
758 5
858 0
858 3
898 1
557 5
670 8
957 2
749 2
749 4
749 6
958 8
958 9
748 3
879 1
879 4
947 6
ĠÐ°Ð³ ÑĥÑĥÐ»Ð´Ð°Ð³
ÐĲÐ» ÑĮ
ĠÑģÑĥÐ´ Ð°Ð»Ð³Ð°Ð°
978 1
ĠÐ±Ð¾Ð»Ð¾Ð¼Ð¶ Ð¸Ð¹Ð³
ĠÐŃ Ð»
ĠÐºÐ¾Ð¼Ð¿ Ð°Ð½Ð¸Ð¹Ð½
977 3
ĠÐł Ð¾Ð¼ÑĭÐ½
ĠÑĤÐ°Ð² ÑĮÑģÐ°Ð½
ÑįÐ½Ñħ ÑįÑĢ
ĠÐ´ÑĥÑĢ ÑģÐ³Ð°Ð»
ÐŀÑĢ Ð¾ÑģÑĭÐ½
967 1
ĠÑįÐ½ ÐµÑĢÐ³Ð¸
ÐµÑĢÐ¼ ÐµÐ½ÑĤ
ĠÑĥÑĤ Ð°Ñģ
ĠÑģÐ¾Ð½ Ð¸Ð½
ĠÑģÐ¾Ð½Ð³ Ð¾Ð´Ð¾Ð³
ĠÑĤÐµÑħÐ½ Ð¾Ð»Ð¾Ð³
ĠÑįÑĨ ÑģÐ¸Ð¹Ð½
ĠÑħÐ°Ð¼Ð°Ð°ÑĢ Ð°Ð»ÑĤÐ°Ð¹
ĠÐ³Ò¯Ð¹ÑĨÑįÑĤÐ³ ÑįÐ¶
as e
el l
ĠÑħÐ°Ð´Ð³Ð°Ð» Ð°Ñħ
Ð´ÑĥÑĥ Ñģ
ĠÐ¾ÑĢÑĪÐ¸Ð½ Ð¾
ĠÑĤÒ¯Ð¼ ÑįÐ½
Ð·Ð¾ÑħÐ¸ ÑĨ
ĠÑħÐ°Ð½Ð³Ð°Ð¼Ð¶ Ð¸Ð¹Ð½
ÑģÑĥÑĥÑĢ ÑĮ
ĠÑĤÓ©Ð³Ñģ ÑģÓ©Ð½
ĠÐ°Ð³Ð°Ð°ÑĢ ÑĭÐ½
ĠÑĤÒ¯Ð³ÑįÑį Ð¼ÑįÐ»
Ó¨Ð³ Ó©Ð³Ð´Ð»Ð¸Ð¹Ð½
Ò®Ð¹Ð» Ð´Ð²ÑįÑĢ
ĠÐ°ÑĢÐ³ Ð°Ð³Ò¯Ð¹
2 107
3 103
3 105
3 133
3 158
3 168
4 118
4 236
4 209
4 296
4 354
4 367
4 273
4 372
5 107
5 124
5 137
5 147
5 188
5 377
5 378
5 375
5 342
5 441
6 120
6 145
6 256
6 164
6 176
6 290
6 204
6 269
6 555
7 103
7 140
7 159
7 168
7 183
7 274
7 362
8 124
8 139
8 121
8 146
8 197
8 175
8 306
8 356
8 355
8 262
8 305
8 251
8 444
8 553
8 761
8 765
9 134
9 165
9 143
9 187
9 178
9 237
9 247
9 356
9 253
9 261
9 365
9 653
9 642
F i
R P
b o
o st
Ġ Y
Ġ 28
Ð° Ð°Ð»ÑĤÑĭÐ½
Ð½ Ð³Ð°
Ð³ Ð°Ñģ
Ð³ Ð¾Ð¼
ÑĢ ÑįÑħ
ÑĢ Ð°Ð»ÑĭÐ½
Ð¹ Ð³ÑĥÑĢ
10 000
ÑĤ ÑĥÐ½
ÑĤ Ð°Ð¼Ð¶
Ñģ Ð´
Ñģ ÑĥÑĥÐ´
Ñģ ÑįÐ¶
Ñģ Ð¾Ð¾ÑĢ
Ñģ Ð»Ð°Ð½
Ñħ Ð¾Ð»
Ñħ Ó©Ð³
Ñħ ÑĥÐ»
Ñħ Ð¸Ð¼
Ñħ Ð°ÑĪ
Ñħ Ð¾Ñģ
Ñħ ÐµÐ¼
Ó© ÑĪ
Ó© ÑģÓ©Ð½
ĠÐ± ÑĥÑĤ
23 12
23 11
23 66
23 74
23 84
25 17
25 25
25 38
25 21
25 89
25 71
25 81
26 16
26 47
26 59
26 32
26 85
ĠÑħ Ð°Ð¹Ð»
ĠÑħ ÑįÐ·ÑįÑį
27 17
27 27
27 28
27 34
27 50
27 60
27 33
27 08
28 85
28 51
28 05
29 30
29 37
29 39
29 40
29 33
29 55
30 14
30 20
30 35
30 54
ÑįÑį Ð¶Ð¸Ð½
34 17
34 23
34 38
34 73
35 34
35 71
36 10
36 39
36 50
36 74
36 05
36 06
37 56
37 41
Ðµ Ð¾Ð½
39 19
39 29
39 40
39 76
39 86
39 96
39 53
39 73
39 61
ĠÑĤ Ð°Ð½ÑħÐ¸Ð¼
38 13
38 27
38 47
38 79
38 55
38 54
38 52
38 03
38 71
45 38
45 46
45 59
45 69
45 55
40 14
40 16
40 80
40 07
46 13
46 24
46 22
46 32
46 97
46 83
46 09
48 22
48 47
48 60
48 79
48 77
48 85
48 62
48 03
47 20
47 19
49 13
49 26
49 04
49 71
57 13
57 18
57 22
57 59
57 70
57 43
57 94
57 62
58 45
58 90
58 54
58 04
50 11
50 18
50 66
50 84
50 07
56 14
56 25
56 37
56 56
56 70
56 54
56 41
ÑįÐ½ ÑĮ
59 29
59 22
59 58
59 51
59 05
60 18
60 37
79 28
79 21
79 59
79 69
79 33
79 64
79 52
79 03
79 72
78 11
78 37
78 39
78 40
78 47
78 21
78 55
78 44
78 97
78 08
78 61
68 55
68 43
68 73
69 35
69 94
69 83
69 91
69 81
Ð± ÑĥÑĥ
Ð± Ð°Ð´
Ð± Ð°Ð³ÑĤ
70 23
70 69
70 42
70 84
70 41
33 16
33 28
33 30
ĠÐ´ ÑĥÑĥÑĢ
98 36
98 48
98 57
98 74
98 93
98 72
Ð¸Ð» ÑĭÐ½
67 40
67 69
90 37
90 38
90 50
90 55
88 54
88 75
88 06
88 07
88 91
66 28
66 59
77 25
77 61
ĠÑģ ÑĥÑĥÐ³
80 18
80 26
80 60
80 70
80 05
80 92
44 13
44 11
44 17
44 34
44 35
99 26
99 30
99 34
99 66
99 65
99 95
99 96
99 51
Ðº Ð°ÑĢÑĤ
ĠÐ· Ð¾Ñħ
Ð¾Ð³ ÑĩÐ´ÑĭÐ½
76 10
76 13
76 17
76 49
76 57
76 41
54 11
54 34
54 40
Ð¸Ð¹Ð³ Ó©Ó©
ĠÑĥ ÑģÐ°Ð½Ð´
86 53
97 34
97 33
87 20
87 31
64 38
65 19
65 23
65 21
65 31
75 30
75 31
95 28
95 39
43 15
43 16
96 20
96 29
96 45
85 25
ÑĥÑĢ Ñģ
42 15
Ð°Ð² Ð°
53 19
74 48
74 32
94 36
84 15
Ð¸ÑĢ Ð°Ð³
Ð¥ ÑĥÑĥÐ»
Ð¥ Ð¾Ð²
83 12
83 36
62 16
82 10
82 11
82 17
92 10
Ð°ÑĤ ÑĢÐ¸
Ò¯Ò¯Ð» ÑįÑįÐ´
ÐĲ Ð¶
ÐĲ Ðº
Ðľ Ð°Ð»
Ðľ Ð°Ðº
61 12
71 13
Ðĳ Ð°Ð»
Ðĳ Ð¾ÑĢ
Ðĳ Ð¾Ð³Ð´
ĠÑĨ Ð°Ð°Ð·
Ñİ Ñģ
Ðĵ ÑįÑĤÑįÐ»
Ð»ÑįÐ³ ÑĤÑįÐ¹
Ð»ÑįÐ³ ÑĩÐ¸Ð´
Ð£ ÑĥÐ»
Ð£ ÑģÐ½Ñĭ
Ðļ Ð¾Ð¼
ĠÐ¾Ð» Ð·
ĠÐ¾Ð» ÑģÐ¾Ð½
Ðĺ Ð¼
215 4
217 9
335 0
317 0
338 9
336 1
339 4
ĠÑħÒ¯ÑĢ ÑįÑħ
326 9
ÐĹ Ð¾ÑħÐ¸
ĠÒ¯Ð· ÑįÑħ
ĠÒ¯Ð· Ò¯Ò¯Ð»Ð¶
ÑĢÐ¾ ÑĦ
Ð°Ðº Ð°Ð´ÐµÐ¼
ĠÐ¡ ÑĥÑĢ
ĠÐ±Ð°Ð¹Ð³ÑĥÑĥÐ» Ð»Ð°Ð³ÑĭÐ½
Ð¾Ð¾Ñģ Ð¾Ð¾
ÑįÐ»ÑĤ Ð¸Ð¹Ð³
ĠÐ°Ð» Ð´Ð°Ð³
438 4
545 5
ĠÐ±Ð¾Ð»Ð¾Ñħ Ð³Ò¯Ð¹
ÑĪÐ¸Ð½ Ñį
446 8
439 2
439 9
Ġ20 06
448 3
559 6
647 9
747 3
778 3
968 7
449 0
449 8
ÑħÐ°ÑĢ ÑĮÑĨ
550 6
550 7
660 2
679 0
679 7
556 0
658 1
750 8
768 0
768 1
ĠÑĩÐ°Ð´ Ð°Ð°Ð³Ò¯Ð¹
740 4
638 0
998 9
ĠÑĤÐ¾Ð¼ ÑĬÑĳ
ĠÑħÓ©Ð³Ð¶ ÑģÓ©Ð½
745 8
948 5
746 6
949 8
890 3
890 6
950 3
950 9
858 5
ĠÒ¯Ò¯Ñģ Ð²ÑįÑĢ
ĠÒ¯Ò¯Ñģ Ð³ÑįÐ½
ĠÐ³ÑįÑĢ Ð¸Ð¹Ð½
838 6
838 9
849 9
960 7
640 0
640 1
ĠÐ·ÑĥÑĢ Ð³Ð°Ð°Ð½
669 9
769 4
760 1
749 1
958 2
ĠÐ´ÑĥÑĥ Ð½Ñĭ
757 8
870 7
840 8
879 5
867 3
866 4
866 5
ĠÑħÐ°Ð¼ÑĤ ÑĭÐ½
847 1
847 2
978 7
ÐĲÑĢ Ð´ÑĭÐ½
990 1
990 3
ĠÑĤÒ¯Ò¯Ñħ Ð¸Ð¹Ð½
ĠÒ¯Ð¹Ð»Ð´Ð²ÑįÑĢ Ð¸Ð¹Ð½
977 2
ĠÓ©Ð² ÑĩÐ¸Ð½
Ó©Ó©Ð³ Ò¯Ð¹
ÑĪÐ¸Ð³ Ñĩ
ĠÑĥÐ´Ð¸ÑĢÐ´ Ð»Ð°Ð³Ð°
ÑħÑĥÐ² Ð°Ð°ÑĢ
ĠÐ°Ð»Ð± Ð°
ĠÑĤÑįÐ¼Ð´ÑįÐ³ ÑĤ
ĠÑħÓ©ÑĢ Ð²
ĠÑĤÐµÑħÐ½ Ð¾Ð»Ð¾Ð³Ð¸Ð¹Ð½
ĠÑģÒ¯Ò¯Ð» Ð´
ĠÐ½Ð¾Ð¼ ÑĭÐ½
ĠÑĤÓ©Ð³ ÑģÐ³Ó©Ð»
ĠÐ°Ð´Ð¸Ð» ÑħÐ°Ð½
Ð±Ò¯ÑĤ ÑįÑįÐ³
ĠÐ°ÑĪÐ¸Ð³ Ð»Ð°Ð³Ð´
Ð±Ð¸Ñĩ Ð¸Ð³
ĠÐºÐ¾Ð¼Ð¿ÑĮÑİÑĤÐµÑĢ ÑĭÐ½
ĠÑĪÐ¸ÑĢ ÑħÑįÐ³
ĠÐ¾Ð¹ÑĢ Ð¾Ð»ÑĨÐ¾Ð¾Ð³Ð¾Ð¾ÑĢ
ĠÐ¼ÑıÐ½ Ð³Ð°
ÑħÐ°Ð½Ð³ Ð°Ð¹
ĠÑħÐ¸Ð» Ð¸Ð¹Ð½
ĠÐ´ÑįÐ»ÑħÐ¸Ð¹ Ð´
Ð¢ÑĥÑħ Ð°Ð¹Ð»Ð±Ð°Ð»
ÑĤÐ¾Ð³Ð» Ð¾Ð»ÑĤ
Ð¸ÑĢÑĤ ÑĥÐ°Ð»
ÐŃÑħ Ð½Ð¸Ð¹
ĠÐ·Ò¯Ð³ ÑĤ
ĠÑģÑĥÐ´Ð»Ð°Ð° ÑĩÐ¸Ð´
ĠÐĳÑĢÐ¸ÑĤ Ð°Ð½Ð¸Ð¹Ð½
ĠÑĪÐ°Ð»ÑĤÐ³Ð°Ð°Ð» Ð°Ð½
ĠÑįÑĢÐ´ÑįÐ¼ ÑĤÑįÐ½
ĠÐ¾ÑĢÑĪ Ð´Ð¾Ð³
ĠÐ°Ð»Ð³Ð¾ÑĢ Ð¸ÑĤÐ¼
ĠÐŃÐ½ÑįÑĤ ÑħÑįÐ³
Ð°Ð½ÑĮÑİ Ð¹
3 111
3 127
3 121
3 135
3 145
3 154
3 164
4 128
4 138
4 144
4 190
4 176
4 179
4 183
4 206
4 198
4 377
4 345
4 378
4 341
4 303
5 103
5 125
5 123
5 121
5 145
5 138
5 299
5 194
5 195
5 265
5 376
5 369
6 117
6 123
6 144
6 168
6 255
6 348
6 332
6 343
6 554
7 105
7 116
7 127
7 122
7 240
7 199
7 178
7 234
7 252
7 356
7 233
7 301
7 272
7 273
7 542
7 665
8 126
8 140
8 168
8 268
8 198
8 377
8 365
8 551
8 552
9 118
9 129
9 135
9 280
9 370
9 297
9 279
9 281
9 343
9 554
9 641
A S
H T
J av
W indows
c on
p r
u x
Ġ n
Ġ Ó©Ð»
Ġ Ð¾Ð³ÑĤ
Ġ Ò¯Ò¯Ð½ÑįÑįÑģ
Ð° Ñĥ
Ð³ Ð¾Ð½
Ð³ ÑįÐ½Ñį
Ð³ Ò¯Ð½
Ð» ÐµÑĤ
Ð¸ Ð°Ð½Ñĭ
Ð´ Ñħ
Ð´ ÑĥÑĥÐ»
Ð´ Ó©Ñħ
ÑĤ Ð°Ð¼
ÑĤ Ð¾Ð²
ÑĤ ÑĥÑĥÑĢ
ÑĤ Ð¾ÑħÐ¸
ÑĤ Ð¾Ð¾Ð»
ÑĤ Ó©Ð»Ó©Ó©Ð»
Ñģ ÑĥÑĥ
Ñģ ÐµÐº
Ñħ ÑĢ
Ñħ Ð¾ÑĳÑĢ
Ð¸Ð¹ Ð´
Ð¸Ð¹ ÑĪ
24 89
25 35
25 22
25 70
25 88
25 99
25 76
25 05
25 92
26 19
26 27
26 40
26 67
ĠÑħ Ð¾Ð¶Ð¸Ð¼
27 13
27 98
Ð¶ ÑĥÑĥÐ»Ð°Ñħ
Ð¶ Ð¸ÑĪ
28 15
28 59
28 90
28 66
29 18
29 46
29 01
30 37
30 40
30 78
34 64
35 15
35 26
35 30
35 48
35 47
35 81
36 57
36 52
36 83
36 61
37 77
37 76
37 65
37 84
37 72
37 71
Ð°Ð» Ð°Ð½
Ð°Ð³ Ð°Ð¹
39 44
39 84
39 81
ĠÑĤ ÑįÐ½Ñħ
38 12
38 29
38 07
38 92
45 28
45 35
45 45
45 68
45 70
45 42
45 73
45 92
40 10
40 11
40 20
40 04
40 51
40 61
40 71
46 16
46 98
46 89
46 42
48 84
48 05
47 14
47 79
47 68
47 98
47 73
47 06
49 32
49 84
49 62
57 10
57 12
57 69
57 33
57 86
57 95
57 84
57 05
58 11
58 50
50 17
50 46
50 57
50 54
50 82
56 58
56 98
56 91
59 36
59 56
79 20
79 30
79 38
79 66
79 86
79 53
78 46
78 58
78 31
78 89
78 87
78 65
78 96
78 07
68 88
68 09
68 92
69 46
69 65
69 04
69 93
Ð± Ð¸Ð»
Ð± Ð°Ð¹Ð½
Ð± ÐµÑĢÐ³
70 32
70 85
70 61
33 13
ÑĨ Ð¾Ð¼
ĠÐ´ Ð¾Ð¼
98 60
98 52
ÑĪ Ð¸Ð´
ÑĪ ÑįÑįÐ»
ÑĪ Ð°Ð³Ð½
ÑĪ Ð°Ð»Ð³Ð°ÑĢ
67 37
Ð· ÑĥÑĥ
Ð· Ð°Ð»Ð³
Ð· Ð¾Ð³Ñģ
90 17
90 46
90 21
90 85
ĠÐ³ ÑįÐ²ÑįÐ»
88 26
88 59
88 61
66 38
66 42
77 27
77 79
77 66
77 55
77 75
ĠÑģ ÑĤÐ°ÑĤ
55 26
55 27
55 40
55 55
55 53
80 45
80 67
80 54
80 64
44 30
99 35
99 48
Ðº Ð°Ð½
Ðº ÐµÑĤ
Ðº Ð¾Ð¼Ð¿ÑĮÑİÑĤÐµÑĢ
32 17
32 24
ĠÐ· Ð°Ð°ÑģÐ°Ð½
Ó©ÑĢ ÑģÓ©Ð»Ð´
76 16
54 20
54 26
54 35
ÑĥÑĥÐ» ÑĤ
89 39
89 48
89 67
86 12
86 18
86 48
86 59
97 59
97 68
97 44
97 43
87 10
87 14
87 68
87 51
65 17
65 26
ĠÐ¼ Ð°ÑĤÐµÐ¼
75 37
75 48
75 21
95 20
95 57
43 19
96 12
96 23
96 40
96 69
ÑĥÑĢ Ð³Ð°Ð¼
Ð°Ð² ÐºÐ°Ð·
53 10
53 12
53 17
53 28
74 10
94 12
84 13
84 49
63 38
ÑįÐ¼ Ð³Ð¸Ð¹
Ð¥ Ð°Ð½
Ð¥ ÑįÐ»
Ð¥ Ó©Ñħ
93 12
83 17
83 26
62 12
Ð¿ Ð°ÑĢ
ĠÑĪ Ò¯Ò¯Ñħ
51 12
82 15
Ð°Ñģ Ð°Ð³
Ð°Ñģ ÑĥÑĥÐ´
92 27
Ð°ÑĤ Ð°
ÐĲ Ð¼Ð°ÑĢ
Ðĳ ÑĥÐ»
Ðĳ Ð°Ð³Ð°
ĠÑĨ Ð°Ð¹
Ð¡ ÑįÑĤÐ³
ÑĤÐ³ ÑįÐ³Ð´ÑģÑįÐ½
ÐĿ ÑĮÑİ
ÐµÐ½ Ð·
Ð¾ÑĤ ÑĢ
ĠÐ½ÑįÐ³ Ð´ÑįÐ»
ĠÐ¾Ð» Ð¾Ñħ
Ó©Ð´ Ð¸Ð¹Ð½
ĠÐ°ÑĢ Ð°Ð»
ĠÐ°ÑĢ Ð¸Ð»Ð¶
ĠÐ¥ Ð°Ð½
ÑĥÐ½ Ð³Ð°Ð°ÑĢ
335 8
317 6
327 0
ĠÓ©Ó©ÑĢ ÑĤÓ©Ó©
329 9
328 4
328 5
338 3
Ò¯Ò¯ÑĢ Ð¸Ð¹Ð½
336 7
ĠÑħÑįÐ» Ð½Ñį
339 1
339 6
330 8
Ó¨ Ð´
Ð¨ Ð¸Ð»
ĠÐ±Ò¯ÑĢ Ð´ÑģÑįÐ½
ĠÐ±Ò¯ÑĢ ÑĤÐ³ÑįÐ»
ÑħÐ°Ð½ Ñĭ
Ðĸ Ð¾Ð½
ÑĩÐ´ Ð°Ð´
ÑĩÐ´ ÑįÐ´
ĠÐ¢ Ð°Ð¹
ĠÐ±Ò¯ÑĤ ÑĨ
ĠÐļ ÑĢ
445 2
447 5
Ð¸Ñĩ ÑĥÑĥÐ´
Ġ20 08
648 7
448 0
448 8
ÐľÐ¾Ð½Ð³Ð¾Ð» ÑĩÑĥÑĥÐ´ÑĭÐ½
ĠÐĵ ÐµÑĢÐ¼Ð°Ð½Ñĭ
ĠÐĵ ÐµÑĢÐ¼Ð°Ð½
647 3
539 5
539 6
778 4
968 1
449 1
449 6
659 1
759 4
759 9
738 6
750 2
750 3
768 5
ĠÑĤÐ¾Ð³ÑĤ Ð¾Ð¾ÑģÐ¾Ð½
756 7
845 2
848 4
945 4
645 8
668 0
668 1
979 0
948 7
970 4
746 3
770 4
949 1
639 7
758 7
ĠÐ·Ð°ÑĢ Ñĩ
950 8
849 2
960 4
640 7
669 2
760 0
760 6
749 9
757 3
870 0
870 5
870 8
649 4
649 8
649 9
840 3
879 0
ĠÐ·Ò¯Ð¹Ð» Ñģ
678 2
678 4
547 2
547 5
547 7
938 3
ĠÐ² ÑįÐ±
ĠÐĹ Ò¯Ò¯Ð½
846 8
ĠÑģÑĥÐ´ Ð°Ð»
ĠÐ±Ð¾Ð»Ð¾Ð¼Ð¶ Ð³Ò¯Ð¹
Ðķ Ð²ÑĢÐ¾Ð¿
Ò¯Ð½Ð´ ÑįÑģ
ĠÑħÑįÑĢÑįÐ³Ð»ÑįÐ³ ÑĩÐ¸Ð´
ĠÑģÑĥÑĥÑĢ Ð¸Ð½
ĠÑĪÐ°Ð°ÑĢÐ´ Ð»Ð°Ð³
ĠÐ±ÑįÐ» ÑĤÐ³ÑįÐ»
ĠÑĤÐµÑħÐ½ Ð¾Ð»Ð¾Ð³Ð¸
ĠÐ±Ð°Ð³ÑĤ Ð°Ð°
ÑħÒ¯ Ñĩ
ĠÑĤÑįÐ½ Ð³ÑįÑĢ
ÑħÒ¯ÑĢ ÑĤ
ĠÑģÒ¯Ò¯Ð» ÑĩÐ¸Ð¹Ð½
ĠÐ´Ð°Ð» Ð°Ð²Ñĩ
ĠÑĩÐ°Ð½ Ð°ÑĢÑĤÐ°Ð¹
ÑĢÐ°Ð´ ÑĭÐ½
ĠÐ·Ð¾ÑĢÐ¸Ð»Ð³ Ð¾ÑĤÐ¾Ð¹
ĠÐ¾ÑĢÑĩÐ¸Ð¼ Ð´
ĠÐ´ÑįÐ¼Ð¶ Ð¸Ñħ
ĠÒ¯Ò¯ÑģÐ³ ÑįÐ¶
Ò¯Ò¯Ð»ÑįÐ³ ÑĩÐ´Ð¸Ð¹Ð½
ĠÑħÓ© ÑĤÓ©Ð»Ð±Ó©ÑĢ
Ð¥Ò¯Ð½ Ð½Ò¯
ÐµÐºÑĤ ÑĥÑĢ
ĠÑĤÐ°ÑĢÑħ ÑģÐ°Ð½
ĠÑįÑħÐ» ÑįÑįÐ´
ĠÑħÐ°ÑĢÐ¸ Ñĥ
ĠÑģÐ¾Ð» Ð¸Ð»ÑĨ
ĠÐ±Ð¾Ð´Ð»Ð¾Ð³ ÑĭÐ³
ĠÒ¯Ò¯Ð´ Ð½ÑįÑįÑģ
ĠÑĩÓ©Ð»Ó©Ó© ÑĤ
ĠÑĤÐ¾Ð½ Ð¾Ð³
igh t
ÐµÐºÑģÐ°Ð½Ð´ ÑĢ
ĠÐ¥Ò¯Ð½ Ð½Ò¯
ĠÐ¼Ð°ÑĢÐ³ Ð°Ð°Ð½
2 143
3 101
3 134
3 138
4 105
4 130
4 149
4 157
4 230
4 199
4 258
4 340
4 298
4 347
4 365
4 263
4 402
5 165
5 141
5 164
5 199
5 162
5 286
5 288
5 241
5 251
5 345
5 373
6 134
6 147
6 138
6 170
6 158
6 350
6 253
6 291
6 293
6 242
6 374
6 363
6 444
6 542
7 124
7 155
7 204
7 235
7 248
7 376
7 222
7 292
7 444
8 149
8 155
8 196
8 299
8 194
8 265
8 181
8 347
8 242
8 302
8 371
8 373
9 128
9 149
9 156
9 190
9 184
9 235
9 304
9 364
9 264
9 663
T e
T r
X V
i st
Ġ f
Ġ h
Ġ 21
Ġ 200
Ð³ ÑĥÑĥÐ´ÑĭÐ½
Ð³ Ð¸ÑĪ
Ð» Ð°Ð¹
Ð» Ð°Ð½Ð´
Ð» Ò¯Ò¯Ð»ÑįÑħ
Ð» Ò¯Ò¯Ð»ÑįÐ½
Ð´ ÑĩÐ¸Ð»ÑģÐ°Ð½
ÑĤ Ð¾Ñģ
Ñģ Ð°Ð°ÑĤ
20 89
Ð¸Ð¹ Ð»ÑįÐ½
Ð¼ ÑįÐ´ÑįÐ³
Ð¼ ÑĥÐ¶
ĠÐ± ÑįÑĢÑħ
23 77
25 91
Ð°ÑĢ ÑĮ
ĠÑħ v
27 64
27 95
Ð¶ Ò¯
28 20
28 16
28 68
28 86
28 65
29 58
Ð² Ð¸Ð¹Ð½
Ð² ÐµÐ´
34 48
35 05
36 22
37 99
37 32
37 00
Ð¾Ð» Ð¸Ð¼Ð¿
Ðµ Ð¾ÑĤ
39 20
39 28
39 37
39 47
39 78
ĠÑĤ ÑĥÐ¹
ĠÑĤ Ð¸Ð²
38 20
38 17
38 25
38 26
38 28
38 35
38 38
38 57
38 32
38 31
38 86
38 74
38 41
ĠÐ½ Ó©Ð»Ó©Ó©Ð³
45 44
45 62
45 51
40 27
40 59
40 70
40 06
46 11
46 25
46 85
46 94
48 21
48 09
48 08
47 67
47 77
47 42
47 83
49 19
49 59
49 89
49 96
49 42
49 93
49 06
57 16
57 35
57 48
57 56
57 04
57 06
57 71
57 81
58 18
58 35
58 38
58 49
58 79
58 98
58 55
58 65
58 43
58 63
58 51
50 13
50 68
50 55
50 32
50 43
50 93
56 59
56 66
56 74
56 52
59 26
59 33
59 99
59 87
59 74
59 09
59 71
60 69
60 66
60 99
60 89
60 95
60 43
79 10
79 14
79 55
79 06
79 81
78 49
78 78
78 77
78 82
68 13
68 46
68 98
68 04
69 59
69 99
69 97
69 85
69 01
Ð± Ð¸ÑĢ
Ð± Ð¾ÑĢÐ»
70 10
70 28
70 38
70 88
70 64
70 02
70 83
33 37
ÑĨ ÑĥÐ²
ÑĨ ÑįÑĢÐ³Ð¸Ð¹Ð½
ÑįÐ» Ð¶ÑįÑį
ĠÐ´ Ð¸Ð²Ð¸Ð·
98 30
98 46
98 47
98 58
98 68
98 87
98 53
98 84
98 73
98 01
ÑĪ ÑĤ
ÑĪ Ð¸Ð¼
ÑĪ Ð»Ð¸Ð¹Ð½
ÑĪ Ò¯ÑĤ
67 65
67 73
67 61
ĠÐ±Ð°Ð¹ Ð½Ð³Ð°
90 25
90 39
90 59
ĠÐ³ Ò¯Ð¹Ð»
88 16
88 98
88 31
88 89
88 87
88 53
88 84
88 82
66 19
66 23
66 22
66 78
66 64
77 17
77 63
55 12
55 46
55 44
55 31
55 52
80 13
80 15
80 30
80 33
80 06
44 20
99 39
99 43
99 41
Ð°Ñħ Ð¸
ĠÐ· Ó©Ó©Ð»
ĠÐ· ÑįÑĢÐ³Ð¸Ð¹Ð½
76 39
76 58
54 14
54 27
54 48
89 40
Ò¯Ð¹ Ð¼
86 14
86 20
86 23
86 46
86 57
97 26
97 58
97 70
97 67
87 58
64 10
65 34
65 47
Ó©Ð³ Ó©Ó©Ð³
75 14
75 11
75 24
95 24
95 27
95 35
43 12
43 20
43 26
43 28
96 37
85 11
85 16
42 17
53 11
53 36
94 39
94 31
84 39
63 35
Ð¸ÑĢ Ð³ÑįÐ½
ÐµÑĢ Ð±
73 11
52 16
52 24
ÑįÐ¹ Ñģ
83 11
83 16
83 19
62 15
62 23
62 28
Ð°Ð¶ Ð¸Ð»Ð»
51 14
Ð¢ Ó©ÑĢÐ¸Ð¹Ð½
82 23
Ð°Ñģ Ðº
Ð¾Ð¼ Ð°ÑĤ
Ð°ÑĤ Ð°Ð°ÑĢ
Ð¾Ð´ ÑĭÐ½
71 12
Ðĳ ÐµÑĢ
Ðĳ ÑĥÐ´
Ðĳ Ð°Ñı
Ðĳ Ò¯Ñħ
ĠÐ¾ÑĢ Ð½ÑĥÑĥÐ´ÑĭÐ½
ĠÐ¾ÑĢ Ð³Ð¸Ð»
Ð³Ð° Ð·
ÐŃ Ð²
Ð¡ Ð¿
ĠÑĩ Ð¸Ð¹Ð³
Ð¸Ð¼ Ñģ
ÑģÐ¾Ð½ Ð¸ÑĢÑħ
Ð¸Ð´ ÑįÐ²Ñħ
ĠÑı Ð¿Ð¾Ð½
Ó©Ó©ÑĢ Ó©Ó©
Ð°ÑĪ Ð¸Ð½Ñĭ
Ðĵ ÑįÑģÑįÐ½
ÑĦ Ð¾ÑĢÐ¼
Ðļ Ð°Ð·
ÑĥÐ´ Ð¸
Ð¾Ñģ Ð¾Ð²
ĠÐ³Ð°ÑĢ ÑĨ
ĠÐº Ð°ÑĤ
Ó©Ð¼ ÑĢÓ©Ð³
Ð¸ÑĤ Ð°ÑĢ
Ðĺ Ð»
ÑįÑĢÐ³ ÑįÐ½
ĠÐľ Ð°ÑĢ
ĠÐ°Ð¼ Ð°ÑĢ
ĠÐ°Ð¼ Ð¸Ð½
Ðŀ Ð¿
ĠÑħÐ°ÑĢ Ð¸ÑĥÐ»
ÑħÐ¸Ð¹ Ð´
323 3
ĠÐĳ ÐĿÐľÐĲÐ£
ĠÐ±Ð°Ð³ ÑĤÐ°Ð¹
328 2
324 7
325 0
ÐŁ ÑĢÐ¾ÑĨÐµÑģÑģ
334 9
ĠÐ¸Ñħ ÑįÐ´
337 7
330 1
ÐĹ Ó©Ð²
ĠÑįÑħ ÑįÐ½
ĠÑįÑħ Ð»ÑįÑħ
319 1
ĠÐ±Ò¯ÑĢ Ð´ÑįÐ½Ñį
318 6
ĠÒ¯Ð· ÑįÐ³
er s
Ð±Ð°ÑĢ Ð¸Ð»Ð´
ÑįÑĤÐ³ ÑįÑįÐ´
ĠÑıÐ² ÑĥÑĥÐ»Ð´Ð°Ð³
Ð¶Ð¸Ð» ÑģÑįÐ½
ĠÐ°Ð» Ð¸Ð²Ð°Ð°
Ð°Ð°Ð» Ð°Ð»
ĠÑħÒ¯Ð½ Ð¸Ð¹Ð³
545 3
545 8
447 1
Ġ20 10
Ġ20 13
448 6
ÐľÐ¾Ð½Ð³Ð¾Ð» ÑĩÑĥÑĥÐ´
ĠÐ¶Ð¸Ð» Ð´
646 2
538 2
538 9
647 5
647 7
747 7
968 3
550 0
660 1
659 0
659 4
679 4
739 7
768 4
ĠÑĤÐ¾Ð³ÑĤ Ð²Ð¾ÑĢÑĤÐ¾Ð¹
756 9
845 0
857 1
657 1
657 6
657 8
645 0
860 2
860 7
946 4
946 7
946 8
745 9
949 6
639 0
758 3
849 0
670 0
670 2
640 5
ĠÐ·ÑĥÑĢ Ð³Ð¸Ð¹Ð½
669 3
769 6
957 1
957 4
850 2
ĠÐ±Ð°Ð¹ÑĢ Ð»Ð°Ð´Ð°Ð³
748 0
870 3
ĠÐĺ Ð½
ĠÐĺ ÑĢ
678 7
678 8
547 9
956 1
ĠÑĳ ÑģÐ»
ĠÐµ Ð²ÑĢÐ¾Ð¿
Ð¯ Ð¼Ð°ÑĢ
ĠÐ°Ð¼ÑĮÐ´ ÑĢÐ°Ñħ
978 3
877 1
767 3
ĠÐ°Ð¶Ð¸Ð»Ð»Ð°Ð³ Ð°Ð°Ð½Ð´
899 1
899 9
977 4
ĠÑĤÐ°Ð² Ð¸Ñħ
ĠÐ·Ð°Ð¼ ÑĭÐ³
ĠÐ´ÑĥÑĢ ÑĭÐ½
Ð¸Ð¿ Ð¿
967 4
967 6
ĠÑĪÐ¸Ð» Ð¶Ð¸Ð½
ĠÐ·Ð°Ð³ Ð²Ð°ÑĢÑĭÐ½
at e
ĠÐ±ÑįÐ» ÑįÐ½
ĠÐ°Ð½Ð³ Ð¸Ð´
ĠÐ°Ð½Ð³ Ð»Ð¸
ĠÑħÐ°ÑĢÐ¸Ð»ÑĨ Ð°Ð°Ð½Ñĭ
Ð°Ð¼Ð± ÑĭÐ½
ĠÐ¦ Ð°Ð³
ÑħÒ¯ÑĢ Ð³
ÑĤÓ©Ð» Ó©Ð²Ð»
Ð±Ð¸ Ðµ
ĠÐ±Ò¯Ñģ Ð³Ò¯Ð¹
ĠÑħÐ°ÑĢÑĮÑĨ ÑĥÑĥÐ»Ð°ÑħÐ°Ð´
ĠÐºÐ¾Ð¼Ð¿ÑĮÑİÑĤÐµÑĢ Ð¸Ð¹Ð½
ĠÑħÑĥÐ´Ð°Ð»Ð´ Ð°Ð½
Ò¯Ò¯Ð»ÑįÐ³ ÑĩÐ¸Ð´
ec t
ĠÐ±Ð°Ð¹ÑģÐ½ Ð°Ð°Ñģ
ĠÐ¾Ð¹ÑĢ Ð¾Ð»ÑĨÐ¾Ð¾
ĠÒ¯Ð¹Ð»ÑĩÐ¸Ð»Ð³ÑįÑį Ð³
ĠÐ½ÑįÐ²ÑĤÑĢ Ò¯Ò¯Ð»
Ð·Ð°Ñģ Ð°Ð³
ÑħÐ°Ð½Ð³ Ð°Ð¼Ð¶
ĠÐ½Ð°Ð°Ð´ Ð°Ð¼
ÐĳÐ¸ Ðµ
ĠÐ¼Ð¾ÑĢ ÑĮ
ÑĪÐ¸Ð¹ Ð´Ð²ÑįÑĢ
ĠÑĤÒ¯Ð²ÑĪÐ¸Ð½ Ð´
ÑĤÐµÑħÐ½ Ð¸Ðº
ĠÑģÑĥÑĢÐ°Ð»ÑĨ Ð°Ð¶
ĠÐ´ÑĥÑĤ Ð°Ð³Ð´
ÑĤÓ©Ð³ Ñģ
Ð¥ÑįÐ´ Ð¸Ð¹Ð³ÑįÑįÑĢ
ÑħÐ¾ÑĪ ÑĥÑĥ
ĠÐĵÑĢ ÐµÐº
for m
Ð³Ó©Ð»Ð´ Ó©Ó©Ð½
ĠÑĥÑĢÐ°Ð»Ð´ Ð°Ð°Ð½Ð´
ĠÑģÐ°Ð½Ñħ Ò¯Ò¯Ð³Ð¸Ð¹Ð½
ĠÐĶÑįÐ» ÑħÐ¸Ð¹Ð½
3 167
4 120
4 131
4 267
4 348
5 169
5 196
5 179
5 161
5 244
5 275
5 266
5 245
5 191
5 367
5 272
6 125
6 150
6 135
6 155
6 196
6 199
6 205
6 333
6 341
6 443
7 125
7 134
7 123
7 236
7 184
7 296
7 152
7 207
7 346
7 357
7 355
7 359
7 347
7 251
7 374
7 351
7 379
7 363
7 664
8 101
8 120
8 238
8 174
8 350
8 303
8 353
8 343
9 105
9 108
9 139
9 136
9 131
9 159
9 141
9 238
9 258
9 195
9 278
9 309
9 248
9 276
9 295
9 355
9 301
9 284
9 374
9 292
9 273
9 363
L R
S QL
a x
Ñ ³
Ġ +
Ġ 22
Ġ 90
Ġ Ð°Ð°Ð²
Ġ Ò®Ð½Ð´ÑįÑģÐ½Ð¸Ð¹
Ð½ Ð°Ð°
Ð½ ÑĥÑĤÐ°Ð³
Ð³ ÑĢ
Ð³ Ð¾
Ð³ Ð°ÑĤ
Ð³ Ð°Ð½Ð´
Ð³ Ð°ÑħÐ°Ð´
Ð³ ÑįÐ¼ÑĤ
Ð» Ó©Ó©
Ð» Ð°Ð¹Ð½
ÑĢ ÑįÐ»
ÑĢ Ð¸Ðº
ÑĢ ÑĥÑĥÐ»Ð°Ñħ
Ð¸ ÑĥÐ½
Ð´ ÑĥÑĥÑĢ
Ð´ Ð°Ð¹ÑĢ
ÑĤ Ð¾Ð»Ð³Ð¾Ð¹
Ñģ Ð²
Ñģ ÑįÐ³
Ñģ ÐµÑĢÐ²ÐµÑĢ
Ñħ Ð´
Ñħ Ð°Ð¹Ð½
Ñħ Ð°Ð¹Ð»
Ð¸Ð¹ Ð»ÑįÑħ
ĠÐ± Ó©Ó©ÑĢ
25 14
25 86
Ð°ÑĢ Ð°Ð½
Ð°ÑĢ Ð°Ð³
ĠÑħ Ð°Ð¶ÑĥÑĥ
27 45
27 02
Ð¶ Ð¸
29 15
29 56
29 73
30 16
30 43
Ð°Ð¹ ÑħÐ°Ð¼
34 87
34 63
34 91
35 59
35 78
35 90
35 88
35 95
36 18
36 21
36 54
37 28
37 98
ÑĥÑĥ Ñģ
Ð°Ð³ Ð°Ð°ÑĢ
39 34
39 70
39 41
ĠÑĤ Ð¾Ð¹
ĠÑĤ ÑįÐ½Ð´
ĠÑĤ Ð¸Ð¹Ð¼
38 19
45 23
45 40
45 47
45 95
45 83
45 06
40 13
40 78
40 98
40 53
46 53
48 19
48 30
48 49
48 61
47 27
47 46
47 50
47 59
47 87
47 96
47 82
49 46
49 50
Ò¯Ò¯ ÑģÑĤ
57 40
57 78
57 77
57 61
58 59
58 52
58 81
50 73
50 91
50 81
56 10
56 40
56 68
56 32
56 89
56 42
56 06
ÑįÐ½ ÑĤÑįÐ¹
59 24
59 40
59 47
59 67
59 55
59 43
59 81
60 10
60 68
60 84
60 72
60 92
60 71
79 65
78 22
78 56
78 54
78 86
78 43
68 25
68 29
68 36
68 38
68 97
68 84
68 51
69 12
69 76
69 89
69 75
69 02
69 03
Ð± Ò¯Ð»
70 16
70 49
70 53
70 71
33 38
ÑĨ Ð°Ð°Ð·
ÑĨ ÑĥÐ³Ð»
ÑįÐ» ÑįÐ½Ð³
ĠÐ´ Ð¾Ð³
ĠÐ´ ÑĥÑĥÐ»
ĠÐ´ Ð¾Ð¾
ĠÐ´ Ð°Ð°ÑģÐ°Ð½
ĠÐ´ Ò¯Ð³ÑįÑįÑĢ
ĠÐ´ Ð°Ð°ÑĤÐ³
ĠÐ´ Ð¸Ð¶Ð¸ÑĤÐ°Ð»
98 69
98 89
98 42
98 92
98 71
ÑĪ Ð½
ÑĪ Ð°Ð»
Ð¸Ð» ÑĮÑı
67 56
67 79
67 68
67 66
Ð· Ð°Ð°ÑĢ
90 69
90 54
90 74
Ð°Ð¼ Ð³Ð°Ð¹Ð»
88 19
88 33
88 88
88 44
66 29
66 48
66 32
66 52
77 77
ĠÑģ Ð°Ð½Ð³
ĠÑģ Ó©ÑĢÓ©Ð³
55 20
55 49
55 58
80 34
80 22
80 98
80 99
44 15
44 29
44 37
44 44
44 43
99 16
99 27
99 50
99 53
or y
32 14
Ó©ÑĢ Ð»
76 37
76 46
76 69
76 67
54 18
54 25
54 32
89 41
ĠÑĥ ÑıÐ½
ĠÑĥ Ð´Ð°Ð»Ð³Ò¯Ð¹
86 15
86 27
86 34
86 36
86 31
97 28
97 48
97 66
97 32
87 25
87 21
87 67
87 32
87 53
64 40
64 46
64 33
65 29
75 15
75 27
75 29
75 45
95 23
95 26
95 48
95 58
95 31
43 11
96 13
96 24
96 44
85 14
85 23
85 33
42 27
53 15
53 18
53 30
74 11
74 30
63 29
73 26
73 34
73 35
52 20
52 18
52 26
93 10
93 16
93 37
93 39
83 13
83 21
62 24
62 25
Ð°Ð°Ð½ ÑĮ
82 16
72 15
Ð¾Ð¼ Ð±
Ð¾Ð¼ ÐµÑĤÑĢ
92 15
92 29
Ó©Ó© Ð¶
ÐĲ Ð¡
Ðĳ Ð¾Ð´
Ð»Ð°Ð³ Ð°Ð°Ñģ
ÐŃ ÑĨ
Ð¡ Ð¾Ð½Ð³
Ð¡ Ò¯Ð»Ð¶ÑįÑį
Ð°Ð»ÑĤ Ð°Ð°Ñģ
ÑĤÐ³ ÑįÐ´ÑįÐ³
ĠÑı ÑģÑĤ
ÐĿ Ð¸Ð¹Ð³
ÐĿ Ð¾Ð¼
Ð¸Ðº Ð»
Ð°Ð»Ð´ ÑģÐ°Ð½
Ðĵ Ð°Ð½
Ð»ÑįÐ³ ÑĩÐ¸Ð¹Ð½
Ð°Ð½Ð´ Ð¸
Ðļ Ð¾ÑĢ
ĠÐ³Ð°ÑĢ Ð³Ð°Ð´Ð°Ð³
Ð¸ÑĤ ÐµÐºÑĤÑĥÑĢ
Ðĺ Ð¥
ĠÑħÐ°ÑĢ Ð²
Ð³Ð°Ð» Ð°Ð½
ĠÐĲ Ð¹
226 9
ĠÑħÑįÑĢÑįÐ³ Ð»
320 2
329 6
325 5
336 4
ĠÑħÑĥÐ² ÑĮÑģ
337 2
337 8
ĠÑħÒ¯ÑĢ ÑįÑį
326 1
326 8
319 6
Ð°Ðº ÑĤÐ¾ÑĢ
Ðĸ Ð°Ð½
ĠÑħÐ¸Ð¹ Ð´
ĠÐ¡ Ð¾Ð»Ð¾Ð½Ð³Ð¾ÑģÑĭÐ½
ĠÓ©Ð½ Ð³Ð¸Ð¹Ð½
ĠÓ©Ð½ Ð´Ó©Ð³
ĠÓ©Ð³ Ð½Ó©
Ð»Ð¾Ð³ ÑĭÐ½
ĠÐ¢ Ò¯ÑĢ
Ð°ÑĢÑĤ ÑĭÐ½
Ò¯Ò¯Ñħ ÑįÐ½
ĠÐ±Ò¯ÑĤ ÑįÐ½
in ux
438 6
ĠÐ¸ÑĢ ÑįÑħ
Ð¦ Ð°ÑħÐ¸Ð»Ð³Ð°Ð°Ð½
ÑģÐ½ ÑįÑįÑģ
ÑĤÑĢ Ð°ÑĤ
Ð§ Ð°Ð½
ĠÐļ Ð°Ð½
545 7
446 3
Ð¤ ÑĢÐ°Ð½
ĠÐ±Ð¸Ñĩ Ð»ÑįÐ³
439 0
Ġ20 12
448 2
448 5
ĠÐ¶Ð¸Ð» Ò¯Ò¯Ð´ÑįÐ´
646 0
646 3
548 2
Ð¾Ðº ÑĤÐ¾ÑĢ
449 2
549 5
660 0
440 6
440 8
679 6
ĠÐ¼Ó©Ð½ Ð³Ó©
738 0
738 1
738 4
750 9
768 9
756 2
756 4
756 6
ĠÑĥÐ´ Ð°Ð°Ð³Ð¸Ð¹Ð½
ĠÐ¾Ð¹ Ð´
857 0
657 9
998 0
998 5
979 3
ĠÑħÓ©Ð³Ð¶ Ð¸Ð¶
558 9
970 1
970 2
770 2
969 0
639 1
758 6
869 7
890 4
890 8
890 9
858 1
858 8
959 6
557 9
ÐµÐ² Ð¸Ð¹Ð½
670 1
670 3
670 4
960 3
ĠÐŀ Ð¹
ĠÐŀ Ð»Ð¾Ð½
ĠÑĤÑįÑĢ Ð±ÑĥÐ¼
957 3
958 7
ĠÐ´ÑĥÑĥ Ð³
757 6
870 4
840 1
879 8
ĠÐĺ ÑĤÐ°Ð»
678 1
547 0
947 5
947 7
956 2
Ð°ÑĢÑħ Ð°Ð¹
938 6
ÑħÐ°Ð¼ ÑĤÐ»Ð°Ð³
ĠÐĹ Ð¥Ð£
846 1
667 3
ĠÐ¼Ð°ÑĪ Ð¸Ð½Ñĭ
767 1
767 7
ĠÐ°Ð»Ð´ Ð°ÑĢ
ĠÐ°Ð»Ð´ Ð°ÑĢÑĪ
ĠÑħÑįÐ² ÑįÑįÑĢ
Ó©Ó©Ñģ Ó©Ó©
Ð±Ò¯ Ð»ÑįÐ³
899 4
990 0
ĠÐ¾ÑĢÐ¾Ð»ÑĨ Ð´Ð¾Ð³
ÑĩÐ¸Ð¼ ÑįÐ³
ĠÑĤÓ©Ð² Ð´
ĠÑĤÓ©Ð² Ð¸Ð¹Ð½
ĠÒ¯Ð¹Ð»Ð´Ð²ÑįÑĢ Ð»ÑįÐ»Ð¸Ð¹Ð½
ĠÓ©Ð½Ð´Ó©ÑĢ Ð»Ó©Ð³
868 2
868 7
ĠÑĤÐ°Ð² ÑĮÐ¶
ĠÐ´ÑĥÑĢ Ð´ÑģÐ°Ð½
ÐŀÑĢ ÑĩÐ¸Ð½
ĠÐ¾Ð´ Ð¾Ð½
ĠÑħÐ°Ð½Ð³ Ð°Ð»ÑĤÑĤÐ°Ð¹
ĠÑĤÒ¯ÑĢ Ò¯Ò¯Ð»Ð¶
ĠÒ¯Ò¯ÑĢ Ð³Ð¸Ð¹Ð³
ÑģÐº Ð¸Ð¹
ĠÐ¾ ÑİÑĥÑĤ
ÑħÒ¯Ò¯ Ð³Ð¸Ð¹Ð½
Ó©Ð»Ó©Ó© ÑĤ
ĠÐ·Ð¾ÑĢÐ¸ÑĥÐ» Ð°Ð½
ĠÐ·Ð¾ÑĢÐ¸ÑĥÐ» Ð¶
ĠÐ³Ò¯Ð¹ÑĨÑįÑĤÐ³ ÑįÑħ
ĠÐ±Ð°ÑĤ Ð°Ð»Ð³Ð°Ð°Ð¶
Ð±Ð¸ ÐµÐ»
ĠÐ±Ð¾Ð»Ð¾Ð²ÑģÑĢ ÑĥÑĥÐ»Ð°Ñħ
oc k
ĠÑħÐ¾ÑĪ ÑĥÑĥÐ½Ñĭ
ĠÐ±Ð¸ÑĩÐ¸Ð³ Ð´ÑģÑįÐ½
ĠÑħÐ¾Ð½ Ð¾Ð³Ð¸Ð¹Ð½
ĠÑħÐ¾Ð»Ð±Ð¾Ð³Ð´ Ð¾Ñħ
ĠÑħÐ¾Ð»Ð±Ð¾Ð³Ð´ ÑģÐ¾Ð½
ÑĥÐ· Ð°Ð°Ð½
ec tion
ĠÑĪÐ°Ð³Ð½ Ð°Ð»ÑĭÐ³
ĠÐ±Ð¾Ñģ Ð»Ð¾Ð³Ð¾
ĠÑħÒ¯Ñģ ÑģÑįÐ½
ĠÑĩÐ°Ð´Ð²Ð°ÑĢ ÑĤÐ°Ð¹
ĠÑĤÓ©ÑħÓ©Ó©ÑĢÓ©Ð¼Ð¶ Ò¯Ò¯Ð´
ĠÐ·ÑįÑįÐ» Ð´
ĠÑħÐ°Ð»Ð´ Ð²Ð°ÑĢ
ĠÐ³Ð°ÑĢÐ³Ð°Ð¶ ÑįÑį
ĠÐ½Ð°Ð°Ð´ Ð°Ð¼Ð´
ĠÐ½Ð¾Ñĳ Ð´
ĠÐ¼Ðµ ÑħÐ°Ð½
ÐĳÐ°Ð¹ Ð³ÑĥÑĥÐ»
ÑĢÐ°ÑĦ Ð¸Ðº
ĠÐ¸ ÑĤÐ³ÑįÐ»
ÑħÐ°Ð¹ÑĢ ÑħÐ°Ð½
ĠÑĥÑĢÑĮÐ´ ÑĩÐ¸Ð»Ð°Ð½
ĠÐ·ÑĥÑĥ Ð½Ð´
ÑĤÑįÐ¼ÑĨ ÑįÑįÐ½
ĠÐĲÐ² ÑģÑĤÑĢÐ°Ð»
ÐĿÐ¸Ðº Ð¾Ð»
ĠÐķÐ²ÑĢÐ¾Ð¿ ÑĭÐ½
ĠÐľÐ°Ð½ Ð¶Ð¸Ð¹Ð½
ĠÐ±Ò¯ÑĢÑįÐ»Ð´ÑįÑħ Ò¯Ò¯Ð½Ð´
old play
3 180
3 190
4 119
4 133
4 169
4 195
4 277
4 297
4 360
4 247
4 295
4 191
4 369
4 264
4 375
4 351
4 342
4 373
5 190
5 270
5 206
5 287
5 239
5 285
5 203
5 284
5 303
5 282
5 353
5 379
6 116
6 142
6 179
6 174
6 183
6 249
6 273
6 373
7 137
7 121
7 135
7 149
7 196
7 179
7 185
7 247
7 279
7 263
7 366
7 282
7 443
7 552
7 555
7 661
8 129
8 123
8 142
8 132
8 190
8 200
8 141
8 164
8 370
8 209
8 368
8 349
8 369
8 367
8 364
8 264
8 273
8 375
8 362
9 106
9 157
9 299
9 151
9 185
9 266
9 193
9 265
9 288
9 182
9 348
9 242
9 441
9 555
C A
I B
M L
h ar
k e
m on
m ent
s p
t ain
Ġ Ð¸Ð½Ð³
Ġ Ð¸Ð½Ð´
Ġ 500
Ġ Ð¾Ð±
Ġ th
Ð½ Ð°Ð½
Ð½ Ð°Ñħ
Ð½ Ó©Ó©ÑĢ
Ð½ ÑĥÑĥÐ´Ð°Ð´
Ð³ Ð¸Ð´
Ð³ Ð°ÑĢÑĭÐ½
Ð³ Ð¸Ð¿
Ð» Ð¸Ð¹
Ð» ÑįÑįÑģ
Ð» Ð°Ð»Ð´
ÑĢ Ò¯Ò¯
ÑĢ Ð°Ð»Ð´
Ð¾ ÑĥÐ½
Ð¸ ÑĤÐ³ÑįÐ»
Ð´ Ð°
Ò¯ Ðº
ÑĤ Ð¾Ð»
ÑĤ ÑĥÑĪ
Ñģ Ð°Ð²
Ñģ Ò¯ÑĢ
Ñģ Ð»ÑįÐ»Ð¸Ð¹Ð½
Ñħ Ð¸ÑĢ
Ñħ ÑĥÑĥÑĢ
Ð¼ Ð°ÑĪÐ¸Ð½
ĠÐ± Ð°Ð°Ð·
ĠÐ± Ð»Ð¾Ðº
25 23
ĠÑħ Ð°Ð³
ĠÑħ ÑıÑĤÐ°Ð´ÑĭÐ½
ĠÑħ Ð¸Ð¼Ð¸Ð¹Ð½
Ð¶ Ò¯Ò¯Ð»Ð¶
28 10
30 33
30 65
30 82
34 46
35 77
36 79
37 23
37 25
37 37
37 22
Ð°Ð» Ð°Ð¹
Ð¾Ð» Ð¸Ðº
Ð¾Ð» Ð¾Ð¾Ð´
Ðµ Ð¾Ð»Ð¾Ð³Ð¸Ð¹Ð½
Ð°Ð³ ÑģÐ°Ð½
39 48
39 89
39 94
Ð¾Ð½ ÑĥÑĥÐ´
ĠÑĤ Ð°Ð³Ð½
ĠÑĤ Ð¸Ð¹ÑĪ
38 16
38 18
38 23
38 30
38 34
38 22
38 21
38 65
38 95
38 96
38 94
38 05
ĠÐ½ ÑįÑįÑģÑįÐ½
45 24
45 54
45 43
46 12
48 12
48 14
48 18
48 28
48 38
48 96
47 18
47 38
47 75
49 23
49 30
49 39
49 33
49 77
49 76
49 43
49 52
57 90
57 65
57 63
57 92
57 00
57 91
58 27
58 88
50 12
50 20
50 04
50 83
50 41
56 20
56 15
56 23
56 08
56 00
ÑįÐ½ Ð³Ò¯Ð¹
59 45
59 46
59 02
59 52
60 23
60 59
60 86
60 53
60 01
79 76
79 54
79 97
79 94
79 01
79 07
78 12
78 18
78 51
68 11
68 20
68 17
68 48
68 21
68 57
69 11
69 18
69 33
69 87
69 41
Ð± Ó©Ñħ
70 37
70 98
70 87
70 81
ĠÐ´ Ð¾Ð»Ð»
98 23
98 26
98 77
ÑĪ ÑĥÐ²
Ð¸Ð» ÑĢ
Ð¸Ð» ÑĭÐ³
Ð¸Ð» ÑįÑĢÑħÐ¸Ð¹
67 13
67 20
67 25
67 70
67 63
67 71
ĠÐ±Ð°Ð¹ Ð»Ð³
90 27
90 35
90 36
90 56
90 73
90 72
ĠÐ³ ÑįÑįÐ´
ĠÐ³ Ð¾Ð»Ð´
88 47
88 78
88 67
88 73
66 15
66 18
66 67
66 65
77 14
77 22
77 56
77 60
77 43
ĠÑģ ÑįÑĢ
ĠÑģ ÑįÐ»
ĠÑģ ÑĥÐ½
55 39
55 22
55 33
80 16
80 38
80 49
80 69
80 09
44 25
99 10
99 55
99 31
99 74
99 72
or e
Ðº Ð°
Ð°Ñħ Ð°ÑĢ
ĠÐ· Ð¾Ð²
ĠÐ· ÑĥÐ½Ñĭ
Ó©ÑĢ Ð³Ó©
Ð¾Ð³ Ð»
76 23
54 33
89 24
89 36
89 45
89 79
89 32
89 63
86 35
86 47
86 21
86 54
97 29
97 37
97 57
97 41
87 11
87 24
87 26
87 46
87 44
87 41
64 48
65 15
Ó©Ð³ Ò¯Ò¯Ð»
Ó©Ð½ Ð³Ð¸Ð¹Ð½
ĠÐ¼ Ð¼
95 14
96 47
96 58
96 60
96 68
85 26
85 37
85 32
ÑĥÑĢ Ð¸
ÑĥÑĢ ÑĤ
Ñı Ð»Ð´
53 16
53 34
53 22
74 14
74 19
94 27
94 30
84 14
84 18
Ò¯ÑĢ Ð³ÑįÐ»
63 10
63 18
63 39
73 16
73 17
73 19
73 27
73 21
93 13
93 15
93 29
93 34
ÑįÐ¹ Ð¼
Ð°Ð°Ð½ ÑĥÑĥÐ´
Ð¢ Ó©ÑĢ
Ð¢ ÑĥÐ»
82 13
82 18
72 24
Ð½Ð¸Ð¹ ÑħÑįÑį
ÑĥÐ» ÑĮ
92 13
Ð¸Ð³ Ð»Ð°Ð³Ð´
ÐĲ Ð½Ð´
ÐĲ ÑĢÐ¸
ÐĲ Ð·Ð¸Ð¹Ð½
81 12
81 13
ĠÐ¾ÑĢ Ð¶ÑįÑį
ĠÐ¾ÑĢ Ð³Ð°Ð½
Ð°Ð°Ñģ Ð½Ñĭ
Ð¾Ð² Ð¸Ñĩ
ÑĤÐ³ Ó©Ð½
Ðĵ Ò¯ÑĢ
Ð´ÑįÐ³ Ð´ÑįÐ»
ÑĦ Ð°Ð¹Ð»
Ñĳ Ð²
ĠÐ¶ ÑĥÑĥÐ»
ĠÐ¥ Ð¾Ð»Ð±
ĠÑħÐ°ÑĢ Ð¶
ĠÐĲ Ð¼
ĠÐĲ ÑĦ
323 4
ĠÓ©Ó©ÑĢ Ð¸Ð¹Ð³Ó©Ó©
330 5
Ð¸Ñģ ÑĭÐ½
Ð¸Ñģ ÑįÐ»Ð´
Ð»ÑįÐ» Ð´
ÐĹ Ó©Ð²Ð»Ó©Ð»ÑĤÐ¸Ð¹Ð½
Ò® ÑĢ
ĠÐ±Ð° Ðº
319 3
ĠÐ±Ò¯ÑĢ ÑįÐ»Ð´
ĠÒ¯Ð· Ð²ÑįÐ»
ĠÒ¯Ð· Ò¯Ò¯Ð»Ð´ÑįÐ³
Ð´ÑįÑį Ð³Ò¯Ð¹
Ð´Ð°Ð° Ð´
Ð°Ðº ÑĤÐµÑĢ
Ðĸ Ð°Ð¼
ÑĩÐ´ ÑįÑįÑģ
Ð°Ð°Ð» Ð³Ð°Ð²
ĠÑĤÑĥÐ» Ð°Ð°Ð½
ĠÑĤÑĥÐ» Ð°Ð»Ð´Ð°Ð°Ð½
447 0
447 8
439 6
Ġ20 11
448 9
ĠÐ·Ð¾ÑħÐ¸ Ð¾Ð»ÑĭÐ½
ĠÐ¶Ð¸Ð» Ð´ÑįÑį
538 7
538 8
ÑĤÐ°ÑĢ Ñĩ
548 1
548 6
539 9
ĠÐľÐ¾Ð½Ð³Ð¾Ð» Ð´
Ó©Ð³Ð´ Ó©Ð¶
778 5
449 5
779 3
779 9
660 9
440 4
759 1
759 8
556 7
658 0
658 3
738 2
ĠÑĤÐ¾Ð³ÑĤ ÑģÐ¾Ð½
540 0
848 8
857 4
657 2
945 8
946 5
998 1
998 8
668 7
979 4
745 5
ĠÐ±Ð¾Ð»Ð³ Ð¾Ð´Ð¾Ð³
969 9
869 6
869 9
856 1
898 8
557 1
557 7
839 8
839 9
769 7
ÑįÐ¼Ð¶ Ð¸ÑĤ
957 5
850 4
878 4
ĠÐ±Ð¾Ð´ Ð¾Ð¶
ÑĢÐ¸ Ð°Ð½Ñħ
748 6
ĠÐ³Ð°Ð´ Ð°ÑĢÐ³
649 1
547 1
947 0
956 3
956 4
939 7
Ð°Ð»Ð³ Ð¾ÑĢ
ÐĲÐ» ÑĤÐ°Ð¹
847 3
847 8
846 9
Ð»Ð°Ð¶ ÑįÑį
ĠÑħÒ¯Ñĩ Ð¸Ð¹Ð³
ĠÐ±Ò¯Ñħ ÑįÐ»
Ð´ÑįÐ» Ð³ÑįÑĢ
Ð¸Ð³Ð´ Ð°Ð¶
ĠÐ½Ð¸Ð¹ÑĤ Ð»ÑįÐ»
940 0
940 4
940 8
ĠÒ¯Ð¹Ð»Ð´Ð²ÑįÑĢ Ð»ÑįÑħ
ic ro
ĠÑģÐ°Ð¹ ÑĤ
Ð¾Ð¾Ð½ Ð¾
Ð¾Ð¾Ð½ Ð¾Ð¾Ñģ
ĠÑĪÐ¸Ð½Ð¶ ÑĤÑįÐ¹
ĠÐ¼Ð¾Ð½Ð³Ð¾Ð» ÑĭÐ½
ĠÑįÑħÑįÐ» Ð¶
967 5
ĠÐ½ÑįÐ¼ ÑįÐ³Ð´ÑģÑįÐ½
ÑħÑįÐ» ÑįÐ»ÑĨ
ĠÑħÐ°Ð½Ð³ Ð°Ñħ
ĠÐ¼Ó©ÑĢ Ó©Ð½
ĠÐ´Ð°Ð¼Ð¶ ÑĥÑĥÐ»Ð´Ð°Ð³
re ad
ĠÐ§ Ð¸Ð½Ð³Ð¸Ñģ
ÐĲÐ¼ ÑĮÐ´
ÑĥÑĥÐ»Ð°Ð»ÑĤ ÑĭÐ³
Ġ10 00
Ð¢ÑįÐ´ Ð³ÑįÑįÑĢ
ĠÑĤÑįÐ¼ÑĨ ÑįÐ»
it e
Ð¾ÑĦ ÑĦ
ĠÐ³Ò¯Ð¹ÑĨÑįÑĤÐ³ ÑįÐ´ÑįÐ³
Ó©Ð¼Ð¶ Ð»
ÐºÑģ Ð¿
ĠÐµÑĢÓ©Ð½ÑħÐ¸Ð¹ Ð´Ó©Ó©
Ò¯Ò¯Ð»ÑįÐ»ÑĤ Ð¸Ð¹Ð½
ĠÐ¸Ð»ÑįÑĢÑħÐ¸Ð¹ Ð»ÑįÑħ
ĠÒ¯Ò¯ÑģÐ³ ÑįÐ´ÑįÐ³
Ð¥ÑįÑĢ Ð²ÑįÑį
ĠÑħÓ© ÑĤ
ĠÑĤÐ¾Ð´Ð¾ÑĢÑħÐ¾Ð¹Ð» ÑģÐ¾Ð½
Ð¾Ð¾Ð¼ ÑĤ
un d
ĠÐ±Ð¾Ñģ Ð³
ĠÑĨÑįÑĢÐ³ Ð¸Ð¹Ð³
ĠÐ·ÑįÐ²Ñģ ÑįÐ³ÑĤ
ĠÑĥÑĢÐ³Ð°Ð¼ Ð»ÑĭÐ½
ĠÐ¾ÑĢÑĩÐ¸Ð½ Ð´
ĠÐ·ÑįÑįÐ» Ð¸Ð¹Ð½
ĠÑħÐ¾Ð¾Ð» Ð¾Ð¹
ag e
od e
ĠÐ±Ð°Ð¹Ð»Ð´ Ð°Ð°Ð½Ñĭ
ĠÐ±ÑĥÑĥÐ´ Ð°Ð»
ĠÑĤÓ©Ð»Ó©Ó©Ð» Ó©Ð³Ñĩ
ĠÐ¸Ð½ÑĤÐµÑĢ Ð½ÑįÑĤ
ĠÑĨÑįÑĨ ÑįÐ³
ĠÑĨÑįÑĨ ÑįÑĢÐ»ÑįÐ³
ÑħÑĥÑĥÐ» ÑĮ
ĠÑģÑĥÐ´Ð»Ð°Ð° Ñĩ
ĠÐ¤ÑĢÐ°Ð½ÑĨ ÑĭÐ½
ÐĶÐ°Ð» Ð°Ð¹Ð½
ÐĲÐ¼ÐµÑĢ Ð¸ÐºÐ¸Ð¹Ð½
ĠÐ±Ð¸Ð· Ð½ÐµÑģÐ¸Ð¹Ð½
ĠÑħÒ¯Ð¹ ÑĤÑįÐ½
ĠÑħÑįÑįÑĢ Ð¸Ð¹Ð½
ĠÑģÑįÐ´ ÑįÐ²
Ð¾ÑĨÐ¸Ð°Ð» Ð¸ÑģÑĤ
ĠÐ¶ÑĥÑĢ Ð°Ð¼
ĠÑĥÐ´Ð¸ÑĢ Ð´Ð°Ð³Ñĩ
ĠÐ½ÑįÑįÐ»ÑĤ ÑĤÑįÐ¹
ĠÐĳÐ°ÑĢ ÑĥÑĥÐ½
Ð»Ð· Ð¸Ð¹
ĠÑĤÐ°Ð° Ð¼Ð°Ð³
Jav a
ĠÐ´Ð¾Ð¾ ÑĪ
tain ment
3 144
4 154
4 307
4 285
4 376
4 171
5 101
5 134
5 260
5 187
5 247
5 234
5 359
5 233
5 348
5 202
5 264
5 271
5 362
5 363
6 149
6 153
6 299
6 186
6 257
6 357
6 203
6 182
6 222
6 202
6 342
7 142
7 157
7 167
7 260
7 186
7 350
7 258
7 163
7 257
7 278
7 340
7 298
7 173
7 349
7 333
7 345
7 441
8 104
8 107
8 117
8 127
8 131
8 300
8 199
8 178
8 205
8 278
8 266
8 281
8 333
8 294
8 378
8 341
9 180
9 168
9 196
9 194
9 260
9 234
9 245
9 181
9 192
9 293
9 375
9 302
9 443
9 765
9 764
A C
B C
C om
E T
c o
o ur
r es
u c
u al
à ¤
Ġ t
Ġ 17
Ġ 23
Ġ 35
Ġ in
Ġ Ð¸Ð¼Ð¿
Ð½ ÑĥÑĢ
Ð½ Ð°Ð¹Ð¼
Ð½ Ó©Ð»Ó©Ó©Ð»
Ð½ Ó©Ó©ÑĨ
Ð³ Ð°Ð°Ð½Ð´
Ð» ÑįÑĢ
Ð» ÑįÐ¼
Ð» ÑĥÑĥÐ»ÑģÐ°Ð½
ÑĢ Ð¾Ð»
ÑĢ Ðµ
Ð´ ÑĥÐ»
Ñĥ Ð¿
Ñĥ Ð³Ð°ÑĢ
ÑĤ ÑįÐ´
ÑĤ ÑĥÑħ
Ñħ Ó©ÑĢÐ²
Ñħ Ð°ÑıÐ³
ĠÐ± ÑįÐ»Ð´
Ð°ÑĢ Ð°Ð»
ĠÑħ Ð°Ð°Ð´
ĠÑħ Ð¾ÑĳÑĥÐ»
27 92
Ð¶ ÑĥÑĥÐ»ÑģÐ°Ð½
Ð¶ Ò¯Ð¶Ð¸Ð³
29 96
Ð² Ð¸ÑĢÑĥÑģ
Ð°Ð¹ Ð½Ð´
ÑįÑį Ð´ÑįÐ³
34 80
35 32
35 01
36 25
37 89
37 94
Ðµ Ð¾ÑĢ
39 14
39 17
39 80
Ñĩ Ó©Ð»Ó©Ó©Ð»
ĠÑĤ ÑĥÑĥ
ĠÑĤ Ð¾Ð¾Ð³
38 43
38 62
ĠÐ½ Ð¾ÑĳÑĢÑħ
45 13
45 26
45 50
45 41
40 21
40 69
40 02
40 03
40 41
46 45
46 69
46 31
46 87
46 64
46 63
46 07
48 41
48 00
47 26
47 08
47 61
47 81
49 48
49 78
49 91
ÑįÐ³ ÑĩÐ¸Ð½
57 37
57 72
58 37
58 06
58 08
50 10
50 34
56 17
56 26
56 29
56 30
59 12
59 25
59 57
59 86
59 64
59 95
59 62
59 72
60 11
60 25
60 27
60 36
60 56
60 33
60 93
79 50
79 79
79 90
79 88
79 62
78 34
78 59
78 69
78 70
78 90
78 66
78 41
78 71
68 19
68 27
68 34
68 56
68 33
68 90
68 77
68 99
68 75
68 42
68 52
68 91
69 47
69 57
69 79
69 64
69 06
69 07
Ð¾ÑĢ Ð¸
Ð± ÑĥÑģ
Ð± ÑĥÑħ
Ð± Ð¸ÑĪ
Ð± Ó©ÑĢÐ¸Ð¹Ð½
70 58
70 68
70 80
70 97
70 05
70 91
33 23
ÑĨ Ð°Ð½
ÑĨ Ð¾Ð³ÑĨ
ÑįÐ» Ð·
ÑįÐ» Ð³Ò¯Ð¹
98 04
ÑĪ ÑĥÑĥÐ´
ÑĪ Ð°Ð»Ð³
67 18
67 36
67 58
67 59
67 42
67 74
67 52
67 51
Ð· ÑĢÐ°
ĠÐ±Ð°Ð¹ ÑĤ
90 49
90 70
ĠÐ³ Ð¸Ð´
ĠÐ³ ÐµÐ½ÐµÑĢ
88 12
88 13
88 18
88 60
88 76
66 14
66 16
66 50
66 41
77 15
77 30
77 38
77 70
ĠÑģ Ð°Ð°ÑĢÐ°Ð»
55 59
55 54
80 90
80 66
80 55
80 62
80 03
80 00
44 28
44 46
99 14
99 56
99 59
Ðº Ð¸Ð¹
ĠÐ· Ò¯Ñģ
76 24
76 59
54 46
ÑĥÑĥÐ» Ð³Ð°Ð´
89 16
89 25
89 57
89 64
89 75
89 71
86 69
86 42
97 13
97 24
97 21
97 31
87 19
87 34
87 79
87 42
64 29
65 38
65 40
65 49
Ó©Ð½ Ð¸Ð¹Ð½
Ó©Ð½ Ð´Ó©ÑĢ
Ó©Ð½ Ð³Ó©ÑĢ
ĠÐ¼ ÐµÑģÑģ
75 18
75 39
95 47
95 21
43 14
96 50
96 70
42 28
53 24
74 13
74 27
74 46
94 47
84 17
84 27
84 47
63 19
ÐµÑĢ ÑĭÐ½
52 27
52 28
93 36
93 21
83 34
62 10
Ð¢ Ð¾Ð´
82 25
72 23
Ð¾Ñħ ÑĭÐ³
Ð¾Ð¼ ÐµÑĢ
Ð°ÑĤ Ð¸ÐºÐ¸Ð¹Ð½
Ò¯Ò¯Ð» ÑįÐ²
Ðľ Ð¸Ðº
Ðľ Ð°Ð½Ð´
Ðľ Ð°ÑĢÑĤ
Ðľ Ð¸ÑħÐ°
61 14
Ðĳ Ð°Ñħ
ÑģÑĤ Ð°Ð½
ÑģÑĤ Ð¸ÑĤ
ĠÐ¾ÑĢ Ð¾Ð¹
Ò¯Ò¯Ð´ ÑįÑį
Ð¡ Ð¾Ð»
Ð¡ Ðº
ĠÑĩ ÑĥÑĥÐ»Ð³Ð°Ð½
ĠÑħÒ¯ ÑģÑįÐ»
ÑĤÐ³ Ð¾Ð½
ÐĶ Ð¢
Ð°ÑĪ Ð°Ð°Ð½
Ð»ÑįÐ³ ÑįÑį
Ð£ Ð½
Ðļ ÑĥÑĢ
ĠÑħÐ°Ð¼ ÑĢ
ĠÐº Ð³
ĠÐ½ÑįÐ³ Ð´
Ð¸ÑĤ Ð°
Ðĺ Ð´
Ðĺ Ð½Ð´
Ð°Ð½Ð³ Ð°Ð°ÑĢ
ĠÑĥÑĢ Ð°Ð³ÑĪ
ĠÐ°Ð² Ð°Ð³Ñĩ
Ðŀ Ð£
ĠÐ°ÑĢ Ð°Ð²
ĠÐ°ÑĢ Ð´ÑĭÐ½
Ð³Ð°Ð» ÑĮ
Ð³Ð°Ð» Ð·Ð°Ð½
Ð³Ð°Ð° Ð´ÑĥÐ³Ð°Ð°ÑĢ
Ð¾Ñĳ Ð»ÑĭÐ½
ĠÑĥÐ»Ñģ Ð°Ð°Ñģ
ĠÑħÑįÑĢÑįÐ³ ÑĨÑįÑį
ÐŁ Ð¾Ð»
ÐŁ Ð¾ÑĢÑĤ
ÐŁ ÐµÑĤÐµÑĢ
334 6
ĠÐ±Ð°ÑĢ ÑģÐ°Ð½
ĠÑħÒ¯ÑĢ ÑįÐ½
ĠÑĤÐ¾Ð³ Ð»Ð¾Ð³Ñĩ
ÐĹ Ð¥Ð£
ĠÑįÑħ Ð»ÑįÐ»
318 5
318 8
ĠÒ¯Ð· ÑģÑįÐ½
ĠÒ¯Ð· ÑįÑģÐ³ÑįÐ»
ĠÐ½ÑįÑĢ Ð»ÑįÐ¶
ÐĽ Ñİ
Ð¸Ð· Ð°Ð¹Ð½
ĠÓ©Ð½ ÑĨÓ©Ð³
ĠÐ¢ ÑĥÑĢ
Ð¦ ÑįÐ´ÑįÐ½
ÑģÐ½ Ð¸Ð¹Ð³
ĠÐ» Ð¸Ð³Ð¸Ð¹Ð½
ÑĥÐ³ Ð°Ð¹
445 0
445 7
Ò¯Ò¯Ð»ÑįÑħ Ð¸Ð¹Ð½
446 0
Ġ20 15
Ġ20 05
646 1
559 5
747 1
656 4
656 5
968 4
968 9
549 8
739 2
739 8
739 9
845 7
540 4
638 2
645 4
946 6
ĠÐ½Ð°ÑĢ Ð½Ñĭ
745 3
745 4
948 2
970 9
969 5
758 1
869 4
869 5
ĠÐ·Ð°ÑĢ ÑĨ
890 1
858 6
856 9
ĠÐĿ Ð¸Ðº
ĠÒ¯Ò¯Ñģ Ð´ÑįÐ³
557 0
557 6
960 1
669 8
839 4
760 4
760 8
850 9
749 3
749 8
958 3
Ð°ÑĨ Ð¸Ð¹Ð½
ĠÐ´ÑĥÑĥ ÑĩÐ¸Ð½
757 4
Ð¸Ð½Ð³ Ð»
ĠÑįÐ· Ð»ÑįÐ½
547 4
956 5
939 2
867 1
867 7
ĠÑįÐ» ÑģÑįÐ½
ĠÐ² Ð°Ð½Ð³Ð¸Ð¹Ð½
ĠÑģÑĥÐ´ Ð»Ð°Ñħ
ĠÑģÑĥÐ´ Ð°Ð»Ð´Ð°Ð³
667 5
978 8
877 7
ĠÐ´Ð°Ð² Ñħ
ÑĮÑĨ Ð°Ð°
899 5
ĠÑįÐ¼ Ñħ
Ðķ Ð²
Ð¸Ð¿ Ð»
re e
ÑħÑĥÐ² ÑĮÑģÐ³Ð°Ð»
ÑģÐº Ð¸Ð¹Ð½
ĠÐ°Ð½Ð³ Ð¸
us e
ĠÑħÐ°Ð¼Ð°Ð°ÑĢ Ñĩ
ĠÑģÒ¯Ð»Ð¶ÑįÑį Ð½Ð´
Ð¾Ð»ÑĮ ÑĪ
am p
ĠÐµÑĢÓ©Ð½ÑħÐ¸Ð¹ Ð»Ó©Ð³Ñĩ
ul l
Ð½Ò¯Ò¯Ð´ ÑįÐ»
ĠÑħÐ°Ð² ÑĤÐ³
ÐĺÐ¹Ð¼ Ð´
Ð¾ÑĢÐ¼ ÑĥÐ»Ð°
ĠÑģÐ°ÑĢ Ð°Ð°Ñģ
ĠÑĤÐ¾Ð´Ð¾ÑĢÑħÐ¾Ð¹Ð» Ð¾Ð»ÑĤ
Ð·Ð¾ÑĢ Ð¸ÑĥÐ»
ĠÑģÑįÑĢÐ³ ÑįÑįÑħ
ĠÑĤÐ¾Ð»Ð³Ð¾Ð¹ Ð½
ĠÐ±Ò¯Ð»ÑįÐ³ ÑĤ
ĠÐ·ÑįÐ²Ñģ Ð³Ð¸Ð¹Ð½
ĠÑħÓ©Ð½ Ð³Ó©Ð½
ĠÑĥÐ»Ð¸ÑĢ Ð°Ð»
ĠÐ·ÑįÑĢÐ³ ÑįÑįÑĢ
ĠÐ´Ð°ÑĢÐ°Ð°Ð» Ð°Ð»
ĠÐ¼Ðµ ÑħÐ°Ð½Ð¸Ðº
ĠÑģÐ¾Ð½Ð¸ÑĢÑħ Ð¾Ð»ÑĤÐ¾Ð¹
ĠÑĤÓ©Ð´ Ð¸Ð¹
ĠÑħÓ©ÑĢÓ©Ð½ Ð³Ð¸Ð¹Ð½
ĠÑĩÐ°Ð½Ð°ÑĢ ÑĭÐ³
ĠÑģÒ¯Ð¼ Ð¸Ð¹Ð½
ĠÑįÑĢÑģ Ð´ÑįÐ»
ĠÐ´Ð¾Ð²ÑĤ Ð¾Ð»Ð³
ÑħÓ© ÑĪ
ĠÑĥÑĤÐ³ ÑĭÐ³
Ð¾Ð½Ñģ ÐµÑĢÐ²
ĠÐ¸ÑĢÐ³ÑįÐ½ Ð¸Ð¹
ĠÑĩÐ¸Ð³Ð»ÑįÐ» ÑįÑįÑĢ
ĠÐ¾Ñĩ Ð¸Ð¶
ĠÐ±Ò¯Ð» Ð³Ð¸Ð¹Ð½
ĠÑĤÑįÐ¶ÑįÑį Ð»
ĠÐ°Ð¼ÑĮÑĤ Ð½Ñĭ
ĠÑĨÓ©Ð¼ Ð¸Ð¹Ð½
ĠÑħÑįÐ»ÑįÐ»ÑĨ ÑįÑįÑĢ
ÐĲÐ¼ÐµÑĢ Ð¸Ðº
ĠÑĤÐ°Ð¼Ð¸ÑĢ ÑĩÐ¸Ð½
ÐŀÐ» Ð¸Ð¼Ð¿
Ð°Ð»Ð¸Ð¼ Ð°Ð³
ĠÐ±Ó©Ð¼Ð± Ó©ÑĢ
ĠÑĪÑĥÐ² ÑĥÑĥ
ÐĵÑĥÑĢ Ð²Ð°Ð½
ĠÐĲÐ½Ð³ Ð»Ð¸Ð¹Ð½
ĠÐ´Ð°ÑģÐ³Ð°Ð» Ð¶ÑĥÑĥÐ»Ð°Ð³Ñĩ
ĠÑĩÐ¸Ð¼ ÑįÐ³
ĠÐ¼Ð°ÑĢÐº ÐµÑĤ
Ð¡ÑįÑĤÐ³ Ò¯Ò¯Ð»
Ð¾ÑĤÑĢ Ñı
ĠÐ¦Ð°Ð³ Ð°Ð°Ð½
' s
, _
3 150
4 101
4 175
4 279
4 152
5 119
5 117
5 130
5 170
5 151
5 207
5 267
5 305
5 192
5 366
6 230
6 154
6 275
6 267
6 262
6 347
6 191
6 283
6 541
7 101
7 111
7 128
7 132
7 100
7 188
7 175
7 360
7 249
7 288
7 261
7 201
7 191
7 369
7 192
7 367
7 264
7 341
7 442
8 119
8 130
8 147
8 176
8 163
8 296
8 173
8 348
8 344
8 263
8 284
8 331
8 352
8 342
9 107
9 122
9 230
9 189
9 240
9 290
9 153
9 174
9 269
9 221
9 296
9 255
9 233
9 333
9 345
9 351
9 362
9 665
E C
I n
P I
S p
T he
a u
i es
n e
p t
Ġ 26
Ġ Ð°Ð½Ð³Ð¸Ð¹Ð½
Ð° ÑĥÐ»
Ð° ÑĩÐ¸Ð½
Ð° ÐµÐ²
Ð½ Ð¸Ð¹Ð½
Ð½ ÐµÑĢ
Ð½ Ò¯Ò¯ÑĢ
Ð³ ÑĥÐ»
Ð³ Ó©Ñħ
Ð³ Ð¾Ð¾Ñģ
Ð» ÑĥÑĥÐ»Ð°Ñħ
Ð» ÑĥÑĥÐ´ÑĭÐ³
ÑĢ Ð¸Ð¹
ÑĢ Ð¸Ñħ
Ð¾ Ð¾Ð»ÑĤ
Ð´ Ò¯Ò¯ÑĢ
Ò¯ Ð»ÑįÐ³
ÑĤ Ð¸Ð³
ÑĤ ÐµÐ½
ÑĤ Ò¯Ð³
ÑĤ Ð°Ð¼Ð¸ÑĢ
Ñģ ÑĥÑĥÐ»
Ñģ ÑįÑħ
Ñģ Ó©Ñħ
Ñħ ÑįÑįÑĢ
Ñħ Ð°Ð¹Ð´
Ð¸Ð¹ ÑĢÑįÐ³
Ð¼ ÑįÐ½
Ð¼ Ð°Ñħ
Ð¼ ÑĥÑĥÐ´
ĠÐ± Ó©Ó©
Ð°ÑĢ Ð´Ð°Ð³
ĠÑħ ÑĥÐ´
Ð¶ ÑģÑįÐ½
Ð¶ Ð°ÑĢÐ³Ð°Ð»
Ð² Ð°
Ð² ÐµÑĢ
ÑįÑį Ð¼Ð¶
Ð¸Ð¹Ð½ Ñħ
37 63
Ð°Ð» ÐµÐ½ÑĤ
Ð¾Ð» Ð¸Ð½
Ðµ Ð½Ñĭ
39 65
39 07
ĠÑĤ Ò¯Ò¯
ĠÑĤ Ò¯Ð³
ĠÑĤ Ò¯Ò¯Ð½ÑĩÐ»ÑįÐ½
38 33
ĠÐ½ ÑĥÑĥÑĢÑĭÐ½
45 25
45 60
45 32
40 35
40 37
40 88
40 64
40 05
46 46
46 78
46 84
46 06
48 80
48 87
48 83
47 90
47 80
47 32
47 89
47 95
49 12
49 35
49 79
57 25
57 55
57 32
57 75
57 74
57 07
58 15
58 39
58 47
58 85
50 25
50 37
50 56
50 69
50 44
50 89
50 65
50 96
50 05
56 97
ÑįÐ½ Ð³Ð¸Ð¹Ð½
59 13
59 19
59 90
59 88
59 76
59 65
59 73
60 13
60 17
60 22
60 79
60 31
60 87
60 74
79 11
79 18
79 36
79 46
79 63
79 71
78 80
78 72
78 05
78 06
78 81
68 26
68 69
68 76
68 54
68 53
68 74
68 41
68 61
69 28
69 37
70 52
70 07
ÑĨ Ð°Ñģ
ÑįÐ» ÑħÐ¸Ð¹
ĠÐ´ Ð¾Ð»Ð¾Ð¾
ĠÐ´ Ð¸ÑģÐº
ĠÐ´ ÑįÑĢÐ³ÑįÐ´
98 11
98 15
98 27
98 37
98 22
98 59
98 55
98 54
98 51
98 05
98 41
98 61
ÑĪ Ð°Ð»ÑĤ
67 53
67 72
Ð· Ð¾Ð²
Ð· ÑįÑĢÑįÐ³
90 18
90 30
90 60
90 90
90 87
90 62
Ð¸Ð½ Ñħ
88 17
88 24
88 58
88 80
88 99
88 86
88 95
88 74
88 71
66 57
66 33
66 53
66 61
77 68
77 44
77 41
ĠÑģ Ð°Ð°Ð´
ĠÑģ ÑĤÑĢÐ°ÑĤ
55 15
55 18
55 24
80 48
80 77
80 44
80 02
80 73
80 93
44 10
44 48
44 42
99 19
99 38
99 22
99 33
99 98
99 61
99 71
ĠÐ· Ò¯ÑĢÑħ
http s
76 14
76 26
76 45
76 56
76 60
54 39
ÑĥÑĥÐ» Ð·
ÑĥÑĥÐ» ÑģÐ½Ð°Ð°ÑĢ
89 17
89 27
89 50
89 44
89 51
86 26
ĠÐ±Ð¾Ð» Ð»Ð¾Ð¾
97 25
97 22
97 78
87 17
87 29
ÑįÑħ ÑįÐ½
65 25
65 35
Ó©Ð³ ÑĩÐ¸Ð´
ĠÐ¼ Ð°Ð°Ð½ÑĮ
75 17
75 19
75 22
75 49
75 32
95 12
95 18
95 25
95 29
43 17
96 48
96 55
85 15
85 18
85 28
85 29
85 36
85 22
85 44
ÑĥÑĢ ÑĮÐ´
Ñı Ð¾
Ñı Ð»Ð³
Ð°Ð² ÑĤÐ¾Ð¼
53 25
74 23
74 40
94 11
94 16
94 17
94 26
94 45
84 22
84 46
63 13
63 20
63 28
63 37
Ð¸ÑĢ ÑĭÐ½
Ð¥ Ñĥ
Ð¥ Ð°Ð»
Ð¥ ÑįÐ¼
Ð¥ Ðĳ
Ð¥ Ð¾Ð¹Ð´
73 28
ĠÒ¯ Ð³Ð¸Ð¹Ð³
83 28
Ð¿ Ð¾ÑĢ
Ð¿ ÑĢÐ¾ÑĤÐ¾Ðº
ĠÑĪ Ð¸Ð¼
ĠÑĪ Ð°ÑĢÑħ
82 14
82 29
72 11
72 20
Ð¾Ñħ Ð´Ð¾Ð¾
92 11
92 20
92 19
92 25
Ð°ÑĤ Ð¸Ð½
Ð°ÑĤ ÑĭÐ³
Ð¾Ð´ Ð¾Ð¾
ÐĲ Ð¶Ð¸Ð»
Ðľ Ð¸Ð½
71 10
Ðĳ Ð°Ð³
Ðĳ Ð¾Ð»Ð´
ĠÑĨ Ð¾Ð»ÑĭÐ³
ĠÑĨ Ð°ÑħÐ¸Ð¼
ÑģÑĤ Ð°Ð½ÑĤ
Ð»Ð°Ð³ Ð°Ð°ÑĢ
Ð¡ Ð°ÑĢ
Ð¡ ÑĤÑĢ
Ð¡ Ð¸ÑģÑĤÐµÐ¼
Ð¡ Ð¸Ð±
Ð¡ Ð¾Ð»Ð¾Ð½Ð³Ð¾Ñģ
Ð¡ ÑĥÐ¼ÑĭÐ½
Ð¸Ð¼ ÑĦ
ÑĥÑģ ÑĭÐ½
ÐĿ ÑįÑĢ
ÐĶ ÑįÐ¼
ÐĶ Ð¾Ð¼
ÐĶ ÑįÑįÐ´
ĠÐ±Ò¯ ÑģÐ¸Ð¹Ð½
Ð°Ð»Ð´ Ð°Ð°
Ðĵ Ð°Ð·
Ðĵ ÐµÑĢÐ¼Ð°Ð½Ñĭ
Ðĵ Ð°Ð·Ð°ÑĢ
Ðļ Ð¸Ð½
ÑĥÐ´ Ð°ÑĢÐ³Ð°
ĠÐº Ð»
ĠÐ°Ð¶ Ð¸Ð³Ð»
ĠÐ¶ Ò¯Ð¶
Ð¸ÑĤ ÑĭÐ½
ĠÐľ Ó©Ð½
ĠÐľ Ð°Ð½Ð¶
ĠÑĥÑĢ Ð²
ĠÐ°Ð² ÑĩÐ¸ÑĢ
ĠÐ°ÑĢ Ð¼Ð¸Ð¹Ð½
ĠÐ¥ Ð°Ð»ÑħÑĭÐ½
ĠÑħÐ°ÑĢ Ð°Ñħ
ĠÑħÐ°ÑĢ Ð°Ð³Ð´Ð´Ð°Ð³
ÑĤÐ¾Ð¹ ÑĢ
ÑĤÐ¾Ð¹ Ð³Ð¾Ð¾ÑĢ
ÑħÐ¸Ð¹ ÑģÑįÐ½
ĠÐĳ ÑĥÑĢ
ÑĥÑħ Ð°Ð°Ð½
ĠÑĤÐ¾Ð³ Ð»Ð¾Ð³
Ò¯Ð½ ÑįÐ»
ĠÐ¿ Ð¾ÑĢÑĤ
ĠÐ±Ò¯ÑĢ ÑħÒ¯Ò¯Ð»
318 9
ĠÒ¯Ð· Ò¯Ò¯Ð»
ĠÒ¯Ð· Ò¯Ò¯Ð»ÑģÑįÐ½
Ð±Ð°ÑĢ Ð¸Ð¼
ĠÐ½ÑįÑĢ ÑĪÐ¸Ð»
ĠÐ½ÑįÑĢ ÑįÐ¼Ð¶Ð¸ÑĤ
Ðĸ Ð¸Ð½
Ð¾Ð»Ð± Ð¾ÑĢ
ĠÐ¼ÑįÐ´ ÑįÐ¶
Ð°Ð¹Ð» Ð´
ĠÐ¸ÑĢ Ð´ÑįÐ³
Ð¾Ð»Ð´ Ð¾Ð³
ĠÑħÒ¯Ð½ ÑĤÑįÐ¹
ĠÑħÒ¯Ð½ ÑģÐ½Ð¸Ð¹
ĠÐ» Ð°Ð¼ÑĭÐ½
ÐĴ Ð¸Ðº
445 6
439 7
ĠÑħÑįÑģ Ð³ÑįÑįÑģ
ĠÑħÐ¾ÑĳÑĢ ÑĭÐ½
546 2
546 6
ÑĤÐ°ÑĢ Ñħ
548 5
ĠÐľÐ¾Ð½Ð³Ð¾Ð» ÑĩÑĥÑĥÐ´
549 0
ÑįÑĨ Ò¯Ò¯
an n
ĠÑĤÐ¾Ð³ÑĤ Ð¾Ð¾
848 9
857 3
ĠÑĩÐ°Ð´ Ð½Ð°
945 3
740 7
638 5
998 2
668 2
979 2
ĠÐ·Ð°Ñģ Ð²Ð°ÑĢ
ĠÐ½Ð°ÑĢ Ð¸Ð¹Ð²
746 2
746 8
770 0
969 8
869 1
858 2
856 2
898 2
898 3
959 4
557 2
557 8
838 4
849 4
849 7
640 8
ĠÐ³ÑįÑħ Ð´ÑįÑį
669 1
669 6
839 5
769 1
769 9
760 3
850 0
878 3
ĠÑįÑĢÑħ ÑĤÑįÐ¹
ĠÑįÑĢÑħ ÑĤÑįÐ½
748 9
870 1
649 7
ĠÑħÑĥÑĢ ÑĨ
ĠÑħÑĥÑĢ Ð¸Ð¼ÑĤ
938 2
ĠÐµ Ð²
Ð°Ð»Ð³ Ð°Ñģ
866 1
ÐĲÐ» Ð´
847 0
847 4
847 9
667 4
767 5
ĠÑħÒ¯Ñĩ ÑįÑįÑĢ
ĠÑħÑįÐ² Ð»ÑįÐ»Ð¸Ð¹Ð½
Ð²Ð°Ð» Ð¶Ð¸Ð½
ĠÐ½Ð¸Ð¹ÑĤ ÑįÐ´
ĠÐ´ÑĥÐ½Ð´ ÑĥÑĥÑĢ
977 5
868 3
ĠÑģÐ°Ð¹ ÑĤÐ°Ð¹
ĠÑĥÑĥÐ» Ñģ
ĠS t
ĠÓ©Ð´ ÑĢÐ¸Ð¹Ð½
ĠÑįÐ½ ÐµÑĢ
ĠÐ±Ð°Ð³Ð° ÑĤÐ°Ð¹
ĠÑĥÐ´Ð¸ÑĢÐ´ Ð°Ð¶
ĠÐ´Ð°Ð¼Ð¶ Ð¸Ð½
Ð³Ð°Ð°Ð³ Ð°Ð°ÑĢ
Ð»Ð¸ ÑĨ
ĠÐ±ÑįÐ» Ð³ÑįÐ´
ĠÐ±Ð°Ð³ÑĤ Ð´Ð°Ð³
ĠÐ±Ð°Ð³ÑĤ Ð°Ð°ÑģÐ°Ð½
ÑħÒ¯ ÑģÐ½ÑįÐ³ÑĤ
ĠÑĤÐ°Ð»Ð°Ð°ÑĢ Ñħ
ÑģÑĥÑĢ Ð³ÑĥÑĥÐ»
Ð¸Ð± ÐµÑĢ
ĠÑħÓ©Ð´Ó©Ð» Ð³Ò¯Ò¯ÑĢ
ĠÑĥÐ½ ÑĪ
ĠÒ¯Ð½Ð´ÑģÑįÐ½ Ð´ÑįÑį
ĠÐ°Ð¼Ð¶Ð¸Ð»ÑĤ ÑĭÐ³
ÑħÑĥÑĢ Ð´
ÑįÐ· ÑįÐ¼
ĠÑıÑĢ ÑĮÐ´Ð°Ð³
ĠÐ¼Ð¾Ð´ Ð¾Ð½
ÑıÐ» Ð³Ð°ÑĢ
Ð¸ÑĥÐ´ ÑĭÐ³
ĠÑħÓ©Ð» Ð±Ó©Ð¼Ð±Ó©Ð³Ð¸Ð¹Ð½
ĠÐ°ÑİÑĥÐ» ÑĤÐ°Ð¹
ĠÑħÐ°Ð´Ð³Ð°Ð» Ð¶
ĠÑħÑĥÐ´Ð°Ð»Ð´ Ð°Ð°Ð½Ñĭ
th er
Ð·ÑĥÑĢ Ð°Ð³
ÐĳÑĢ Ð¸ÑĤ
Ð±ÑĥÐ» Ð°Ð³
ĠÑįÐ·ÑįÐ» Ð´ÑįÐ³
ĠÑħÐ¸Ð¹Ð³ Ð´ÑģÑįÐ½
ĠÐ¾Ð½ÑĨÐ»Ð¾Ð³ ÑĤÐ¾Ð¹
ÑĤÒ¯ Ð²
ĠÐ±Ð°Ð¹Ð³Ð°Ð» ÑĮ
ĠÑĦÐ°Ð¹Ð» ÑĭÐ½
ÑħÓ©Ð» Ð±Ó©Ð¼Ð±Ó©Ð³Ð¸Ð¹Ð½
Ð½Ó©Ñħ ÑĨ
ĠÐ¸Ð½ÑĤÐµÑĢ ÑĦ
Ð¶Ð°Ð² ÑĭÐ½
ĠÐ¼ÑįÐ´ÑĢ ÑįÐ»Ð¸Ð¹Ð½
ĠÑĤÑįÐ´Ð³ÑįÑįÑĢ Ð¸Ð¹Ð½
ĠÐ¼ÑįÐ½Ð´ Ð¸Ð¹Ð½
ĠÑĤÑįÐ½ÑĨ Ð²ÑįÑĢ
ni x
Ð±Ð°Ð¹Ð» Ð´
ĠÑĤÓ©Ð²Ð»Ó©ÑĢ ÑģÓ©Ð½
ÑĤÐ¾Ð´Ð¾ÑĢÑħÐ¾Ð¹ Ð»
ĠÑĤÑįÑį Ð²ÑįÑĢ
ĠÑĤÑįÑį Ð²ÑĢÐ¸Ð¹Ð½
ĠÐ±Ò¯ÑĤÑįÑįÐ³Ð´ÑįÑħ Ò¯Ò¯Ð½Ð¸Ð¹
Ð±ÐµÑĢ Ð³Ð¸Ð¹Ð½
ĠÑĨÑĥÐ² ÑĢÐ°Ð»
ĠÐ°Ð¼ÑĮÑģÐ³Ð°Ð» ÑĤÐ°Ð¹
ĠÐ±Ð°ÑĢÐ¸Ð¼ ÑĤÐ°Ð»
ÑĨÑįÑĨ ÑįÐ³
ĠÑĤÐµÐ»ÐµÐ²Ð¸Ð· Ð¸Ð¹Ð½
Ð¡Ò¯Ñħ Ð±Ð°Ð°ÑĤÐ°ÑĢ
ĠÑįÑĢÑĩÐ¸Ð¼ ÑĤÑįÐ¹
ĠÐ£Ð»Ð°Ð°Ð½ Ð±Ð°Ð°ÑĤÐ°ÑĢ
ĠÑħÒ¯Ð»ÑįÑį Ð¶
ĠÐ¼Ð¾Ð» ÐµÐºÑĥÐ»
ĠÐµÑĢÑĤÓ©Ð½ ÑĨ
ĠÐ¿ÑĢÐ¾ÑĤÐ¾Ðº Ð¾Ð»
ĠÐ¼ÐµÐ´Ð°Ð» ÑĮ
ÑĥÐ±Ð¸Ð» Ð°Ð¹
ĠÐ¾ÑĢÐ¾Ð»Ð´Ð» Ð¾Ð³Ð¾
ÐĶÐ°Ð¼Ð´ Ð¸Ð½
Ð°Ð»Ð³Ð¾ÑĢ Ð¸ÑĤÐ¼
4 102
4 173
4 361
4 332
4 343
5 109
5 115
5 120
5 128
5 178
5 370
5 360
5 152
5 262
5 182
6 250
6 169
6 280
6 260
6 152
6 193
6 345
6 379
7 118
7 165
7 256
7 164
7 208
7 277
7 221
7 265
8 109
8 118
8 189
8 287
8 195
8 298
8 152
8 276
8 191
8 345
8 372
8 363
9 102
9 116
9 117
9 140
9 146
9 132
9 100
9 208
9 350
9 257
9 244
9 340
9 298
9 289
9 274
9 232
9 262
9 349
9 377
9 171
9 241
9 344
9 361
9 352
9 282
9 373
9 666
9 762
D B
L i
P S
R e
T h
i um
p p
Ġ J
Ġ 70
Ġ Ò®
Ġ ÑįÐ²Ñģ
Ġ ÑįÑįÐ¶
Ð½ Ð°Ñģ
Ð½ Ò¯Ò¯Ð´Ð¸Ð¹Ð³
Ð½ Ð°Ð¼ÑĭÐ½
Ð½ ÑĥÑĥÑĨ
Ñį ÑĤÑĢ
Ð³ Ñĥ
Ð³ Ò¯ÑĢ
Ð³ Ó©Ð²
Ð³ Ò¯Ò¯Ð´Ð¸Ð¹Ð½
Ð» Ð°
Ð» Ð°Ð½Ð´ÑĭÐ½
ÑĢ Ð¸Ð´
Ð¾ Ð¾Ð³Ð´
Ð¸ Ð°Ð³
Ð¸ Ð¾Ð³Ð¸Ð¹Ð½
Ð´ Ó©Ð½
Ñĥ ÑĩÑĢ
Ò¯ Ð±
ÑĤ ÑįÐ¶ÑįÑį
ÑĤ Ð½ÑĥÑĥÐ´
ÑĤ Ó©ÑħÓ©Ó©ÑĢÓ©Ð¼Ð¶
Ñģ Ò¯Ò¯Ð´
Ñģ Ð°ÑĢÑĤ
Ñħ Ò¯Ð¹
Ñħ Ó©Ñħ
Ñħ ÑıÑĤÐ°Ð´
Ñħ Ð¸ÑĩÑįÑįÐ»
Ð¼ ÑįÐ³
Ð¼ Ð¾Ð³
Ð¼ ÑįÑįÑĢ
Ð¼ Ð³Ð¸Ð¹Ð½
Ð¼ ÑįÑĢÐ³ÑįÐ¶
ĠÐ± Ð°Ð»
ĠÐ± ÑĥÑĥÐ»
ĠÐ± Ð¾Ð¾Ð»
ĠÑħ Ð°Ð°
ĠÑħ ÑįÑĨÒ¯Ò¯
Ð¶ Ð°Ð°ÑĢ
35 20
Ð¾Ð» Ð·
Ð¾Ð» Ð³Ò¯Ð¹
Ðµ Ð¾Ð¿
Ð°Ð³ Ð°Ð°Ñħ
Ð¾Ð½ Ñħ
Ð¾Ð½ ÑħÐ¾ÑĢ
Ñĩ ÐµÑĢ
Ñĩ Ð¸Ð¶
Ñĩ Ð»Ð°Ð³Ð´ÑģÐ°Ð½
Ñĩ Ð½Ð°Ð°ÑĢ
ĠÑĤ ÑįÐ³
ĠÑĤ ÑįÐ»
38 99
ĠÐ½ Ð¾Ð³Ð¾Ð¾Ð½
45 07
40 12
ÑĮ ÑģÐ¾Ð½
48 13
48 11
48 34
48 69
47 16
47 69
49 11
49 67
49 44
Ò¯Ò¯ ÑĤÑįÐ¹
57 31
58 20
58 24
58 36
58 82
50 38
50 79
50 06
56 27
56 57
56 75
56 93
59 15
59 17
59 30
59 03
59 82
59 41
Ð°Ð° ÑħÐ°Ð½
60 40
60 85
60 04
79 12
79 15
79 48
79 57
79 98
79 44
78 13
78 16
78 88
68 12
68 68
68 44
68 95
68 06
68 08
69 29
69 45
69 96
69 08
Ð¾ÑĢ Ð¾Ð²
Ð± Ð°Ñħ
Ð± ÑĥÐ¹
70 56
70 60
70 70
70 33
70 04
ÑĨ ÑįÑĢÐ³
ÑĨ ÑįÐ²ÑįÑĢ
ĠÐ´ Ð¾Ð¼Ð¾Ð³
ĠÐ´ Ð¸Ð¹Ð»ÑįÐ½
98 24
98 38
98 56
98 75
ÑĪ Ð°Ñħ
ÑĪ Ð°Ð²
67 45
67 47
67 76
Ð· ÑįÑįÐ»
90 10
90 11
90 28
90 29
90 44
90 31
90 86
90 08
90 41
90 91
ĠÐ³ ÑĥÐ»
ĠÐ³ ÑįÐ¶ÑįÑį
ĠÐ³ Ð°Ð¹ÑħÐ°Ð¼
Ð°Ð¼ Ð¸Ð´
88 14
88 11
88 37
88 46
88 79
88 43
88 03
66 26
66 27
66 66
77 46
77 33
ĠÑģ Ð°Ð½Ð´
ĠÑģ ÑĤÐ°Ð½
ĠÑģ Ð¾ÑĢÐ¾Ð½Ð·Ð¾Ð½
55 19
80 17
80 25
80 88
80 83
80 08
80 81
44 14
99 23
Ðº ÑĤ
Ðº Ð°ÑĢ
ĠÐ· Ð¾
ĠÐ· ÑįÐ¼
ĠÐ· Ð°Ð½Ð³Ð¸Ð»
76 20
76 35
76 48
54 30
54 45
ÑĥÑĥÐ» Ð±Ð°Ð»
89 30
89 60
89 70
89 62
Ð°Ð´ Ð°Ð´
86 19
86 68
97 47
97 79
87 18
87 28
87 38
87 22
64 21
ÑįÐ´ Ð¸Ð¹Ð½
65 14
65 46
65 33
65 44
Ó©Ð³ ÑĩÐ´Ð¸Ð¹Ð½
Ð°Ð°ÑĢ Ð´Ð°Ð³
ĠÐ¼ Ð°Ð»ÑĭÐ½
ĠÐ¼ Ð°Ð½Ð¶
75 47
75 56
95 38
95 45
95 56
95 44
96 10
96 38
96 78
96 67
96 54
85 10
85 24
85 35
85 21
85 57
42 20
42 18
Ð°Ð² ÑĤ
74 16
74 34
74 37
94 18
94 46
63 14
63 34
63 21
Ó©Ð» Ó©Ó©Ð½Ð¸Ð¹
Ð¥ Ò¯ÑĢ
Ð¥ ÑįÐ²
Ð¥ Ó©Ð²
Ð¥ Ð°Ð¹ÑĢ
93 23
ÑįÐ¹ Ð´
83 14
62 13
62 26
ÑĤÐ°Ð¹ Ð³Ð°Ð°
51 13
Ð¢ Ð°Ñģ
Ð¢ ÐµÑħÐ½
82 19
82 28
72 27
92 24
ÐĲ ÐĲ
Ðľ ÐµÑĤ
Ðĳ Ò¯ÑĢ
Ðĳ Ò¯Ð³Ð´
81 10
ÑģÑĤ Ð¾Ð½
ÑģÑĤ Ð°Ð½ÑĨ
ÑģÑĤ Ð°Ð½Ð´Ð°ÑĢÑĤ
ĠÐ¾ÑĢ ÑħÐ¸
Ð¡ ÐµÐ½
Ð¡ ÑĥÐ¼
ĠÑĩ Ð¸Ñħ
ÐĿ Ò¯Ò¯ÑĢ
ÐĶ Ð°Ð¹Ð½Ñĭ
ÐµÐ½ ÐºÐ¾
Ð¾ÑĤ ÑĭÐ½
Ò¯Ð¹Ð» ÑĩÐ¸Ð»Ð³ÑįÑį
Ð»ÑįÐ³ Ð´Ð¶ÑįÑį
Ð£ Ñģ
Ð£ Ð´Ð°Ð»Ð³Ò¯Ð¹
ÑĦ Ð¸Ð»Ð¾ÑģÐ¾ÑĦ
Ñĳ ÑĢ
ĠÐº ÐµÑĢÐ½
ĠÐ¶ Ð¸Ð³
ĠÐ¾Ð» Ð½Ñĭ
ÑĥÑĤ Ð³Ð¸Ð¹Ð½
Ð°Ð½Ð³ ÑĥÐ´
Ð°Ð³Ð´ Ð°ÑħÐ³Ò¯Ð¹
Ó©Ð´ Ó©Ð³
ÑĩÐ» Ð¾Ñħ
ĠÑħÐ°ÑĢ ÑĥÑĥÐ»ÑģÐ°Ð½
ĠÑħÐ°ÑĢ ÑĥÑĥÐ»Ð¶
ĠÑħÑįÑĢÑįÐ³ ÑĨ
ÐŁ Ð°Ð»
ÐŁ Ò¯ÑĢ
ÐµÑĤ Ð°
ĠÐ±Ð°ÑĢ Ð¸Ð²
ĠÐ±Ð°ÑĢ ÑĮÑģÐ°Ð½
ĠÐ´Ð°ÑĢ ÑĥÐ¹
ÐĹ Ð°Ð³Ð°Ñģ
ĠÐ¿ ÑĢÐ¾ÑĨ
ÑĥÑĥÐ»Ð°Ñħ Ð°Ð°ÑĢ
ĠÐ½ÑįÑĢ Ð»ÑįÑħ
ÑĢÐ¾ ÑģÑĤ
ĠÐ¼ÑįÐ´ Ð»ÑįÐ³
ÐĽ ÐµÐ½
ĠÑıÐ² Ð°Ñħ
Ð¸Ð· Ð¾ÑĤ
ĠÓ©Ð½ Ó©Ó©Ð³Ð¸Ð¹Ð½
ĠÐ¸Ð» ÑįÑĢ
ÐĴ ÑĮÐµÑĤ
ĠÑģÐ°Ð½ Ð°Ð°Ð½Ñĭ
ĠÐ±Ð¾Ð»Ð¾Ñħ Ð¾Ð´
Ð¤ Ð¸Ð»
ÑİÑĥ Ð½Ñĭ
Ġ20 09
648 2
650 1
650 9
ĠÐ¶Ð¸Ð» ÑįÑįÑĢ
538 4
559 3
559 7
ÑĤÐ°ÑĢ ÑģÐ°Ð½
548 4
647 2
ÑħÐ°ÑĢ Ð¸
ÑħÐ°ÑĢ Ð²
779 6
779 7
ÑĤÐ°Ð½ Ð¸Ð»ÑĨ
ĠÑĢ Ð¾Ð¼
679 9
759 6
Ð°Ð³Ñĩ Ð¸Ð¹Ð½
Ð±Ð°Ð¹ Ð´Ð°Ð»
738 9
ĠÑĤÐ¾Ð³ÑĤ Ð½Ð¾
756 1
756 3
848 5
857 6
860 0
860 4
860 6
668 8
558 1
ĠÐ´ÑįÐ» Ð³Ò¯Ò¯ÑĢ
948 0
948 4
ĠÐ±Ð¾Ð»Ð³ Ð¾Ð¶ÑįÑį
746 1
770 5
949 2
949 7
639 6
758 0
758 4
890 0
950 2
950 4
ÑħÐ½ Ð¸Ð¹Ð³
898 0
959 3
ar t
ĠÒ¯Ò¯Ñģ ÑįÑħ
859 3
859 8
ĠÑħÒ¯ÑĢÑĤ ÑįÐ¶
960 5
640 6
ĠÑĤÑįÑĢ ÑħÒ¯Ò¯
ĠÐ·ÑĥÑĢ Ð³Ð¸Ð¹Ð³
669 7
769 5
760 7
850 3
ÑįÐ³Ð´ ÑįÐ½
ti me
ĠÐ±Ð°Ð¹ÑĢ Ð»Ð°Ð»
Ð¥Ð°ÑĢ Ð¸Ð»ÑĨ
748 8
840 0
840 7
879 2
879 6
879 9
Ó©Ð»Ð´ Ó©ÑĢ
678 6
Ð»Ð°Ð³Ð´ Ð°Ð½
956 0
956 6
939 5
939 9
ĠÐĹ Ó©Ð²Ð»Ó©Ð»ÑĤÐ¸Ð¹Ð½
ĠÑħÐ°Ð¼ÑĤ Ð°Ð°ÑĢ
846 6
978 2
978 6
877 5
Ð³Ó©Ð½ Ð¸Ð¹
ĠÐ°Ð¶Ð¸Ð»Ð»Ð°Ð³ Ð°Ð°Ð³Ð°Ð°
Ð¶Ð¸Ð»ÑĤ Ð¸Ð¹Ð³
ÑĮÑĨ Ð°Ð»Ð´
ÑĤÐ°Ð» Ð¸Ð½
899 6
ĠÐ´Ð¾ÑĤ Ð¾Ð¾Ð´ÑĭÐ½
940 1
977 6
ic ation
868 4
ĠÑģÐ°Ð¹ Ð´ÑĭÐ½
ĠÑģÐ°Ð¹ ÑħÐ½Ñĭ
ĠÐĴ ÑĮÐµÑĤ
ĠÑħÒ¯Ð¼ Ò¯Ò¯ÑģÑĤ
ĠÓ©Ó©ÑĢÐ¸Ð¹Ð½ ÑħÓ©Ó©
ĠÑģÑįÑĤÐ³ ÑįÐ»Ð¸Ð¹Ð½
Ð³ÑįÐ» Ð´ÑįÑħ
Ð¾Ð± ÐµÑĢÑĤ
ĠÑģÑĥÑĥÑĢ Ð¸Ð¹Ð³
ĠÐ´Ð°Ð¼Ð¶ ÑĥÑĥÐ»Ð°Ð»ÑĤ
re am
ÑħÑĥÐ² Ð¸ÑĢ
ÑĶ Ð½
ÑĶ ÑĢ
ĠÒ¯Ð½ ÑįÐ¼
ĠÑģÐ¾Ð½ Ð¸Ð½Ñĭ
ĠÑħÑĥÑĥÐ» Ð¸Ð¹Ð½
ĠÑħÐ°Ð¼Ð°Ð°ÑĢ Ð½Ð°
ĠÐ·Ð¾ÑĢÐ¸ÑĥÐ» Ð°Ð³Ð´ÑģÐ°Ð½
ĠÐ´Ð°Ð» Ð°Ð¹
ĠÒ¯Ð½Ð´ÑįÑģ Ð»ÑįÐ½
ĠÐ¿ÑĢÐ¾ÑĨÐµÑģÑģ ÑĭÐ³
ĠÑįÑĢÐ³ ÑįÐ»ÑĤ
ĠÐ±Ò¯Ñģ ÑįÐ´
ĠÑĤÐ¾Ð³Ð»Ð¾Ð»ÑĤ Ð¾Ð¾
ĠÑĤÑĥÑĢ ÑĪÐ¸Ð»ÑĤ
Ð±Ð°Ð³ ÑĨ
Ð® Ð°Ð½ÑĮ
ĠÑĪÐ¸Ð³ ÑĪ
Ð¾Ð»ÑĮ ÑĦ
ĠÑıÑĢ ÑĥÑĥ
ĠÑıÑĢ Ð¸Ð»ÑĨ
ÑĥÑĥÐ»Ð°Ð³Ñĩ Ð¸Ð¹Ð½
ĠÐ¼Ð¾Ð´ Ð½Ñĭ
ĠÑħÓ©Ð» Ó©Ð³
ĠÐ´ÑįÐ¼Ð¶ Ð¸Ð¶
ĠÑħÐ°Ð½Ð´ Ð°Ð¶
ĠÐ±ÑĥÐ» ÑĪ
ĠÒ¯Ò¯ÑģÐ³ ÑįÑħ
ÑĤÐ¾Ð³ÑĤ Ð½
ÑĥÐº Ð»
Ð°Ñĩ Ð°Ð°Ð»
ĠÑĨÐ¾Ð¼ Ð³Ð¸Ð¹Ð½
ĠÐĲÑĢ Ð´ÑĭÐ½
ĠÐ°Ñı Ð»
ĠÑĪÐ¸Ð¹Ð´Ð²ÑįÑĢ Ð»ÑįÑħ
ĠW indows
ĠÑħÐ°Ð»Ð´ Ð»Ð°Ð³Ð°
Ð¢ÑįÐ³ Ð²ÑįÐ»
Ð´Ò¯ÑĢ Ñģ
ĠÑĤÐ°Ñģ Ð°Ð»Ð´
ÑħÓ©Ð³Ð¶ Ð¸Ð¼
Ð£ÑĢ ÑĤ
ÐĺÐ½Ð³ ÑįÐ¶
ĠÐ°Ð¼ÑĮÐ´ÑĢ Ð°Ð»Ð´
ÑĤÐ¾Ð³Ð» Ð¾Ð¾Ð¼
ĠÑħÐ¾Ð» Ð¸Ð¼Ð¾Ð³
ĠÑĥÑģÑĤ Ð³Ð°Ñħ
ĠÐ·Ò¯Ð³ ÑįÑįÑģ
ĠÑģÑĥÑĥ ÑģÐ°Ð½
ĠÐ¾ÑĢÐ´ Ð¾Ð½
ĠÐ¸Ð»ÑįÑĢÑħÐ¸Ð¹Ð» Ð¶
ĠÐ±ÑĥÐ´ Ð´ÑĭÐ½
ÑħÓ©Ð´Ó©Ð» Ð³Ó©Ó©Ð½
ĠÒ¯Ð½Ñį ÑĤÑįÐ¹
ĠÑĩÓ©Ð»Ó©Ó© ÑĤÑįÐ¹
ÐŀÐ¹ ÑĢ
ĠÑħÑįÑĢÑįÐ³Ð»ÑįÑį Ð½Ð¸Ð¹
ĠÑģÐ¿Ð¾ÑĢÑĤ ÑĭÐ½
ĠÐĲÐ· Ð¸
ÑĤÐ¾Ð¾ÑĨ Ð¾Ð¾Ð»
ĠÑħÑıÐ¼ ÑĢÐ°Ð»
ĠÐ·Ò¯ÑĤÐ³ ÑįÐ»ÑĤÑįÐ½
ĠÐ½Ð°ÑģÐ°Ð½ Ð´Ð°Ð°
ÐĲÐ¥ ÐĿ
ĠÑħÑĥÐ²Ð°Ð°ÑĢ Ð¸Ð»
ÑĢÐ°Ð»ÑĤ Ð³Ò¯Ð¹
ĠÐ´Ð¾Ð»Ð³ Ð¸Ð¾Ð½Ñĭ
ĠÐ´Ò¯Ð³Ð½ ÑįÐ»ÑĤ
ĠÑģÑĥÑĢÑĤÐ°Ð» ÑĩÐ¸Ð»
ĠÑĨÐ°Ð¹ Ð²Ð°ÑĢ
Ó¨Ð´ Ð³Ó©Ó©
ĠÑĤÐ¾Ð¹ ÑĢÐ¾Ð³
ÑįÐ»ÑįÐ½Ð³ Ñį
ĠÐ±Ð°Ðº ÑĤÐµÑĢ
Ð¸Ð¿Ð» Ð¾Ð¼Ð°ÑĤ
4 145
4 182
4 292
5 104
5 106
5 126
5 181
5 171
5 343
6 101
6 104
6 109
6 115
6 240
6 297
6 279
6 308
6 276
6 173
6 355
6 305
6 172
6 354
7 104
7 120
7 177
7 161
7 370
7 206
7 254
7 255
7 305
7 354
7 378
8 134
8 122
8 158
8 167
8 184
8 260
8 249
8 203
8 171
8 201
8 304
8 301
8 292
8 282
8 542
8 763
9 120
9 137
9 133
9 160
9 197
9 183
9 206
9 162
9 259
9 163
9 239
9 267
9 222
9 202
9 371
9 542
9 761
M icro
O R
P R
S A
S M
U S
l ic
q u
r y
u st
Ġ l
Ġ 27
Ð³ Ð¾Ð½Ñĭ
Ð³ ÑįÐ³Ñĩ
Ð³ Ò¯Ò¯Ð´ÑįÐ´
Ð» Ð¾ÑĢ
Ð» Ð°Ð°Ð´
ÑĢ Ð¸Ð½
ÑĢ ÑĥÑĥÐ»Ð¶
Ð¸ Ðµ
Ð´ Ð¾Ð¼
Ð´ ÐµÐ½
Ð´ ÑģÓ©Ð½
Ñĥ ÑıÐ½
Ñĥ ÑĩÐ¸ÑĢ
ÑĤ ÑįÐ»
ÑĤ ÑĥÑĥÐ»
Ñģ ÐµÐ½
Ñģ Ò¯Ð½
Ñħ Ð¾Ð¶
Ñħ ÑįÐ¼Ð¶
Ó© Ñĩ
Ð¼ ÑįÐ³Ð´
ĠÐ± Ð°Ð°Ð²
Ð°Ð½ Ð¸Ð´
ĠÑħ Ð¾Ð¾ÑģÐ¾Ð½
Ð¶ Ð»Ð¸Ð¹Ð½
36 90
Ð°Ð» ÑĥÑĥÐ´
ÑĥÑĥ Ð¶Ð¸Ð½
Ð¾Ð½ Ð³Ð¸Ð¹Ð½
Ñĩ ÑĥÑĥÐ´Ð°Ð´
Ñĩ Ò¯Ò¯Ð´ÑįÐ´
ĠÑĤ ÐµÐ°ÑĤ
ĠÐ½ Ð°ÑĢÑĤ
ĠÐ½ ÑįÐ¼Ð¶
46 20
48 50
47 36
49 90
49 87
Ò¯Ò¯ Ð¼
ÑįÐ³ ÑįÑįÑĢ
57 15
57 03
58 10
58 22
58 07
50 60
50 67
50 51
56 28
56 71
59 27
59 83
60 94
60 83
79 25
79 37
79 43
78 48
78 83
78 03
68 30
68 64
69 25
69 39
69 40
69 78
69 32
69 31
69 54
Ð¾ÑĢ ÑĨ
Ð¾ÑĢ Ð¾Ð¹
Ð± ÑĥÑĤ
70 36
70 46
70 76
70 54
70 95
70 72
70 92
ÑĨ Ð³Ð¸Ð¹Ð½
ÑĨ ÑįÑĢÑįÐ³
ÑĨ ÑįÑĢÑįÐ½
ÑįÐ» Ð³ÑįÑĢ
ĠÐ´ ÑĥÑĥÐ»ÑģÐ°Ð½
ĠÐ´ Ó©ÑĢÐ²
ĠÐ´ Ð¾Ð»Ð¾Ð¾Ð½
ĠÐ´ Ð¾ÐºÑĤÐ¾ÑĢ
98 10
98 50
98 79
98 90
98 99
98 65
98 81
ÑĪ ÑģÐ°Ð½
ÑĪ ÑģÑįÐ½
ÑĪ ÑĤÐ°Ð¹
Ð¸Ð» ÑĤÑĭÐ½
67 24
67 29
67 77
67 54
67 43
67 41
Ð· Ð³Ð¸Ð¹
90 14
90 33
90 05
90 07
90 81
ĠÐ³ Ò¯Ð¹
ĠÐ³ ÐµÑĢÐ¼Ð°Ð½Ñĭ
88 39
88 32
88 01
88 05
88 08
66 12
66 13
66 47
66 55
77 48
77 57
77 53
77 51
ĠÑģ Ð¾Ð½Ð³Ð¾Ð»
55 38
80 24
80 37
80 40
80 46
80 86
80 75
80 42
80 01
99 13
99 18
99 57
Ð¾Ð³ ÑĩÐ¸Ð¹Ð½
76 21
76 32
ÑĥÑĥÐ» Ð°Ð»
ÑĥÑĥÐ» Ð°Ð³Ð´ÑģÐ°Ð½
89 38
89 21
ĠÑĥ ÑħÐ°Ð¼
ÑģÐ°Ð½ Ð°Ð°
86 44
97 60
97 52
65 12
65 20
65 59
Ó©Ð³ ÑĩÐ¸Ð¹Ð½
ĠÐ¼ Ð°Ð»ÑĤ
ĠÐ¼ Ó©Ñħ
75 13
75 28
95 11
95 15
95 49
95 50
96 14
96 25
96 49
85 38
42 12
53 39
74 29
74 22
94 10
94 14
94 25
84 48
84 33
Ð¸ÑĢ Ð¶
ÐµÑĢ Ó©Ð½ÑħÐ¸Ð¹
Ð¥ Ð°Ð»Ñħ
73 13
ĠÒ¯ Ð³Ð¸Ð¹Ð½
93 18
93 27
83 27
ĠÑĪ ÑĥÑĥÑĢ
ÑĤÐ°Ð¹ Ð»Ð±Ð°ÑĢ
Ð¢ Ð¾Ð³ÑĤ
Ð¾Ð¼ Ð¾Ð»
92 14
Ð°ÑĤ ÑĤ
Ð°ÑĤ ÐµÐ½ÑĤ
Ðľ Ð£
Ð½Ñĭ Ð¹
Ðĳ ÑįÑħ
Ðĳ Ð°ÑıÑĢ
Ðĳ ÐĿÐľÐĲÐ£
ĠÑĨ Ð°ÑĢ
ĠÑĨ ÑįÑįÐ¶
ĠÑĨ Ð¾Ð»ÑĤÐ¾Ð¹
ÑģÑĤ Ð¾ÑĥÐ½
ĠÐ¾ÑĢ Ð½ÑĥÑĥÐ´Ð°Ð´
Ð»Ð°Ð³ ÑĩÐ¸Ð¹Ð½
ÐŃ Ñģ
ÐŃ Ð´Ð¸Ð¹Ð½
Ð¡ Ð¸Ð½
Ð¡ Ð°Ð¼
Ð¡ ÑĥÐ²
Ð¡ ÑĥÐ½
Ð¡ Ò¯Ð½
ÑįÑģ ÑįÑĢÐ³Ò¯Ò¯ÑĨ
ÐĿ ÑıÐ¼
ÐĶ Ð¾ÑĢÐ½Ð¾Ð´
Ð¾Ð½Ð³ Ð¾Ð¾ÑĢ
ĠÐ±Ò¯ Ð»Ð¸Ð¹Ð½
Ð¾ÑĤ Ð¾
Ñİ Ò¯
ÑĦ ÑĥÐ½ÐºÑĨ
Ð¾Ð¾ÑĢ Ð¾Ð¹
Ðļ Ð°Ñģ
Ð¾Ñģ Ð¾Ð¼
ĠÐº Ð¸Ð»
ĠÐº Ð°Ð±
Ð¸ÑĤ Ð¾ÑĢ
ĠÐ±Ð¸ ÐµÐ´
ĠÐ±Ð¸ Ð¾Ð»Ð¾Ð³Ð¸Ð¹Ð½
Ð°Ð³Ð´ Ð°Ð°Ð³Ò¯Ð¹
ĠÑĥÑĢ Ð³Ð°Ð´Ð°Ð³
ÑĥÐ¹ Ð²
ĠÐ¥ ÑĥÑĢ
Ð¾Ñĳ Ð½
ĠÐĲ Ñħ
ĠÐĲ ÑĦÑĢ
ĠÐĳ ÑįÑįÐ¶Ð¸Ð½
ĠÑĤÓ©ÑĢ Ñħ
ĠÐ¸Ñħ ÑįÑģ
Ð¸ÑģÑĤ Ð°Ð½
Ð¸ÑģÑĤ Ð°Ð½Ñĭ
ĠÑħÒ¯ÑĢ ÑįÑįÐ½Ð¸Ð¹
Ó¨ Ð¼Ð½
Ð°Ð¼Ð¶ Ð¸Ð¹Ð½
ĠÐ´Ð°ÑĢ Ð³Ð°Ð°ÑĢ
ĠÐ´Ð°ÑĢ Ð°Ð°Ð³Ð¸Ð¹Ð½
Ò® Ð»
ĠÐ¿ Ð°ÑĢ
ĠÒ¯Ð· Ð½Ñį
ĠÒ¯Ð· ÑįÐ³Ð´ÑįÐ»
ĠÐ½ÑįÑĢ ÑĤ
Ġ19 90
Ð°Ð½Ñħ Ð°Ð°ÑĢ
ĠÐ¼ÑįÐ´ Ð´ÑįÐ³
ÐĽ Ð°
ÐĽ Ñĥ
ÐĽ Ð¸Ð½
ĠÑıÐ² ÑĥÑĥÐ»ÑģÐ°Ð½
Ð¸Ð· Ð¸ÐºÐ¸Ð¹Ð½
ĠÐ±Ò¯ÑĤ ÑĨÐ¸Ð¹Ð½
ĠÐ°Ð» Ñħ
ĠÐ°Ð» ÑħÐ°Ð¼
ĠÑĤÐ°Ð» Ð±Ð°ÑĢ
ÑįÐ½Ð´ Ð¸Ð¹Ð½
ĠÑģÑĥÑĢ Ð³Ð°Ð»ÑĤÑĭÐ½
ĠÐĶ Ð°Ð»Ð°Ð¹
ÐµÐ¹ Ð¼
ĠÐļ Ð¾Ð½
on d
ÑĥÐ³ Ð°ÑĤ
Ð¤ ÐµÑĢ
ĠÓ©ÑĢ Ð³Ó©Ð¶
Ġ20 04
Ġ20 01
Ġ20 07
ĠÑħÑįÑģ Ð³Ò¯Ò¯Ð´
ĠÐ·Ð¾ÑħÐ¸ Ð¾ÑģÐ¾Ð½
ĠÐĵ Ð°Ð´Ð°Ð°Ð´
646 5
656 7
656 9
ÑĤÐ°Ð½ Ð°
759 7
ĠÑĤÐ¾Ð³ÑĤ Ð¾Ð¾Ð¶
ĠÑĨÐ°Ð³ Ð°Ð°Ñģ
ĠÑĩÐ°Ð´ Ð°Ð»
945 5
945 7
ĠÑĤÐ¾Ð¼ ÑĮÑĳ
558 7
558 8
ĠÐ½Ð°ÑĢ ÑĤÐ°Ð¹
970 3
969 2
ĠÐ³ÑįÐ´ÑįÐ³ ÑĤ
ĠÐ·Ð°ÑĢ Ð»Ð¸Ð³
890 7
ĠÐĿ Ò®Ðĳ
959 2
959 5
ĠÐŁ Ð°ÑĢ
859 9
ĠÐ³ÑįÑĢ Ð»Ð¸Ð¹Ð½
ĠÐ³ÑįÑĢ ÑįÐ»ÑĤ
838 1
670 6
640 3
839 6
769 3
957 8
850 1
ÑĪÐ¸Ð» ÑĤÐ°Ð¹
ĠÑįÑĢÑħ ÑįÐ¼
ÑĢÐ¸ Ð¿
748 4
748 7
757 2
870 6
649 2
879 7
ĠÐ·Ò¯Ð¹Ð» ÑģÐ¸Ð¹Ð³
ĠÑħÑĥÑĢ Ð°Ð»
ĠÑħÑĥÑĢ Ð°Ð»Ð´
678 3
547 6
947 8
938 0
938 4
ĠÑįÐ» Ð±ÑįÐ³
ĠÐ°Ð³ ÑĥÑĥÐ»Ð³Ð°
Ð¯ Ð½
ĠÑħÐ°Ð¼ÑĤ Ð´Ð°Ð°
ĠÑħÐ°Ð°Ð½ ÑĭÐ³
667 6
978 5
Ð¾ÑĨ Ð»Ð¾Ð»
767 6
Ð»Ð³ ÑĥÑĥ
ĠÑħÑįÐ² Ð¸Ð¹Ð½
ĠÒ¯Ð» Ð´ÑįÑħ
Ð¸Ð³Ð´ ÑģÐ¾Ð½
899 3
ĠÐ´Ð¾ÑĤ Ð¾ÑĢÑħ
ĠÑĤÓ©Ð² Ó©Ó©Ñģ
ĠÑħÐ¾ÑĢ ÑĤÐ¾Ð¹
977 1
ĠÐł Ð¾Ð¼
868 1
868 5
868 6
868 8
ĠÑįÐ¼ ÑĩÐ¸Ð»Ð³ÑįÑį
ĠÐµÑĢ Ð´Ð¸Ð¹Ð½
ĠÐ´ÑĥÑĢ Ñģ
ol l
ĠÑħÑįÐ»Ð±ÑįÑĢ ÑĤ
967 3
ĠÐ´Ò¯ÑĢ ÑįÐ¼
ĠÑģÑĥÑĥÑĢ Ð¸Ð»
ĠÑĤÒ¯ÑĢ Ò¯Ò¯Ð»ÑģÑįÐ½
ÑĶ Ð²
ĠÑħÐ°Ð´ Ð½Ñĭ
ĠÑħÒ¯Ð¼Ò¯Ò¯Ñģ Ð¸Ð¹Ð³
at a
ÐµÐ³ Ð¼ÐµÐ½ÑĤ
ĠÑĪÐ°Ð°ÑĢÐ´ Ð´Ð°Ð³
ĠÐ¿ÑĢÐ¾Ð³ÑĢÐ°Ð¼ ÑĭÐ½
ÑģÑĥÑĢ ÑĤÐ°Ð»
ÑĤÐ¾Ð¼ Ð¸Ð»
ĠÐ·Ð°ÑĢÐ¸Ð¼ Ð´Ð°Ð°
ĠÑģÒ¯Ð»Ð¶ÑįÑį Ð³
ĠÓ©Ó©ÑĢÑĩÐ» Ó©Ñħ
ÑĤÓ©ÑĢ Ó©Ð»
ĠÑħÐ°Ð» Ñħ
ÑĤÓ©Ð» Ó©Ð²
ÐµÑģÑĤ ÐµÑĢ
as h
ĠÑĤÐ¾Ð³Ð»Ð¾Ð»ÑĤ ÑĭÐ½
ĠÑĤÐ¾Ð³Ð»Ð¾Ð»ÑĤ Ð¾Ð´
ĠÑĤÓ©Ñģ Ó©Ð»
ĠÓ¨ Ð²Ó©ÑĢ
Ð´Ð°Ð² Ñħ
ĠÑıÑĢ Ð¸Ñħ
Ð¸ÑĥÐ´ ÑĭÐ½
ĠÐºÐ¾Ð¼ Ð¼ÑĥÐ½Ð¸ÑģÑĤ
ĠÑħÑĥÑĢÐ´ ÑĤÐ°Ð¹
ĠÑĤÐ¾Ð´Ð¾ÑĢÑħÐ¾Ð¹Ð» Ð´Ð¾Ð³
Ð·Ð¾ÑĢ Ð¸Ð»Ð³
ĠÑħÒ¯Ñģ ÑįÐ»ÑĤ
Ð»Ó©Ð³ ÑĩÐ¸Ð¹Ð½
ĠÑħÓ©Ð½ Ð´Ð¸Ð¹
ĠÑĤÐ°ÑĢÑħ Ð¸Ð½Ñĭ
ĠÐ½Ó©Ð»Ó©Ó©Ð» ÑģÓ©Ð½
ĠÐ¼ÑįÑĢÐ³ÑįÐ¶ Ð»ÑįÑįÑĢ
ÑģÐ°Ð¹ ÑħÐ°Ð½
ÑģÐ°Ð» Ð±Ð°ÑĢ
ĠÑįÑħÐ» ÑįÐ²
ĠÐ±Ò¯ÑĤÑįÑĨ ÑĤÑįÐ¹
ĠÐ½ÑįÐ¼ÑįÐ³Ð´ ÑįÐ¶
ĠÑĥÑĥ Ð³ÑĥÑĥÐ»
ÐĲÐ½Ñħ Ð½Ñĭ
ÑĤÒ¯ ÑĪ
ĠÐ¼ÑįÐ´ÑįÐ³ Ð´ÑįÑħ
ÐĿÐ°ÑĢ Ð½Ñĭ
Ó¨Ð² Ó©ÑĢ
ÐľÑįÐ´ÑįÑįÐ» ÑįÐ»
ĠÐ½Ò¯Ò¯ÑĢ Ñģ
ÑĤÑĥÑĢ ÑĪ
ex t
ĠÐ¸Ð»ÑįÑĢÑħÐ¸Ð¹Ð» Ð´ÑįÐ³
ĠÑĤÓ©Ð»Ó©Ð²Ð» Ó©Ð³Ó©Ó©
ĠÒ¯Ð½ÑįÐ» Ð³ÑįÑį
ĠÐ·Ó©ÑĢ ÑĩÐ¸Ð»
ĠÑħÓ©Ð´ Ó©Ó©
Ð¥Ð¾ÑĤ ÑĭÐ½
Ó©ÑĢÓ©Ð³ ÑĩÐ¸Ð¹Ð½
ĠÒ¯Ð½Ð´ÑįÑģÑĤ ÑįÐ½
ĠÒ¯Ð½Ð´ÑįÑģÑĤ Ð½Ð¸Ð¹
ĠÑħÑıÐ¼ Ð´
nter tainment
ĠÑıÐ°Ð¼ Ð½Ñĭ
ĠÐ·Ð°Ð»Ð³ Ð°Ð¼Ð¶
ĠÐ´Ð¾Ð»Ð³ Ð¸Ð¾Ð½
ĠÐ½ÑįÐ² ÑĤÑįÑĢ
ÑıÑģ Ð»Ð°Ð³
ĠÑıÑĢÐ¸ Ð°
Ð¯Ð» Ð°Ð½Ð³ÑĥÑıÐ°
Ð¸Ð½Ð°Ð¼ Ð¸Ðº
ÐĳÐĿÐ¥ Ð£
ÐµÑĩ ÐµÐ½
ĠÐ³Ð°Ð¹Ñħ Ð°Ð»ÑĤÐ°Ð¹
ĠÐ¡ÑĥÑĢ Ð³ÑĥÑĥÐ»
ÐŀÐ¿ ÐµÐ»
ÐĹÓ©Ð² ÑħÓ©Ð½
4 284
5 102
5 142
5 139
5 122
5 163
5 358
5 344
5 294
6 108
6 100
6 231
6 288
6 365
6 352
7 108
7 200
7 174
7 172
7 365
7 304
7 375
7 353
7 551
7 666
8 133
8 290
8 153
8 187
8 286
8 340
8 289
8 274
8 376
8 202
8 366
8 764
9 158
9 154
9 177
9 270
9 186
9 277
9 358
9 283
9 367
9 294
9 332
9 342
9 353
9 543
9 661
A n
C O
C on
D H
E x
H z
L AN
N C
O r
P A
c i
g e
i v
n ort
o v
o y
o ÑĢ
p h
r am
s oft
y n
Ġ 45
Ġ 300
Ġ Ð»Ð¾Ð³
Ġ Â°
Ġ Ð°ÐºÐ°Ð´ÐµÐ¼
Ġ ÑįÑĤÐ³ÑįÑįÐ´
Ð½ Ð¾ÑĤ
Ð½ ÑĥÑĥÐ´ÑĭÐ³
Ð½ ÑĥÑĤÐ³
Ñį Ð¿
Ñį ÑĦÑĦ
Ð³ Ð»
Ð» ÑįÐ²
Ð» ÑĥÑĥÐ´ÑĭÐ½
Ð¾ Ð¸Ð´
Ð¸ Ð¾ÑĤÐ¾Ð¹
Ð´ Ð°Ð¼
Ñĥ Ñĩ
Ñĥ Ð³Ð°
ÑĤ Ð¸Ðº
ÑĤ Ò¯Ð½
ÑĤ Ð¾Ð²Ñĩ
Ñģ Ð°Ð°
Ñģ Ò¯Ð¼
Ñģ Ò¯Ñħ
Ñģ Ð¿Ð¾ÑĢÑĤ
Ñħ v
Ñħ Ð¸Ð½
Ñħ ÑĥÑı
Ð¼ Ð¸Ð´
Ð¼ Ó©Ñħ
Ð¼ Ð°ÑĢÑĤ
Ð¼ Ð°ÑĤÐµÑĢÐ¸Ð°Ð»
ĠÐ± Ð¾Ð¾Ð¼ÑĤ
Ð°Ð½ ÑĭÐ½
ĠÑħ ÑįÑĢÐ³Ð¸Ð¹Ð½
ĠÑħ ÑĥÑĤÐ°Ð³ÑĤ
Ð¶ Ò¯Ò¯Ð»ÑģÑįÐ½
Ð² ÑįÑģ
Ð°Ð» Ð°Ð°Ñģ
ÑĥÑĥ ÑħÐ°Ð½
Ð°Ð³ ÑĤÐ°Ð½
Ð°Ð³ ÑĩÐ´ÑĭÐ½
Ñĩ Ð¸Ð³Ð»
Ñĩ Ò¯Ò¯Ð´Ð¸Ð¹Ð³
Ñĩ Ð¸Ð³Ð´
ĠÑĤ ÑĥÑĥÐ»
ĠÐ½ ÑĥÐ¼
ĠÐ½ Ò¯Ò¯Ð¶
ĠÐ½ Ð°Ð°Ð»Ð´
40 94
ÑĮ ÐµÐºÑĤ
48 23
48 65
48 82
47 86
49 98
49 64
57 36
57 38
57 50
56 85
56 82
59 97
ÑįÑĢ Ð¸Ð¹Ð½
60 24
79 13
78 20
78 28
78 29
78 60
78 02
78 52
68 18
68 35
68 78
68 70
68 89
69 23
69 38
69 22
69 43
69 53
Ð¾ÑĢ Ð¾Ñģ
Ð± Ð°Ñģ
Ð± Ð¸Ð·
70 48
ÑĨ Ð°Ñħ
ÑįÐ» ÐµÐ¼ÐµÐ½ÑĤ
ĠÐ´ Ð°Ð°
ĠÐ´ ÑĥÐ³
98 66
98 80
98 00
98 91
Ð¸Ð» Ð¸
67 26
67 39
67 48
67 32
Ð· ÑĥÑĥÑĢ
Ð· Ò¯ÑĤÐ³
ĠÐ±Ð°Ð¹ ÑĪÐ¸Ð½
90 34
90 45
90 68
90 97
90 03
90 09
90 06
Ð¸Ð½ Ñĩ
Ð°Ð¼ ÑĤÐ°Ð¹
88 20
88 23
88 30
88 36
88 70
88 66
77 18
77 23
77 45
77 69
ĠÑģ Ò¯Ð»Ð´
55 29
55 50
80 27
80 43
80 74
80 84
80 51
80 82
80 41
99 49
99 73
Ðº Ð¸Ð¹Ð³
Ðº Ð»ÑĥÐ±
ĠÐ· Ò¯
ĠÐ· ÑĥÑĥÑĢ
ĠÐ· Ð°Ð¹Ð½
Ó©ÑĢ Ó©Ð³Ñĩ
Ð¾Ð³ Ð¾Ð¾
76 19
76 29
76 54
ÑĥÑĥÐ» Ð³ÑĭÐ½
89 26
89 69
89 66
89 65
ĠÑĥ ÑıÐ»Ð´
86 55
86 52
86 41
97 30
97 42
87 13
87 36
87 55
64 13
64 11
65 13
65 28
65 45
ĠÐ¼ Ð°ÑĢÑĤ
75 58
75 50
95 40
96 11
96 57
85 13
85 27
Ñı Ð½Ñĭ
Ð°Ð² ÑħÐ°Ð½
74 20
94 35
84 11
63 15
63 17
Ó©Ð» Ð¶Ð¸Ð½
ÑįÐ¼ ÑįÐ»
Ð¥ Ó©Ð½
Ð¥ Ð°Ð°Ð½
Ð¥ Ò¯Ò¯Ñħ
73 15
73 39
52 23
ĠÒ¯ Ð½ÑįÑĤ
93 11
93 20
93 26
93 22
83 37
83 39
83 38
ĠÑĪ Ð¾ÑĢ
ĠÑĪ Ð°Ð½ÑĮÑİÐ¹
Ð¢ Ð°Ð²
Ð¢ Ò¯Ò¯Ñħ
Ð¢ ÑįÐ½Ð´
82 26
Ð½Ð¸Ð¹ ÑĨ
Ð¾Ñħ Ð¾Ð¹Ð½
Ð°Ñģ Ð»Ð°Ð³
Ð°Ñģ Ð½Ð°Ð°ÑĢ
ÑĥÐ» Ð¸ÑĢ
ÑĥÐ» Ð°Ð¼Ð¶
Ð¾Ð´ Ð¾Ð½
Ð¾Ð´ ÑİÑģ
Ó©Ó© ÑĤÑįÐ¹
Ðľ Ó©ÑĢ
Ðľ Ð¾ÑģÐºÐ²
91 10
Ðĳ ÑįÐ»
Ðĳ Ó©Ó©ÑĢ
Ðĳ ÐĿ
Ðĳ ÐµÐ»
Ðĳ Ò¯ÑĤ
Ðĳ Ð°Ð°ÑĤÐ°ÑĢ
ĠÑĨ Ð°Ð¹Ð·
ÐŃ ÑĢÑįÐ³
Ð¡ Ð°Ð¹Ð½
Ð°Ð°Ñģ ÑĤÐ°Ð¹
Ð¸Ð¼ Ð±
ÑģÐ¾Ð½ Ñģ
ĠÐ¾Ð½ Ð¾Ð»ÑĭÐ½
ÑĤÐ³ Ð¸Ð¹
ÑĤÐ³ Ð°Ð½
ÑĤÐ³ ÑįÐ³Ñĩ
ÐĿ Ó©Ð³Ó©Ó©
ÐĶ Ð°
ÐĶ ÑįÐ²
ÐĶ Ð¡
ÐĶ Ð¾ÑĤ
ÐĶ Ð¾ÑĢÐ¶
ÐĶ ÐĿÐ¥
Ð¾Ð½Ð³ Ð¾ÑĢ
ĠÐ±Ò¯ Ð´
ĠÐ±Ò¯ Ð»Ð³
Ðĵ Ñĥ
Ðĵ Ð¾ÑĢ
Ðĵ Ò¯Ð½
Ò¯Ð¹Ð» ÑĩÐ»
Ð£ ÑĢÐ°Ð½
ÑĦ Ð°
Ðļ Ð¸Ð¿
ÑĥÐ´ Ð°Ð¼Ð¶
Ð°Ð½Ð³ Ð¸
Ð°Ð½Ð³ Ð¸Ð´
ĠÐ°Ð¼ Ð°Ð½
ĠÐ°Ð¼ ÑĤÐ°Ð¹
ĠÑĥÑĢ ÑĥÑĥ
ÑĥÐ¹ Ð´
ĠÐ°Ð² Ð°Ð»ÑĤ
ĠÐ°Ð² Ð°Ð°Ð´
Ðŀ ÐĿ
Ðŀ Ð½Ð³
Ðŀ ÑĤÐ³Ð¾Ð½
ĠÐ¥ Ð¥Ðļ
ĠÑħÐ°ÑĢ Ð°Ð³Ð´Ð°Ñħ
ĠÐĲ Ðº
ĠÑħÑįÑĢÑįÐ³ Ð»ÑįÐ½Ñį
ĠÓ©Ó©ÑĢ Ó©Ó©ÑĢ
ĠÐĳ ÑĥÐ´
ĠÐ±Ð°Ð³ Ð°Ð¶
ĠÑħÑįÐ» ÑįÑħ
ÐµÑĤ Ð¸Ð¹Ð½
ĠÑħÑĥÐ² Ð¸Ð°ÑĢ
ĠÐ±Ð°ÑĢ Ð¸Ð»
ĠÐ´Ð°ÑĢ Ð°Ð»ÑĤ
Ð»ÑįÐ» ÑįÑįÑĢ
ÐĹ Ð°Ñħ
ÐĹ Ð°ÑģÐ³Ð¸Ð¹Ð½
ĠÐ¿ Ð¸ÑĢ
ÐµÐ» Ð¸
ÐµÐ» ÑĮÑģ
ĠÒ¯Ð· Ò¯Ò¯Ð»ÑįÑħ
ĠÒ¯Ð· Ð»Ð¸Ð¹Ð³
ĠÐ½ÑįÑĢ Ð¸Ð¹Ð½
ĠÐ½ÑįÑĢ Ð»ÑįÐ¶ÑįÑį
Ġ19 75
ÑĩÐ¸Ð» ÑģÓ©Ð½
Ð°Ðº Ð°
Ð°Ðº ÑĨ
ĠÐ¡ Ð°Ð½
ĠÑıÐ² Ð°Ð³Ð´Ð°Ð¶
ĠÑıÐ² Ð´Ð»ÑĭÐ½
Ð¦ Ð°Ð°ÑĪ
ĠÑįÑģ ÑįÑħÐ¸Ð¹Ð³
ĠÑģÑĥÑĢ Ð³
ĠÑĤÑĥÐ» Ð³Ð°ÑĢ
ĠÐĶ Ð¾ÑĢÐ½Ð¾Ð´
Ðł ÐĿÐ¥
ÐµÐ¹ Ñħ
ĠÐ±Ð°Ð¹Ñħ ÑĭÐ³
Ð¾Ð»ÑĨ Ð¾Ð¾Ð³
Ð³Ó© ÑģÓ©Ð½
ĠÐ±Ð¸Ñĩ Ð¸Ð³Ð´
Ġ20 14
ĠÑħÑįÑģ Ð³ÑįÑįÑĢ
ĠÑħÐ¾Ð»Ð± Ð¾Ð¾Ñģ
ĠÐ½Ð¸Ð¹ Ð»ÑįÐ³
ÐľÐ¾Ð½Ð³Ð¾Ð» Ð´
Ð³ÑįÑĢ ÑįÐ»ÑĤ
ĠÐĵ Ò¯ÑĢ
747 9
Ó©Ð³Ð´ Ð´Ó©Ð³
ĠÐ°ÑĪÐ¸Ð³Ð» Ð°ÑģÐ°Ð½
ĠÑĦ ÐµÑĢÐ¼ÐµÐ½ÑĤ
778 6
ÑħÐ°ÑĢ Ð¸ÑĥÐ»
ÑħÐ°ÑĢ ÑĮÑı
ÑįÑĨ ÑįÐ½
659 6
679 2
an t
ĠÑĤÑįÐ¼ Ð´
556 6
ĠÐ·ÑįÑĢÑįÐ³ ÑĤ
ĠÐ·ÑįÑĢÑįÐ³ ÑĨÑįÑį
ĠÐ¼Ó©Ð½ Ñħ
750 6
Ð²Ð°Ð½ ÑĤ
ĠÑĥÐ´ Ð°Ð°Ð³Ð°Ð°
ĠÐ·Ð¾ÑĢ Ð¸Ð³
ĠÑĩÐ°Ð´ Ð°Ñħ
657 7
638 4
668 9
746 4
758 2
ĠÓ©Ð¼ Ñģ
856 7
898 7
ĠÑĤÓ©Ð» Ð±Ó©ÑĢ
960 6
ĠÐŀ Ð»
ĠÐ·ÑĥÑĢ Ð²Ð°Ñģ
839 1
957 6
850 6
749 0
749 5
958 0
958 4
ĠÑįÑĢÑħ Ð»ÑįÐ³Ñĩ
ĠÐ±Ð°Ð¹ÑĢ Ð°Ð½Ð´
ĠÐ±Ð°Ð¹ÑĢ Ð»Ð°ÑģÐ°Ð½
ĠÐ±Ð°Ð¹ÑĢ Ð»Ð°Ð½Ð°
748 2
757 7
649 3
840 6
ĠÐĺ ÑģÐ¿
547 8
939 3
939 6
938 7
938 9
867 2
847 5
846 7
ÐµÐ´ Ð¸ÑĨ
767 2
ĠÐ±Ò¯Ñħ ÑįÐ½
ĠÐŃ Ð¼
990 2
990 4
ĠÐ¾ÑĢÐ¾Ð»ÑĨ Ð¾Ñħ
940 3
940 5
940 6
ĠÑģÐ°Ð» Ð±Ð°ÑĢÑĭÐ½
868 0
ĠÐ¨ Ð¸Ð»
Ð±Ð¾Ð» Ð¾Ð¼Ð¶
Ð³Ð°Ð¶ ÑįÑį
ĠÐ±Ð¸Ðµ ÑĤÑįÐ¹
ĠÐµÑĢ Ð´Ó©Ó©
ĠÐ´ÑĥÑĢ ÑĤÐ°Ð¹
ĠÑħÑįÑĢÑįÐ³Ð»ÑįÐ³ Ð´ÑįÑħ
967 2
ĠÐ¾Ð´ Ð¾Ð¾Ð³Ð¾Ð¾ÑĢ
Ð±Ð°Ð° Ð²
ĠÑħÐ°Ð½Ð³ Ð°Ð´Ð°Ð³
ÐŃÑĢ Ñħ
ÐŃÑĢ ÑĤÐ½Ð¸Ð¹
ĠÑħÐ°Ð¼Ð³Ð°Ð°Ð» Ð¶
ĠÑħÐ°Ð¼Ð³Ð°Ð°Ð» Ð°Ð»ÑĤ
at h
ÐµÐ³ Ð¸ÑģÑĤÑĢ
Ð³Ð°Ð°Ð³ Ò¯Ð¹
ĠÑħÒ¯Ð½Ð´ ÑįÑĤÐ³
is co
ĠÐ±Ò¯ÑĤÑįÑįÐ» Ò¯Ò¯Ð´
Ð´Ð°ÑĢ Ð°Ð°Ð»
ĠÐ±ÑįÐ» ÑĤÐ³ÑįÐ¶
ÑħÐ¾ÑĢ Ð¸Ð³Ð»
Ð¼ÑįÐ´ ÑĢ
ĠÐ¾ ÑĦ
Ð°Ð¼Ð± Ð¾Ð¶
ĠÑĤÐ°Ð»Ð°Ð°ÑĢ Ð°Ð°
ÑģÑĥÑĢ Ð²Ð°Ð»Ð¶
ÑģÑĥÑĢ Ð³ÑĥÑĥÐ»ÑĮ
ĠÑħÓ©Ð´Ó©Ð» Ð¼Ó©ÑĢ
ĠÑħÐ¸Ð¹Ñħ ÑįÐ´
ĠÑħÐ°Ð¼Ð°Ð°ÑĢ Ð°Ñħ
ĠÑĥÑĢÑĤ ÑĤÐ°Ð¹
Ð°Ð°Ñħ Ð°Ð´
ĠÐ·Ð¾ÑĢÐ¸ÑĥÐ» Ð°Ð»ÑĤÑĤÐ°Ð¹
Ó©ÑħÓ©Ó©ÑĢ Ó©Ð¼
ĠÐ½Ó©Ñħ Ó©ÑĢ
ĠÑħÐ°Ñı Ð¶
ĠÐ±Ð¾Ð»Ð¾Ð²ÑģÑĢ Ð¾Ð»
ĠÑĤÐ¾Ð³Ð»Ð¾Ð»ÑĤ Ð¾Ð½Ð´
ĠÑĤÓ©Ñģ Ó©Ð²
ĠÑĤÐ°ÑĢ Ð¸Ð°
Ð¸ÑĨ ÐµÑĢ
Ð´Ð°Ð² ÑħÐ°ÑĢ
Ð±Ò¯ÑĤ ÑįÑĨ
Ð¸Ð¾Ð½ Ð°Ð»
ÑıÐ² ÑĨ
Ð¼Ð°Ð³ ÑĨ
ĠÑħÒ¯Ò¯Ñħ Ð´Ð¸Ð¹Ð½
ÐĶÑįÐ» Ð³ÑįÑĢ
ĠÐ³Ð°Ð·ÑĢ Ð°Ð°Ñģ
ĠÑħÐ¾Ð»Ð±Ð¾Ð³Ð´ Ð¾Ð»ÑĤÐ¾Ð¹
ir l
ir st
ÐľÐ°ÑĢ Ðº
ĠÑĤÐ¾ÑħÐ¸ÑĢ Ð¾Ð¼Ð¶ÑĤÐ¾Ð¹
ÐĲÐ² ÑģÑĤÑĢÐ°Ð»
ĠÑĥÑĥÑĢ Ð°Ð³
ĠÑĪÐ¸ÑĢ Ò¯Ò¯Ð½
ĠÑĤÐ¾Ð´Ð¾ÑĢÑħÐ¾Ð¹Ð» Ð¶
ĠÐ±ÑĥÑĨ Ð°Ð¶
Ð·Ð¾ÑħÐ¸ Ð¾Ð»
ĠÑģÑįÑĢÐ³ ÑįÑįÐ½
ĠÐ·Ó©Ð²ÑĪÓ©Ó©ÑĢ ÑģÓ©Ð½
ĠÐ±ÑĥÑĢ ÑħÐ°Ð½
ÐµÐ¿ Ð°ÑĤ
ĠÐ¾ÑĢÑĩ Ð¼ÑĭÐ½
ĠÐ½Ó©Ð»Ó©Ó©Ð» Ó©Ñħ
ĠÐ½Ó©Ð»Ó©Ó©Ð» Ð´Ó©Ð³
ĠÐ¼ÑįÑĢÐ³ÑįÐ¶ Ð¸Ð»
ĠÑĤÑĥÑĢÑĪ Ð¸Ð´
ĠÑįÐ·ÑįÐ» ÑģÑįÐ½
ÑģÐ°Ð¹ Ð¶ÑĢ
Ð¢ÑįÐ³ ÑįÑįÐ´
ĠÑħÒ¯ÑĢÐ³ ÑįÑģÑįÐ½
ĠÐ·Ð°Ð¹ ÑĤÐ°Ð¹
ĠÑħÐ¸Ð¹Ð³ ÑįÑįÐ´
ÐĳÐ°Ð¹ Ð³Ð°Ð»
ÑħÓ© ÑĤ
ĠÐ¸Ð»Ð³ÑįÑį Ð¶
ĠÐ°ÑĤ Ð¾Ð¼
ĠÑįÑĢÑįÐ³ ÑĤÑįÐ¹
ĠÑĪÐ°Ð»Ð³Ð°ÑĢ ÑĥÑĥÐ»Ð°Ñħ
ÐĵÑĢ ÐµÐº
ĠÐ±Ð¾Ð´Ð¸Ñģ ÑĭÐ½
ĠÑįÐ»Ñģ ÑģÑįÐ½
ÑħÑĥ Ð³Ð°ÑĨ
Ð¼Ð¸Ð½ Ð¸ÑģÑĤÑĢ
ĠÐ¾Ñĩ ÑģÐ¾Ð½
ĠÑĨÐ°Ð°ÑĪ Ð¸Ð´
ĠÐ°Ð¶Ð¸Ð»Ð» ÑĥÑĥÐ»Ð°Ñħ
ĠÐ¾Ð»Ð´ ÑģÐ¾Ð½
ĠÐ±Ò¯ÑĤÑįÑįÐ³Ð´ÑįÑħ Ò¯Ò¯Ð½Ð¸Ð¹Ð³
Ð°Ð»Ð¼ Ð°Ð¹ÑĤ
Ó©Ó©ÑĢÑĩÐ» Ó©Ð»ÑĤ
ĠÑģÐ°Ð¼ Ð±Ð°ÑĢ
Ð»Ð°ÑĤ ÑĦÐ¾ÑĢÐ¼
ĠÐ³Ð°Ð² ÑĮÑı
ĠÐ¼Ð°Ð³Ð°Ð´ Ð³Ò¯Ð¹
ĠÑĤÑĥÐ»Ð³ÑĥÑĥÑĢ Ð»Ð°Ð½
ĠÑĤÐ°ÑĢÐ¸Ð°Ð» Ð°Ð½
ĠÐ³Ò¯ÑĢ Ð½Ð¸Ð¹
ĠÑĤÒ¯ÑĪ Ð¼ÑįÐ»
Ð¡Ò¯Ò¯Ð» Ð¸Ð¹Ð½
ĠÑĩÐ¸Ð½ ÑįÑį
ĠÐ´Ð¾ÑħÐ¸ Ð¾
ĠÐ³ÑįÐ³ ÑįÑįÐ½
ĠÐ·Ð°Ð¹Ð» ÑĪÐ³Ò¯Ð¹
ĠÐ¼Ð°Ñı Ð³Ð°Ð°ÑĢ
ĠÐ±Ð¾Ð»ÑģÐ½ Ð¾Ð¾ÑĢ
Ð£Ð´ Ð¸ÑĢÐ´
Ò®Ð½ ÑįÐ½
ĠÐ¼Ð°ÑĤÐµÐ¼ Ð°ÑĤÐ¸Ðº
ĠÐ±Ð°Ð³ÑĤÐ°Ð° Ð¼Ð¶
ĠÐ·Ó©Ó©Ð» Ó©Ð½
ÐĿÐ¸Ð¹Ð³ Ð¼Ð¸Ð¹Ð½
ĠÐ°Ð»Ð´Ð°ÑĢÑĪ ÑģÐ°Ð½
Ò¯ÑĢÐ³ÑįÐ» Ð¶
ÐºÑģÐ¿ ÐµÐ´Ð¸ÑĨ
ÑģÑĤÐ¸ÑĤ ÑĥÑĤ
ĠÑįÐ½ÐµÑĢ Ð³Ð¸Ð¹Ð½
ĠÑģÑĤÐ°Ð½ ÑĨ
Ð¼Ð¸Ð½Ð¸ÑģÑĤÑĢ Ð°ÑĤÐ¾ÑĢ
5 252
5 253
5 273
6 178
6 185
6 237
6 248
6 304
6 284
6 282
6 441
7 119
7 169
7 187
7 289
7 203
7 281
7 373
7 663
8 102
8 103
8 105
8 106
8 115
8 188
8 185
8 269
8 443
9 200
9 205
9 231
9 173
9 368
9 172
9 263
9 191
9 369
9 271
A l
D I
P N
P rotocol
Q R
a z
c ri
e e
e ed
e le
g le
h y
i f
p or
p ut
u d
y st
Ġ a
Ġ Ó©Ó©Ð´
Ġ Ð¾Ð¿
Ð° ÑĥÑĤ
Ð½ ÑįÐ²
Ð½ Ò¯Ð´
Ð³ Ð¾Ð´
Ð³ ÐµÐ½
Ð³ Ò¯Ò¯Ð´Ð¸Ð¹Ð³
Ð» Ò¯Ò¯Ð´
Ð» Ð¾Ð¾ÑĢ
Ð» Ð¾Ð¶
Ð» Ð¾ÑģÐ¾Ð½
ÑĢ Ð°Ð¹
Ð´ ÑĥÑĥÐ½
Ð´ Ð¸Ð·Ð¼
Ð´ Ð°ÑģÐ³Ð°Ð»
Ò¯ Ð¶Ð¸Ð½
ÑĤ ÑĥÑĥ
ÑĤ ÑįÐ³
ÑĤ Ð¸Ð»
ÑĤ Ð°Ð¶
ÑĤ Ð¾Ñħ
ÑĤ ÑįÐ¶
ÑĤ ÑĥÐ¹
ÑĤ Ó©Ð²Ð»Ó©ÑĢ
Ñģ Ó©Ó©ÑĢ
Ñģ Ð¾ÑĳÐ»
Ñħ ÑĥÑĥ
Ñħ ÑįÑĢÐ³
Ñħ Ð¾ÑħÐ¸ÑĢ
Ñħ ÑıÐ»
Ð¼ Ð¸Ðº
Ð¼ Ð°Ð³ÑĤ
ĠÐ± v
ĠÐ± ÑĥÑĥÐ¶
ĠÑħ Ð¾
ĠÑħ Ð¸ÑĢ
Ð¶ ÐµÐ»
Ð¶ Ò¯Ò¯Ð»Ð´ÑįÐ³
Ð¾Ð½ Ð¾Ð»
Ð¾Ð½ ÑĮ
Ð¾Ð½ Ð¸Ðº
ĠÑĤ Ó©Ð¼
ĠÐ½ ÑįÐ½
ĠÐ½ Ò¯Ñħ
ĠÐ½ Ó©Ó©ÑĨÐ¸Ð¹Ð½
ÑĮ ÑĦ
48 29
49 10
49 28
49 41
49 00
Ò¯Ò¯ Ð³ÑįÑįÑĢ
57 26
58 40
50 23
50 62
56 11
56 55
56 94
59 75
59 63
79 96
78 45
78 94
68 59
68 02
68 01
69 26
69 77
69 72
Ð¾ÑĢ Ð¶Ð¸Ð¹Ð½
Ð± ÐµÑĢÑĤ
70 13
70 20
70 17
70 21
70 96
ĠÐ´ Ð¸
ĠÐ´ ÑįÑįÐ³
98 25
ÑĪ ÑĢ
ÑĪ Ð½ÑįÑįÑģ
Ð¸Ð» Ð³ÑįÑį
67 46
Ð· Ðµ
Ð· Ð°Ð°
Ð· ÑįÐ¼
Ð· Ð°Ð½Ð´
Ð· Ð°Ð³Ð°
Ð· Ð°Ð³Ð°Ñģ
90 19
ĠÐ³ Ð¾Ð²Ð¸Ð¹Ð½
Ð¸Ð½ ÑĭÐ³
Ð°Ð¼ Ð¸
88 50
88 77
88 55
88 65
66 39
66 79
77 13
ĠÑģ Ð¾ÑĢ
ĠÑģ ÑħÐµÐ¼
55 43
55 42
80 20
80 23
80 39
80 89
80 96
80 85
99 46
99 44
Ðº Ð°ÑĤ
ĠÐ· ÑĥÐ·Ð°Ð°Ð½
Ð¾Ð³ Ò¯Ð¹
76 70
89 11
89 23
89 43
89 73
ĠÑĥ Ð½Ð´
Ð°Ð´ Ð°
Ð°Ð´ ÑĭÐ³
86 67
97 15
87 78
64 12
64 18
64 47
65 10
ĠÐ¼ Ð°ÑıÐ³
75 33
75 44
96 16
96 21
85 20
85 40
Ñı Ð°
94 13
94 20
94 34
84 38
Ó©Ð» ÑĤÑįÐ¹
Ð¸ÑĢ Ð¸
ÑįÐ¼ Ð¸Ð¹Ð½
Ð¥ Ð°Ð¹
Ð¥ ÑĥÑĥÐ´
Ð¥ Ñı
Ð¥ Ð°Ð»Ð´
Ð¥ Ð°Ð½Ð³
Ð¥ Ð¾Ð¾Ð»
Ð¥ ÑĢÐ¸ÑģÑĤ
73 12
52 10
93 19
93 30
83 20
Ð°Ð¶ ÑįÑį
ĠÑĪ Ð¸Ð´
ĠÑĪ Ò¯Ð»
Ð¢ Ð°ÑĢÐ²
72 16
Ð¾Ñħ ÑĭÐ½
Ð¾Ñħ Ð¸ÑĢÐ´
Ò¯Ò¯Ð» ÑĤ
ÐĲ Ðľ
ÐĲ ÑģÑĤ
Ðľ Ð¸ÑĪ
ĠÑĨ Ð¾ÑħÐ¸
ĠÑĨ ÑĥÑĤÐ³
ĠÐ¾ÑĢ Ð¾Ð»ÑĤ
ĠÐ¾ÑĢ Ð¾Ð»Ð´ÑģÐ¾Ð½
Ð¡ Ð¸
Ð¡ ÑĥÑĥÑĢ
Ð½Ð° Ð°Ð»Ð´
Ð¸Ð¼ ÑĭÐ½
Ð¸Ð´ ÐµÑĢÐ»
ĠÐ¾Ð½ ÑĥÑĥÐ´Ð°Ð´
ÐĿ ÑĥÑĥÑĨ
ÐĿ Ð¾Ð³Ð¾Ð¾Ð½
Ð¸Ñħ Ð°Ð´
ÐĶ Ð°Ð¹
ÐĶ Ð°Ð³
ÐĶ Ó©ÑĢÐ²Ó©Ð½
ÐĶ ÐĲÐ¨Ð¢
Ð¾Ð½Ð³ Ð¾ÑĨ
Ð¾ÑĤ ÑĤ
Ð°ÑĪ Ðº
Ñİ Ð¹
Ðĵ ÑįÐ»
Ð»ÑįÐ³ Ð¸Ð¹Ð³
Ð£ Ð¹Ð³ÑĥÑĢ
ÑĦ Ð¸Ð½
Ðļ Ð¾Ð»
Ðļ Ð°ÑĢÑĤ
Ðļ Ð¸Ð½Ð¾
Ðļ Ð°ÑĢÐ»
Ðļ Ð¾ÑģÐ¾Ð²
ÑĥÐ´ Ð¸ÑĢ
ĠÑħÐ°Ð¼ Ð°ÑĢÑģÐ°Ð½
Ð½Ñį ÑĤÐ¸Ð¹Ð½
ĠÐº Ð°Ð¼ÐµÑĢ
ĠÐ¶ Ð¾Ð»Ð¾Ð¾
Ð¸ÑĤ Ð¾Ð¹
Ðĺ ÑĤÐ°Ð»
Ðĺ ÑģÐ¿
ÑĥÑĤ ÐµÑĢ
ĠÐľ Ð¾Ð½
Ó©Ð´ Ó©Ó©
ĠÐ°Ð¼ ÐµÑĢ
ĠÑĥÑĢ Ð°Ð»Ð´Ð°Ð°Ð½
ĠÐ°Ð² Ð½Ð°
ĠÐ¥ Ð¾ÑĢ
ĠÐ¥ Ó©Ð´Ó©Ð»
ĠÐ¥ ÑĢÐ¸ÑģÑĤ
Ð³Ð°Ð» Ð·Ð°Ñħ
ĠÑĥÐ»Ñģ ÑĥÑĥÐ´
ÐµÐ¼ Ð¾Ðº
ĠÑħÑįÑĢÑįÐ³ Ñģ
ĠÑįÑĢ Ð¸Ð½
ĠÑįÑĢ ÑįÐ¼
ĠÑħÑįÐ» ÑģÑįÐ½
ĠÑħÑįÐ» Ð´ÑįÐ³
Ó¨ Ð»Ð·Ð¸Ð¹
Ð°Ð¼Ð¶ Ð¸Ð»
ĠÐ´Ð°ÑĢ Ð¶
Ð»ÑįÐ» ÑĤÑįÐ¹
Ð»ÑįÐ» ÑįÑįÑģ
Ð»ÑįÐ» ÑĤÐ¸Ð¹Ð½
Ð¨ ÑĥÑĥÐ´
Ð¨ Ð¸Ð²
ÐµÐ» Ð¸Ð¹Ð³
ĠÐ±Ò¯ÑĢ ÑĤÐ³
ĠÐ±Ò¯ÑĢ Ð´Ð´ÑįÐ³
Ġ19 93
Ð´Ð» Ð°Ð°ÑĢ
Ð´Ð» Ò¯Ò¯Ð´
ÑĥÐ¼ Ð±
Ðĸ Ð°ÑĢÐ³Ð°Ð»
ĠÑħÐ¸Ð¹ Ð¶ÑįÑį
Ð¸Ð³Ð» ÑįÐ½
ĠÐ±Ð°Ð¹Ð³ÑĥÑĥÐ» Ð°Ð²
ĠÐ¼ÑįÐ´ ÑįÐ»
ĠÐ¼ÑįÐ´ Ð½Ñį
ĠÑıÐ² Ð°Ð³Ð´Ð´Ð°Ð³
Ð»Ð¾Ð³ ÑĭÐ³
ĠÐ¢ Ð¾Ð¼
ĠÐ¢ Ó©Ð¼Ó©ÑĢ
ÑįÐ»ÑĤ ÑĤÑįÐ¹
ĠÑĤÐ°Ð» ÑĤÐ°Ð¹
Ð¦ ÑįÑĨ
ĠÑįÑģ ÑįÑħ
ĠÑģÑĥÑĢ Ð³Ð°Ð»ÑĤ
ĠÑħÒ¯Ð½ Ñģ
ĠÑħÒ¯Ð½ ÑįÑįÑģ
ĠÐĶ ÑĥÐ½Ð´
Ð§ ÑĥÐ»ÑĥÑĥÐ½
ĠÐļ Ð¾Ð¼
ĠÐ±Ð°Ð¹Ñħ Ð°Ð°ÑĢ
on e
ĠÓ©ÑĢ Ñħ
ĠÐ±Ð¸Ñĩ Ð´ÑįÐ³
ĠÐ±Ð¸Ñĩ Ð³Ð¸Ð¹Ð³
Ġ20 16
Ġ20 02
ĠÐ°Ð½Ñħ Ð´Ð°Ð³Ñĩ
546 8
ĠÐ±ÑĥÑģ Ð´Ð°Ð´
778 9
ĠÑħÐ¾ÑĤ Ð¾Ð¾Ñģ
ĠÑĤÐ¾Ð´ ÑĢ
550 9
660 8
ÑįÑĨ Ð¸Ð¹Ð½
Ð±Ð°Ð¹ Ñħ
658 9
ĠÐ£ ÑĢ
768 6
ĠÑĤÐ¾Ð³ÑĤ Ð¾Ð»ÑĨÐ¾Ð¾
638 6
668 5
ĠÑħÓ©Ð³Ð¶ Ò¯Ò¯Ð»ÑįÑħ
745 0
970 8
en d
en s
639 2
950 7
898 4
898 6
ĠÐĿ Ð°Ð¼
ÑĢÐ°Ð¼ Ð¼
ar k
ĠÒ¯Ò¯Ñģ Ñĩ
859 1
859 2
859 7
838 5
838 7
670 7
960 2
ĠÐŀ Ð¥Ð£
ĠÐ·ÑĥÑĢ Ð°Ð°Ñĩ
669 0
878 0
878 2
878 6
749 7
ĠÐ±Ð¾Ð´ Ð²Ð¾Ð»
ÑĪÐ¸Ð» ÑĤÑįÐ¹
ĠÑıÐ» Ð¶
ĠÐ±Ð°Ð¹ÑĢ Ð»Ð°Ð¶
870 9
547 3
947 4
ĠÐ² Ð¸Ð´
ĠÐĹ Ó©Ð²Ð»
ĠÐĹ Ó©Ð²Ð»Ó©Ð»ÑĤ
847 6
ĠÑħÐ°Ð°Ð½ Ð°
978 9
ĠÐ´Ð°Ð² Ñģ
ĠÐ´Ð°Ð² Ð°Ð¼Ð³Ð°Ð¹Ð»
ĠÑħÑįÐ² Ð»ÑįÑħ
ÑģÐ½Ñĭ ÑħÐ°Ð°
Ð¸Ð³Ð´ Ð´Ð°Ð³
990 7
Ð²Ð°Ð» Ð¶Ð¸Ð»
940 7
ĠÑħÐ¾ÑĢ Ð¾Ð¾
ĠÐ´ÑĥÐ½Ð´ ÑĭÐ½
ĠÐ´ÑĥÐ½Ð´ Ð¶Ð°Ð°ÑĢ
ĠÓ©Ð½Ð´Ó©ÑĢ ÑĤÑįÐ¹
ĠÓ©Ð² Ð»Ð¸Ð¹Ð½
ĠÑĪÐ¸Ð½Ñį ÑĩÐ»
ĠÐĴ Ð°Ð½
ĠÑħÐ¾Ð¾ÑĢÐ¾Ð½Ð´ Ð¾Ñħ
Ò¯Ð½Ð´ ÑįÑģÐ½Ð¸Ð¹
Ð°Ð¿ Ð¿
ĠÐ´ÑĥÑĢ Ð´
ĠÑħÑįÑĢÑįÐ³Ð»ÑįÐ³ Ð´ÑįÐ¶
967 7
ĠÐ´Ò¯ÑĢ ÑģÑįÐ»
ÑĪÐ¸Ð³ ÑĤÐ°Ð¹
ac t
ĠÑĥÐ´Ð¸ÑĢÐ´ ÑģÐ°Ð½
ĠÑĥÐ´Ð¸ÑĢÐ´ ÑĥÑĥÐ»ÑģÐ°Ð½
ĠÐ°Ñħ Ð¼Ð°Ð´
ĠÑĤÒ¯ÑĢ ÑįÐ³
ÑħÑĥÐ² Ð°
ĠÒ¯Ð½ ÑįÐ³
is h
ĠÐ±Ò¯ÑĤÑįÑįÐ» Ð¸Ð¹Ð³
ĠÑĤÑįÐ¼Ð´ÑįÐ³ Ð»ÑįÐ³
ĠÑĤÑįÐ¼Ð´ÑįÐ³ Ð»ÑįÑģÑįÐ½
ĠÐ±ÑįÐ» ÑįÐ³
ÑħÑįÑĢÑįÐ³ Ð»
Ð½Ð¸Ð¹Ð³ ÑįÐ¼
ĠÐ±Ð°Ð³ÑĤ ÑģÐ°Ð½
ÑħÒ¯ ÑĩÐ¸Ð½
ĠP rotocol
Ð¼Ó©ÑĢ Ó©Ð½
ĠÑĥÐ½ ÑĪÐ¸Ñħ
ĠÑĤÐ°ÑĤ Ð³Ð°Ð»Ð·
ĠÑħÐ°Ñı Ð³Ð¸Ð¹Ð½
ĠÑĤÐ¾ÑħÐ¸Ð¾Ð»Ð´ Ð´Ð¾Ð³
ĠÐ±Ð¾Ð»Ð¾Ð²ÑģÑĢ Ð¾Ð»ÑĭÐ½
ÑħÑĥÑĢ Ð¸Ð¼ÑĤ
Ð±Ð°Ð³ Ð°Ñģ
ĠÐ³Ð¸ÑĪ Ò¯Ò¯Ð´
Ð±Ò¯ÑĢ Ð´
Ð·Ð°ÑĢ ÑĨ
ĠÐ°Ð´Ð¸Ð» Ð°Ð°ÑĢ
ĠÑıÑĢ ÑĮÐ¶
ĠÐ½Ð°Ð¹ÑĢ ÑĥÑĥÐ»Ð°Ð³Ñĩ
ÑįÐ½ÑĤ Ð¸Ð¹
ĠÑħÐ°Ð½Ð´ Ð°Ñħ
ÐµÐ· Ð¸Ð¹Ð½
ĠÐ±Ð°Ð¹ÑģÐ½ Ð°Ð°
ĠÐ¸ÑħÑįÐ½Ñħ Ð´ÑįÑį
ĠÐ·Ó©Ð²ÑĪÓ©Ó©ÑĢ Ð´Ó©Ð³
ĠÑĤÐ¾Ð»Ð³Ð¾Ð¹ Ð³
lo b
ĠÑĩÐ°Ð´Ð²Ð°ÑĢ ÑĭÐ³
Ð±Ð°ÑĤ Ð°Ð»Ð³Ð°Ð°Ð¶
ĠÑħÑıÐ·Ð³Ð°Ð°ÑĢ Ð»Ð°Ð³Ð´
ĠÒ¯Ð¹Ð»ÑĩÐ¸Ð»Ð³ÑįÑį Ð½Ð¸Ð¹
ĠÐ´Ð°Ð¹Ð½ ÑĭÐ³
ÑģÐ³Ó©Ð» Ó©Ð½
ĠÐºÐ¸Ð½ Ð¾Ð½Ð´
id ae
ĠÐ½Ð°Ð°Ð´ Ð¼ÑĭÐ½
ĠÓ©Ó©ÑĢÑĩÐ»Ó©Ð»ÑĤ Ð¸Ð¹Ð³
ĠÐ±Ð¸Ð´ Ð½Ð¸Ð¹
ÑĤÐ°Ð° Ð¼Ð°Ð³
ÐľÐ°Ð½ Ð°Ð¹
ÐľÐ°Ð½ Ð¶Ð¸Ð¹Ð½
Ð´ÑįÐ² ÑĪ
ÐĲÐ¹ Ð¼Ð³Ð¸Ð¹Ð½
ĠÑıÐ½Ð· ÑĭÐ½
ĠÐ¼ÑįÐ´ÑįÐ³ Ð´ÑįÐ¶
ÐºÐ¾Ð¼ Ð°Ð½Ð´
ĠÑĤÐ°Ð»Ð±Ð°Ð¹ Ð´
ĠÐ¼ÑįÐ´ÑĢ ÑįÐ¼Ð¶
ĠÐ½Ó©Ð»Ó©Ó© ÑĤÑįÐ¹
Ð¢Ð°Ð¹ Ð²Ð°Ð½
ĠÐ°ÑĢÑħ Ð¸ÑĤÐµÐºÑĤÑĥÑĢ
ĠÐ·Ð°Ð² ÑģÐ°ÑĢ
Ð¡Ð°Ð½ Ð°Ñħ
ĠÐ°Ð¼ÑĮÑĤ Ð´ÑĭÐ½
ĠÐŃÑĢ Ð´ÑįÐ½Ñį
oo gle
ĠÐ·Ð°Ð° Ð²Ð°ÑĢ
ĠÐ·Ð°Ð° Ð²Ð°Ð»
Ð¾ÑģÑĦ Ð¾ÑĢ
IP v
ÑıÑĨ Ð¸
ÐĳÐ¾Ð» Ð¾Ð²ÑģÑĢ
ĠÒ¯Ð¹Ð»ÑĩÐ» ÑįÑħ
ĠÑĤÑĥÑģÐ»Ð°Ð¼Ð¶ ÑĤÐ°Ð¹Ð³Ð°Ð°ÑĢ
ÑĩÑĥÐ» ÑĥÑĥ
ĠÑĪÐ¸Ð½Ð¶Ð¸Ð»Ð³ÑįÑį Ð½Ð¸Ð¹
RA M
ĠÑħÑĥÐ²ÑĮÑģÐ³Ð°Ð» ÑĭÐ½
Ð¥Ð¾Ð»Ð± Ð¾Ð¾
ĠÑĤÓ©ÑĢÓ©Ð»Ñħ ÑĤÓ©Ð½
ĠÑĤÑĥÑĤ Ð¼ÑĭÐ½
ÐĶÑĥÐ½Ð´ Ð°Ð´
CP U
ĠÑħÓ©ÑĪ Ó©Ó©
ĠÑħÐ°Ð¹ Ð¶
ĠÑĨÐ¾Ñħ Ð¸Ð»ÑĤ
ÐĶÑįÑįÑĢ Ñħ
ĠÐ¸Ð¹Ð½ ÑħÒ¯Ò¯
ĠÑħÐ¾ÑħÐ¸ÑĢ Ð¾Ð»
ĠÐ´Ð¾ÑĤÑĢ Ð¾Ð¾
Ð¶Ð°Ð³Ñģ Ð°Ð°Ð»ÑĤ
Ð»Ð°Ð· Ð¼ÑĭÐ½
Ð¸Ð²ÐµÑĢ Ð¿
ÑħÑĥÐ²Ð°Ð°ÑĢ Ð¸Ð»
ĠÐ±ÑįÑĢÑħ ÑĪÑįÑįÐ»
ĠÐ°Ð¼Ð°ÑĢ ÑħÐ°Ð½
ĠÑĳÑģÐ» Ð¾Ð»
ÐĳÐ¸Ðµ Ð¸Ð¹Ð½
ÐŃÑĨ ÑįÑģÑĤ
ĠÐ³ÐµÐ½ÐµÑĢ Ð°Ð»
ĠÑħÐ°Ð²ÑĤÐ³ Ð°Ð¹
ĠÑĤÒ¯Ò¯ ÑħÐ¸Ð¹
ĠÐ´Ð¸Ð¹Ð»ÑįÐ½ Ñħ
ĠÐ¾ÑĢÑħÐ¸ ÑģÐ¾Ð½
ÑħÐ°ÑĢÐ¸ ÑĥÑĨ
ÐµÐ¿Ð°ÑĤ Ð¸ÑĤ
yst em
ĠÐ´ÑįÑįÐ³ Ò¯Ò¯ÑĢ
% ,
5 174
5 276
5 232
5 283
6 206
6 259
6 356
6 171
6 263
7 180
7 131
7 162
7 342
7 543
8 125
8 179
8 161
8 280
8 272
8 379
8 762
9 138
9 198
9 366
9 379
9 541
A d
A m
D P
E P
I nter
M ong
N A
N S
P U
P o
S P
Y S
b er
c ap
c cess
h el
i x
i z
i re
i le
i ve
k er
r al
s s
u p
y c
y lo
Ġ Ð°Ð¹
Ġ Ð°Ð½ÑĤ
Ġ 600
Ġ Ð¾Ð³ÑĨ
Ð° ÑĥÑģ
Ð° Ð¾Ñģ
Ð½ Ð¾Ð²
Ð½ Ð¸ÑĤ
Ð³ Ñį
Ð³ ÐµÑĢ
Ð³ Ð°Ð½Ð³
Ð³ ÑĥÑĥÐ´Ð°Ð°Ñģ
Ð» ÑĥÑĥ
Ð» Ó©Ð½
Ð» ÑĥÑĥÐ»Ð°Ð½
ÑĢ ÑįÐ½
ÑĢ Ð°Ð¿
Ð¾ ÑĥÐ»
Ð¸ Ð¾ÑĢ
Ð¸ ÑĤÐ³
Ð¸ Ð¾Ð»Ð¾Ð³Ð¸Ð¹Ð½
Ð´ Ðµ
Ð´ Ð¾Ñħ
Ð´ Ð°Ð°Ñģ
Ð´ Ð¸ÑģÐº
Ñĥ ÑģÐ°Ð½
Ñĥ ÐºÑģ
ÑĤ ÑĥÑĤ
ÑĤ ÐµÐ³
Ñģ ÑĤÑįÐ¹
Ñģ Ò¯Ñģ
Ñħ ÑįÐ»ÑĤ
Ñħ Ð¸Ð½Ñĭ
Ñħ ÑıÐ¼
Ó© Ð¶ÑįÑį
Ð¼ ÐµÐ»
Ð¼ ÑıÐ½
ĠÐ± Ð¾ÑħÐ¸ÑĢ
Ð°Ð½ Ð¸Ð¹
Ð°Ð½ ÑĭÐ³
Ð°Ð½ Ð½Ð°
Ñĭ ÑĪ
Ñĭ Ðº
ĠÑħ Ð¸Ñĩ
ĠÑħ Ð°Ð°Ð½Ð´
ĠÑħ Ð¾ÑĢÑĤ
ĠÑħ ÑĢÐ¾Ð¼
Ð¶ Ð°Ð°
Ð¶ Ð°Ð¼
Ð¶ ÑĥÑĢ
Ð² Ð°Ð´
Ð² Ð°Ð½Ð´
Ð°Ð» Ð¸
Ð°Ð» Ð±Ð°ÑĢ
Ð¾Ð» Ð¸
Ðµ ÑħÐ°Ð½Ð¸Ðº
Ð°Ð³ Ð°Ð½
Ñĩ Ð¾Ð¹
Ñĩ Ð¸ÑĤ
Ñĩ Ð°Ðº
ĠÑĤ ÑįÑĤÐ³
ĠÑĤ Ò¯Ð»
ĠÑĤ Ð¾Ð»ÑĮ
ĠÐ½ ÑıÐ³
ĠÐ½ Ð¾ÑħÐ¾Ð¹
49 20
57 11
57 79
57 76
57 96
57 08
56 61
59 01
ÑįÑĢ ÑħÒ¯Ò¯
79 24
79 75
68 10
68 28
68 07
69 09
Ð¾ÑĢ ÑĪ
70 12
70 26
ÑĨ Ð¾Ñħ
ÑĨ ÑĤÑįÐ¹
ÑĨ ÑįÑĤÐ³
ĠÐ´ ÑĥÐ»
98 08
ÑĪ Ð°ÑĪ
Ð· Ð¾
Ð· ÑįÐ³
Ð· ÑĥÐ½
Ð· ÑįÐ½ÑĤ
ĠÐ±Ð°Ð¹ Ð´
90 77
90 42
ĠÐ³ ÑĢ
ĠÐ³ ÑįÐ³Ð´Ð´ÑįÐ³
Ð¸Ð½ Ð¶Ð¸Ð½
Ð°Ð¼ Ð³Ð°Ð¹
88 40
88 72
66 58
66 69
66 31
77 37
77 76
77 65
ĠÑģ Ð°Ñħ
ĠÑģ ÐµÐº
55 17
80 12
80 36
99 20
99 47
99 52
99 92
Ðº Ð¸
Ðº Ð¾Ð½
Ðº ÑĥÑĤ
Ð¾Ð³ ÑĩÐ¸Ð´
89 10
89 98
89 54
89 74
89 72
ĠÑĥ Ð¼Ð°ÑĢÐ´
Ð°Ð´ Ð°Ð»
ÑģÐ°Ð½ Ð°Ð°ÑĢ
97 20
97 36
97 46
87 50
87 54
ĠÐ¼ Ð°ÑĤÐµÑĢ
ĠÐ¼ Ð°ÑģÑģ
95 34
96 36
ÑĥÑĢ Ñħ
ÑĥÑĢ ÑĭÐ½
Ñı Ð°Ð¼
Ñı Ð·Ð³ÑĥÑĥÑĢ
74 24
74 49
94 19
94 23
84 20
84 28
Ð¸ÑĢ Ð¼
ÑįÐ¼ ÑįÐ³ÑĤÑįÐ¹
Ð¥ ÑĮÑİ
Ð¥ Ð°Ð±
Ð¥ Ð¾ÑĪ
Ð¥ Ð¸Ð¼Ð¸Ð¹Ð½
ÑģÑįÐ½ Ð´
ÑģÑįÐ½ ÑįÑįÑģ
73 18
52 19
93 35
93 38
83 24
Ð¿ Ð¾Ð»
ĠÑĪ ÑĥÐ´Ð°ÑĢÐ³Ð°
Ð¢ Ð°Ð½
Ð¢ Ò¯Ð¼
Ð¢ Ð¾Ð¾Ð½
Ò¯Ò¯Ð» ÑģÐ½ÑįÑįÑĢ
ÐĲ ÑģÑģ
Ðľ Ð°Ð³
Ð¶ÑįÑį Ñģ
Ð´Ð°Ð³ Ð¸Ð¹Ð½
Ðĳ Ð°Ñģ
ÑģÑĤ Ð°Ð½Ñĭ
ÑģÑĤ ÑĢÐ¸Ð¹Ð½
ĠÐ¾ÑĢ Ð¾Ð»Ð´
ĠÐ¾ÑĢ ÑĪÐ¸Ð¶
Ð»Ð°Ð³ ÑĥÑĥÐ´
Ð»Ð°Ð³ ÑĩÐ¸Ð´
ÑįÐ² ÑįÐ³
ÐŃ Ðº
Ð¡ ÑĥÐ»
Ð½Ð° Ñı
Ð¸Ð¼ Ð°Ð»
Ð¸Ð¼ Ð¸ÑĢ
âĢ ĭ
ĠÑı Ñģ
ĠÑı Ð»Ð°Ð³
ĠÑı Ð¿Ð¾Ð½Ñĭ
ÐĿ Ðĳ
ÐĿ ÑįÐ³Ð´ÑģÑįÐ½
ÐĿ Ò®Ðĳ
Ð¸Ðº Ð°Ð³
ĠÐ±Ò¯ Ð»Ð´
Ð°Ð»Ð´ Ð°Ð°Ð½Ñĭ
Ð°ÑĪ Ð³Ò¯Ð¹
Ðĵ Ð»
Ðĵ Ð°Ð²
Ðĵ ÐµÑĢÐ¼Ð°Ð½
Ðĵ Ð°Ð´Ð°Ð°Ð´
Ð£ ÑĢÐ¸Ð°Ð½Ñħ
ÑĥÑĥÑĢ Ð°Ð»
Ðļ Ð¸ÑĢ
Ðļ Ð°ÑĤ
Ðļ Ð¾Ð¼Ð¿
Ð¾Ñģ Ð½Ð¾Ð¾ÑĢ
ĠÐ³Ð°ÑĢ Ð½Ð°
ÑįÑįÐ» Ð¶
ĠÐ¶ Ð°Ð½Ð¶
Ó©Ð¼ Ð¶Ð¸Ð»
Ð°Ð· Ð¾Ð½
Ðĺ Ð·ÑĢÐ°
Ð°Ð³Ð´ Ð°ÑĢ
ĠÑĥÑĢ Ð³Ð°Ð½Ð°
ĠÐ°ÑĢ ÑģÐ»Ð°Ð½
ĠÐ°ÑĢ Ð¸ÑĥÐ½
ĠÐ¥ Ð°Ð¼
ĠÐ¥ Ð°Ð°Ð½
ÑĩÐ» Ð¾Ð»
ÑĩÐ» Ó©Ð³
ÑĥÐ½ ÑĪ
ĠÑĥÐ»Ñģ ÑĥÑĥÐ´ÑĭÐ½
ĠÒ¯Ð¹Ð» Ð´ÑģÑįÐ½
ÑħÐ¸Ð¹ Ð»
ÑħÐ¸Ð¹ Ñħ
ĠÑĤÓ©ÑĢ Ð¶
ÐŁ Ð¾ÑĤ
ÐŁ Ð°Ðº
ĠÑħÑįÐ» Ð¸Ð¹Ð³
ĠÐ¸Ñħ ÑĤÑįÐ¹
ĠÑħÑĥÐ² Ð°Ð°Ð¶
ĠÑħÒ¯ÑĢ ÑįÐ»
ĠÑħÒ¯ÑĢ Ð½Ñį
ĠÑħÒ¯ÑĢ ÑįÑįÐ»
ĠÐ´Ð°ÑĢ Ñħ
Ð¾Ð½Ð´ ÐµÐ½Ñģ
ĠÐ°Ð¶Ð¸Ð» Ð´
ĠÐ°Ð¶Ð¸Ð» Ð»Ð°ÑģÐ°Ð½
ÐĹ Ð°Ð³
ÐĹ Ð¾ÑĢ
ÐĹ Ó©Ð²Ð»Ó©Ð»ÑĤ
ÐĹ Ð°Ð»ÑĥÑĥ
ÐĹ Ð°ÑģÐ°Ð³
ĠÑħÑįÐ¼ Ð¶
Ò® Ò¯Ð»
ĠÐ½ÑįÑĢ ÑįÑį
ĠÐ½ÑįÑĢ Ð»ÑįÑģÑįÐ½
Ġ19 45
Ġ19 50
Ġ19 98
Ġ19 96
ÑĢÐ¾ ÐºÑģ
Ð°Ðº Ð¸Ð¹Ð½
Ðĸ ÐµÐ¹
Ð¾Ð»Ð± Ð¾
ĠÐ¡ Ò¯Ð½
ÐĽ Ð¸Ð³
Ð°ÑĢÑĤ Ð¸Ð·
ĠÐ°Ð» Ð³Ð°
ĠÑį Ðº
ĠÐ¸ÑĢ ÑįÐ²
Ð¦ ÑįÑĢ
Ð§ Ð¾Ð½
Ð§ Ð¸Ð¼
Ð§ Ó©Ð»Ó©Ó©ÑĤ
ĠÐ» Ð¸Ð½
ĠÐļ Ð°Ð²ÐºÐ°Ð·
Ð¾Ð³Ð´ Ð¶ÑįÑį
ÐĴ Ð°Ð½
ÐĴ Ð°Ñģ
ÐĴ Ð»Ð°Ð´
Ð»Ð°Ñħ Ð´Ð°Ð°
ÑĪÐ¸Ð½ Ð¶Ð¸Ð»Ð³ÑįÑį
Ð¤ ÐĲ
Ð¤ Ð¾ÑĢÐ¼ÑĥÐ»Ð°
ĠÑħÐ¾Ð»Ð± Ð¾Ð¶
ĠÑĦ Ð¾Ð½
ÑĤÐ°Ð½ Ñĭ
549 6
556 9
ĠÑĨÐ°Ð³ Ð°Ð°
848 0
857 2
ĠÐ·Ð¾ÑĢ Ð¸Ð»ÑĤ
645 1
ĠÑħÓ©Ð³Ð¶ Ð»Ð¸Ð¹Ð³
ĠÐ·Ð°Ñģ Ð°Ð³ÑĤ
770 7
ĠÐ·Ð°ÑĢ ÑĩÐ¸Ð¼
950 0
856 4
959 0
ar s
ĠÒ¯Ò¯Ñģ ÑįÐ»
ĠÐŁ ÑĢ
ĠÐŁ ÐµÑĢ
ĠÐ³ÑįÑĢ ÑĤ
ÐµÐ² Ð¸Ñĩ
838 0
670 5
850 5
878 8
Ð°Ð³ÑĤ Ð°Ð°
958 5
Ð°ÑĨ Ð°ÑĢ
Ð¥Ð°ÑĢ ÑĢÐ¸
870 2
649 5
879 3
ĠÑħÑĥÑĢ Ð»ÑĭÐ½
ĠÑģÐ¸ÑģÑĤÐµÐ¼ Ò¯Ò¯Ð´
678 0
678 9
939 4
Ð°Ð»Ð³ Ð°Ð¹
ĠÑįÐ» Ñĩ
ĠÑįÐ» ÑįÐ³
ĠÐ°Ð³ ÐµÐ½ÑĤ
ĠÐĽ Ð¸
ĠÐĽ Ð¾Ð½Ð´
ÐĲÐ» ÐµÐºÑģÐ°Ð½Ð´ÑĢ
846 0
978 4
Ð³ÑįÐ½ Ð¸Ð¹
Ð¾ÑĨ ÑĢ
Ð¾ÑĨ ÑĤÐ¾Ð¹
ÐµÐ´ Ð°ÐºÑĤÐ¾ÑĢ
ĠÐ´Ð°Ð² ÑĤÐ°Ð¼Ð¶
ĠÑĤÑįÐ´ ÑįÐ½Ð´
ĠÒ¯Ð» ÑįÐ¼Ð¶
ĠÒ¯Ð» Ð´ÑįÐ³Ð´ÑįÐ»
Ð±Ò¯ Ñħ
990 6
ĠÐ¾ÑĢÐ¾Ð»ÑĨ Ð¾Ð¾Ð³Ò¯Ð¹
ĠÐ´Ð¾ÑĤ Ð½Ð¾
ĠÐĸ Ð¾Ð½
ic e
ĠÑĪÐ¸Ð½Ñį ÑĩÐ»ÑįÐ»
ĠÐ¨ Ð¸Ð½
Ðķ ÐĲÐĿ
ÑħÐ¾Ð½ Ð¾Ð³
Ð°Ð¿ Ð¾Ð»
ĠÑħÑįÑĢÑįÐ³Ð»ÑįÐ³ ÑĩÐ´Ð¸Ð¹Ð½
ĠÑįÑħÑįÐ» Ð´ÑįÐ³
Ð¸Ð¿ ÐµÐ´
ĠÑħÑįÐ»Ð±ÑįÑĢ Ð¸Ð¹Ð³
ĠÐ¾Ð´ Ð¾Ð½Ð³Ð¾Ð¾ÑĢ
Ò¯Ð· Ò¯Ò¯Ð»
ac h
ĠÑħÐ°Ð½Ð³ Ð°Ð¶
ĠÐ°Ñħ Ð»Ð°Ñħ
ĠÐ°Ñħ Ð»Ð°Ð³Ñĩ
ĠÐ¼Ó©ÑĢ Ð³Ó©Ð»Ð´Ó©Ó©Ð½
ĠC on
ÑħÑĥÐ² ÑĮÑģ
Ð°Ð½ÑĤ Ð°
ÑĬ ÑıÐ½
Ð»Ð´ Ð»Ð¸Ð¹Ð½
ĠÑĪÐ°Ð°ÑĢÐ´ Ð»Ð°Ð³Ð°
ĠÑģÐ¾Ð½Ð³ Ð¾Ð³Ð´ÑģÐ¾Ð½
ÑĥÐ¶ Ð¸ÑĢ
ĠÐ±Ò¯ÑĤÑįÑįÐ» Ð¸Ð¹Ð½
ĠÐ±Ò¯ÑĤÑįÑįÐ» Ñĩ
ĠÑĤÑįÐ¼Ð´ÑįÐ³ Ð»ÑįÐ´ÑįÐ³
ĠÐ±ÑįÐ» ÑĩÑįÑįÑĢ
ĠÑħÓ©ÑĢ ÑģÓ©Ð½
Ð±Ð°Ð» ÑģÐ°Ð½
ĠÑħÑĥÑĥÐ» Ð¸Ð°ÑĢ
ĠÑħÐ°ÑĢÐ¸Ð»ÑĨ Ð°Ð°Ð³
ÑħÒ¯ ÑĩÐ¸Ð»
Ð¼ÑįÐ» Ð·
ĠÑĤÐ°ÑĤ Ð°Ð¶
ĠÐ³Ð°ÑĢÑĩ ÑįÑį
Ð°Ð³Ð´Ð°Ñħ ÑĥÑĥÐ½
ĠÐ½Ð¾Ð¼ Ð¾Ð½Ð´
ĠÐ±Ð°ÑĤ Ð°Ð»Ð³Ð°Ð°
ĠÑĥÑĩÐ¸ÑĢ ÑĤÐ°Ð¹
ÐµÑģÑĤ Ð¾ÑĢ
ÐµÑģÑĤ Ð¸Ð²
ĠÑĤÓ©Ñģ Ó©Ó©Ð»
ĠÑĤÓ©Ñģ Ð»Ð¸Ð¹Ð³
ĠÑĤÓ©Ð³ Ó©Ð»Ð´Ó©ÑĢ
Ð±Ò¯ÑĢ ÑįÐ»Ð´
ĠÐ·Ð°ÑħÐ¸ÑĢ Ñĩ
ĠÑħÐ°ÑĢÑĮÑĨ Ð°Ð°Ð³Ð°Ð°ÑĢ
Ð¸ÑĥÐ´ Ð°Ð´
Ð±Ð¾Ð´ Ð¸Ñģ
ĠT he
Ð½Ð°Ð°Ñģ Ð°Ð°
Ð¸Ð°Ð´ ÑĭÐ½
ÐĲÐ½ ÑĤÐ¾Ð½
ĠÑħÑĥÐ´Ð°Ð»Ð´ Ð°Ð°Ð½Ð´
ÐĶÑįÐ» ÑħÐ¸Ð¹
ĠÐ³Ð°Ð·ÑĢ ÑĥÑĥÐ´Ð°Ð´
ir t
ÑĥÐ· ÐµÐ¹
ĠÐ·Ð°Ð³Ð²Ð°ÑĢ ÑĭÐ³
ĠÑĤÐ¾ÑħÐ¸ÑĢ Ð³
ĠÑĤÐ¾ÑħÐ¸ÑĢ ÑģÐ¾Ð½
ĠÑĤÐ¾ÑħÐ¸ÑĢ ÑĥÑĥÐ»Ð°Ñħ
ÐĲÐ² ÑĤÐ¾Ð¼
ĠÐĲÑĢ Ð°Ð±
Ð³Ð¾ÑĢ Ð¾Ð´
ĠÑĪÐ¸ÑĢ ÑįÑįÐ½Ð´
ĠÐ´Ð¾ÑĢ Ð¾Ð¹
ĠÑģÑįÑĢÐ³ Ð¸Ð¹Ð»ÑįÑħ
ĠL inux
ĠÐ±Ð¾Ñģ Ð¾Ð¾
Ð°Ð»Ð´Ð°Ð³ Ñĩ
ÐµÐ¿ ÑĤÐ¾ÑĢ
ĠÐ¾ÑĢÑĩ Ð½Ñĭ
Ð»Ó©Ð³ Ð¸Ð¹Ð½
ÑĤÑĥÑģ Ð³Ð°Ð°ÑĢ
ĠÐ³Ð¸ÑĪÒ¯Ò¯Ð½ ÑĤÑįÐ¹
ĠÐ½ÑįÐ²ÑĤÑĢ Ò¯Ò¯Ð»ÑįÐ³
ĠÒ¯ÑĢÐ³ÑįÐ» Ð¶Ð¸Ð»ÑģÑįÐ½
id e
ÑıÑĢ Ð¸Ð»ÑĨ
ÑģÐ°Ð¹ ÑĤ
ĠÑĤÐ°Ñģ ÑĢÐ°Ð»ÑĤÐ³Ò¯Ð¹
ÐĿÐ¸Ð¹ ÑģÐ»ÑįÐ»
ver s
Ò®Ð¹ Ð»Ð´Ð»Ð¸Ð¹Ð½
ĠÐ¼Ó© Ñĩ
ĠÐ¼Ó© ÑģÓ©Ð½
ÑĤÒ¯ Ð³ÑįÑį
ĠÐ¸ÑĢÐ³ÑįÐ´ Ð¸Ð¹Ð½
ĠÐ´ÑĥÑĥÑģ ÑģÐ°Ð½
ĠÐ¸Ð½ÑĤÐµÑĢ Ð½ÐµÑĤ
ÑĩÐ°Ð´ Ð²Ð°ÑĢ
ÑģÑįÑĤÐ³ ÑįÐ»
ÐĵÑįÑĢ ÑįÐ»
ÑıÐ½ÑĮ Ð±Ð¸
ĠÐ°ÑĤ Ð¾Ð¼ÑĭÐ½
Ð°Ð½Ð½ Ð¸
Ð¼Ó©Ð½ Ñħ
ĠÐ±Ò¯ÑĢÐ´ Ò¯Ò¯Ð»Ð´ÑįÐ³
Ð¿ÑĢÐ¾Ð³ÑĢÐ°Ð¼ Ð¼
ÐŀÐ´ Ð¾Ð¾Ð³Ð¸Ð¹Ð½
ĠÑħÓ©Ð³Ð¶Ð¸Ð¼ Ð´
ÑħÑĥÑĥÐ» Ð±Ð°ÑĢ
Ð¢ÑĥÑĢ Ðº
ĠÑĤÑįÐ´Ð³ÑįÑįÑĢ Ð¸Ð¹Ð³
ÐµÑĨ ÐµÐ¿ÑĤÐ¾ÑĢ
ÐĻ Ð¾ÑĢ
ĠÐ±Ó©Ñħ Ð¸Ð¹Ð½
ĠÑĤÑįÐ¶ÑįÑį Ð»Ð¸Ð¹Ð½
ĠÑħÑĥÐ²Ð¸ÑĢ ÑģÐ°Ð½
Ð³Ð°Ð¹Ð» Ð°Ð½
ĠÐ¾Ð»Ð¸Ð¼Ð¿ Ð¸Ð¹Ð½
ĠÐĳÑĢÐ¸ÑĤ Ð°Ð½Ð¸
Ó¨Ð½ Ó©Ó©Ð´Ó©ÑĢ
ĠÐ¸Ð½Ð¶ÐµÐ½ÐµÑĢ Ð¸Ð¹Ð½
ÑĮÐµ Ñį
ĠÐ±Ð¸Ð· Ð½ÐµÑģ
ĠÐ°Ð²ÑĤÐ¾Ð¼ Ð°ÑĪÐ¸Ð½Ñĭ
ĠÐĲÐ· Ð¸Ð´
ĠO r
ĠÑĤÐ¾Ð³ÑĤÐ½ Ð¾Ð»ÑĭÐ½
ÑħÐ°Ð»Ð´ Ð²Ð°ÑĢ
ĠÐ½Ò¯Ð´ ÑįÐ½Ð´
ÐĳÑĥÑĢ ÑħÐ°Ð½
ĠÑģÑįÐ´ Ð²
Ð¡ÑĥÐ´ Ð»Ð°Ð°
Ð±Ð°Ñı ÑĢÑĭÐ½
ĠÐ¼Ð°Ñħ Ð±Ð¾Ð´
ÐķÑĢÓ©Ð½ÑħÐ¸Ð¹ Ð´Ó©Ó©
ÑģÐ¾Ð» Ð¸Ð»ÑĨ
ÑģÑĥÐ² Ð¸Ð»
ĠÑħÐ¸Ð¹Ð½ Ñį
ĠÑģÒ¯Ð¹ ÑĢ
ĠÐĲÐ½Ð³ Ð»Ð¸
ÐļÐ¾Ð¼Ð¿ÑĮÑİÑĤÐµÑĢ Ð¸Ð¹Ð½
ÐļÐ¾Ð¼Ð¿ÑĮÑİÑĤÐµÑĢ ÑĭÐ½
ÑĥÐ½ÑĤ Ð°Ð³
ĠÐ±Ð¾ÑĢÐ» ÑĥÑĥÐ»Ð°Ð»ÑĤ
est amp
Ð½Ð°Ð°Ð´ Ð°Ð¼
ĠÐ´Ó©ÑĢÓ©Ð² Ð´Ò¯Ð³ÑįÑįÑĢ
ĠÑįÐ¼Ð½ÑįÐ» ÑįÐ³
ĠÑħÐ°ÑĢÑĮÑı Ð°Ð»
Ð·ÑįÐ²Ñģ ÑįÐ³
ÐĲÐ½Ð³ Ð»Ð¸
Ð¡Ð¾Ð½ Ð¸ÑĢÑħ
ĠÐµÑĢÑĤÓ©Ð½ ÑĨÐ¸Ð¹Ð½
ĠÑħÑįÑĢÐ³ Ð¸Ð¹Ð³
ÐµÐ¼Ð± ÑĢÐ°Ð½
ĠÐ´Ð¾ÑĤÑĢ Ð¾Ð¾Ñģ
ĠÐ±ÑĢ ÑįÐ½Ð´
ÑĩÐ°Ð½ Ð°ÑĢ
ww w
Ð½ÑįÐ³Ð´ Ò¯Ð³ÑįÑįÑĢ
Ð´ÑĥÑĤ Ð°Ð³Ð´
Ð¥Ð¾Ð² Ð´
ÑģÐµÐº ÑĥÐ½Ð´
Ð¨Ð¸Ð» Ð´ÑįÐ³
ĠÑĪÐ°Ð°ÑĢÐ´Ð»Ð°Ð³ Ð°Ð³Ò¯Ð¹
Te X
Tr ans
ĠÑĩÐ¸Ð¹Ð³ Ð»ÑįÐ³
ĠÐºÐ°ÑĤ Ð¾Ð»Ð¸Ðº
ĠÐĺÐ½ ÑĤÐµÑĢ
ĠÐĺÑĤÐ°Ð» Ð¸Ð¹Ð½
ĠÐ´Ð¾Ð»Ð» Ð°ÑĢ
Ð¾ÑĤÑĢÑı Ð´
Ð°Ð¹Ð»Ð´ Ð°Ð°Ð½Ñĭ
ĠÑĤÐ¾Ð³ÑĤÐ¾Ð¾ Ð¶ÑįÑį
ÐŁÒ¯ÑĢ ÑįÐ²
Ð¸Ð·Ð¾ÑĤ Ð¾Ð¿
ĠÐ±Ð°Ð°Ð² Ð³Ð°Ð¹
ÑħÑĥÑı Ð³
Ð¾Ð´ÑİÑģ ÐµÑĢ
ÐĳÓ©Ó©ÑĢ Ð½Ð¸Ð¹
Ð±Ð°Ð°Ð² Ð³Ð°Ð¹
Ó©ÑħÓ©Ó©ÑĢÓ©Ð¼ Ð¶Ð¸Ð¹Ð½
ĠÐ¥Ó©Ð´Ó©Ð» Ð¼Ó©ÑĢÐ¸Ð¹Ð½
5 201
6 198
6 264
6 294
6 271
7 197
7 209
7 295
8 108
8 170
8 169
8 183
8 288
8 442
9 286
9 275
9 303
9 372
A U
C D
C o
D is
M P
O N
P D
T S
T im
V M
a h
b all
c l
f er
m in
m an
p s
s a
u str
w a
w ard
Ġ g
Ġ Î
Ġ 29
Ġ Ð¸Ñģ
Ġ Ð¸ÑĪ
Ġ Ð¸Ð¾Ð½
Ġ Ò¯Ò¯Ð½Ð´
Ġ and
Ġ Ò®Ð½Ð´ÑģÑįÐ½
Ġ ÑĢÐ¾Ðº
Ð° Ð°Ð³Ð´ÑģÐ°Ð½
Ð½ Ð°Ð»
Ð½ Ò¯Ò¯Ð»
Ð½ Ò¯Ò¯Ð´ÑįÐ´
Ð½ ÑĥÑĥÑĢÑĭÐ½
Ñį Ñĩ
Ð³ Ðµ
Ð³ ÑįÐ²
Ð³ ÑĥÑĥÐ´ÑĭÐ³
Ð» Ð³ÑĥÑĥÐ»
Ð» Ð°Ð»ÑĤÑĭÐ½
Ð» Ò¯Ò¯Ð´Ð¸Ð¹Ð³
Ð» Ð¾Ð´Ð¾Ð³
ÑĢ ÑįÑį
ÑĢ Ð°Ð°ÑĢ
ÑĢ ÐµÑģÑģ
ÑĢ Ð°Ð³Ð¸Ð¹Ð½
ÑĢ ÑįÐ»Ð¸Ð¹Ð½
Ð¸ Ñĥ
Ð¸ ÐµÐ½ÑĤ
Ð´ ÑįÐ´
Ð´ ÑįÐ¼
Ð´ ÑĥÑĥÐ»Ð°Ñħ
Ð´ Ð°ÑĢÑħ
Ð´ ÑĥÐ³ÑĥÐ¹
Ñĥ ÑįÐ»
Ñĥ Ð¿ÐµÑĢ
Ò¯ Ð´Ð¸Ð¹Ð½
ÑĤ ÑįÐ½Ð´
ÑĤ Ð°Ð±
Ñģ Ð¸Ð½
Ñģ Ð´Ò¯Ð³ÑįÑįÑĢ
Ñħ ÑĥÐ½
Ð¼ Ð°Ð½Ð¶
ĠÐ± Ð°ÑıÐ½
ĠÐ± Ð¸ÑĢÐ¶
Ð°ÑĢ Ð°ÑĤ
Ð°ÑĢ Ð´ÑĭÐ½
ĠÑħ Ð°Ð·
ĠÑħ Ð¾ÑģÑĤ
Ð¶ Ð³Ð¸Ð¹Ð½
Ð¶ Ð¸Ð´
Ð² ÐµÐ¹
ÑįÑį Ð²
ÑįÑį Ð³ÑįÑįÑĢ
Ñĩ Ð°Ð°ÑĢ
ĠÑĤ Ð¾ÑĢ
ĠÑĤ Ð¾Ñħ
ĠÑĤ Ò¯Ð½
ĠÑĤ Ð¾Ð¾Ð½Ð´
ĠÐ½ Ð¸Ð¼
ĠÐ½ ÑįÑįÐ»
ĠÐ½ ÑĥÐ³
ÑĮ ÑĤÐ°Ð¹
Ò¯Ò¯ ÑģÑįÐ½
ÑįÐ³ ÑĩÐ¸Ð´
58 73
56 72
ÑįÑĢ Ð¸
ÑįÑĢ ÑįÐ¼
69 14
Ð¾ÑĢ Ð½Ñĭ
Ð¾ÑĢ Ð³Ð°Ð½
Ð¾ÑĢ Ð¿Ð¾ÑĢ
Ð± v
Ð± ÑįÐ¹
Ð± Ð¾ÐºÑģ
70 29
ÑįÐ» Ñħ
ÑįÐ» Ð´ÑįÐ³
ĠÐ´ ÑįÑģ
ĠÐ´ Ð°Ð°Ð²
ĠÐ´ Ð°Ð°Ð»Ð³Ð°Ð²
98 40
98 88
ÑĪ Ð°Ð½
ÑĪ ÑĥÑĥÑĢ
ÑĪ Ð»Ð¸Ð¹Ð³
ÑĪ Ð°ÑĪÐ¸Ð½
Ð· Ò¯
Ð· Ð°Ð¹
Ð· ÐµÐ½
Ð· Ð°Ñı
Ð· ÑĥÐ½Ð´
90 67
ĠÐ³ ÑįÐ¼
ĠÐ³ Ò¯Ò¯ÑĢ
ĠÐ³ ÑįÐ³Ñĩ
ĠÐ³ Ð¾Ð²ÑĮ
Ð¸Ð½ Ð°Ð»
Ð°Ð¼ ÑħÐ°Ð³
ĠÑģ ÑįÑħ
ĠÑģ Ð¿
ĠÑģ Ð¸Ð½Ð³Ð»
99 40
99 60
Ðº Ð°Ð¿
ĠÐ· ÑĥÐ»
ĠÐ· ÑĥÐ³ÑĤ
Ð¾Ð³ Ð¾Ð¾ÑĢ
ÑĥÑĥÐ» Ð³Ð¸Ð¹Ð½
ÑĥÑĥÐ» Ð³ÑĭÐ³
89 68
89 61
ĠÑĥ ÑħÐ°ÑĢ
ÑģÐ°Ð½ Ð°Ñħ
ĠÐ±Ð¾Ð» Ð¾Ð»ÑĤÐ¾Ð¹
87 23
87 39
87 52
64 25
ĠÐ¼ Ð°ÑĢ
ĠÐ¼ ÑĥÑĥÐ´
ĠÐ¼ ÑįÑĢÐ³
ĠÐ¼ ÑĥÑĥÑĤÐ°Ð¹
ĠÐ¼ ÑĥÑĪÐ³
ĠÐ¼ ÐµÐ½ÐµÐ¶Ð¼ÐµÐ½ÑĤ
96 30
85 19
Ñı ÑĢÐ¸
ÑįÑįÑĢ Ð¸Ð¹Ð½
Ð°Ð² Ð°Ñħ
Ð°Ð² Ð´ÑĥÐ³Ð°Ð°ÑĢ
Ð°Ð² Ð·Ð°Ð½Ð´
84 16
84 34
Ó©Ð» Ó©Ó©Ð½Ð´
Ð¸ÑĢ Ñĩ
Ð¾Ð¾ Ð²
ÐµÑĢ ÑĨ
ÑįÐ¼ Ð½ÑįÐ»
Ð¥ ÑįÐ½
Ð¥ Ó©ÑĢ
Ð¥ Ð°Ð²
Ð¥ Ð¸ÑĢ
Ð¥ Ð¾Ñģ
Ð¥ ÑıÐ½
Ð¥ ÑįÑĤ
ÑģÑįÐ½ Ð¸Ð¹
ÑģÑįÐ½ ÑįÑįÑĢ
ĠÒ¯ ÑħÑįÑĢ
Ð¿ ÑĢÐ¸
Ð¿ Ð°ÑĢÐ»Ð°Ð¼ÐµÐ½ÑĤ
ĠÑĪ Ò¯ÑĢ
ĠÑĪ Ò¯Ð´
ĠÑĪ Ð¾ÑĢÐ¾Ð½
ĠÑĪ Ò¯Ò¯Ð³
ĠÑĪ Ò¯Ò¯Ð¼Ð¶
ĠÑĪ Ó©Ð½Ð¸Ð¹Ð½
Ð¢ Ð°ÑĢ
Ð¢ Ð¾Ð»
Ð¢ Ð°Ð¶
Ð¢ ÑįÑģ
Ð¢ Ó¨
Ð¢ ÑĢÐ°Ð½
Ð½Ð¸Ð¹ Ð»ÑįÐ³
Ð¾Ñħ Ð¾Ð½Ð´
Ð¾Ð¼ ÑģÐ´
92 17
92 23
Ð¸Ð³ ÑĤÐ°Ð¹
Ó©Ó© ÑħÓ©Ð½
ÐĲ Ñı
ÐĲ Ðĳ
ÐĲ ÐĽ
ÐĲ Ð²Ð°ÑĢ
ÐĲ ÑĦÑĢ
ÐĲ ÑģÑĥÑĥÐ´
Ðľ Ð°Ñħ
Ðľ ÐµÑģÑģ
Ðľ Ð¾Ð½ÑĤ
91 12
Ðĳ Ð»
Ðĳ Ð°Ð¹ÑĢ
Ðĳ Ð°Ð½Ðº
ĠÑĨ Ð°Ð²
ĠÑĨ Ó©Ð»
ĠÑĨ Ð¾ÑĢÑĭÐ½
ĠÐ¾ÑĢ ÑĥÑĥÐ»Ð´Ð°Ð³
Ð»Ð°Ð³ Ð°Ð°
ÐŃ Ð¹
ÐŃ Ð»ÑįÐ³
ÐŃ Ð¼Ð½
Ð¡ Ð¾ÑĳÐ»
Ð¡ ÐĳÐĿÐ¥Ð£
Ð°Ð°Ñģ Ò¯ÑĢÑįÐ½
ĠÑĩ Ð¸
Ð¸Ð´ Ð°Ð½
ÑįÑģ ÑĢÑįÐ³
ĠÐ¾Ð½ Ð»Ð°Ð¹Ð½
ÑĥÑģ Ð½Ñĭ
âĢ ¢
ĠÑı Ð°Ð³Ð°Ð°Ð´
ÐĿ Ð°ÑĤ
ÐĿ Ð¾Ð²
ÐĿ Ò¯Ò¯Ð´ÑįÐ»
Ð¸Ñħ ÑįÑģ
ÐĶ Ò¯ÑĢ
ÐĶ Ð¾Ð¾ÑĢ
Ð¸Ðº Ð°ÑĤ
Ð¾Ð½Ð³ ÑĥÐ¹
Ðĵ Ðµ
Ðĵ Ð¾Ð½
Ðĵ Ó©Ð»
Ð»ÑįÐ³ ÑĤ
Ð£ ÑĥÐ»ÑĭÐ½
Ð£ Ð¼Ð°ÑĢÐ´
Ð£ Ð¸Ð»ÑĮÑı
ÑĦ Ð¸Ð·Ð¸Ðº
ÑĥÑĥÑĢ ÑĭÐ³
ĠÑħÐ°Ð¼ Ð°Ð°Ð³Ò¯Ð¹
ĠÐ³Ð°ÑĢ Ð³
ĠÐ³Ð°ÑĢ ÑĤ
ĠÐ³Ð°ÑĢ Ð³Ð°Ð½Ð°
ĠÐº Ð¾Ð½ÑĨ
ĠÐ¶ Ð¸Ð¶
Ó©Ð¼ Ð¸Ð¹Ð½
ĠÐ½ÑįÐ³ ÑĤÐ³ÑįÐ½
Ð¸ÑĤ ÑĢ
ĠÐľ Ð°Ð¹
ĠÐľ Ð°Ðº
Ð°Ð½Ð³ Ð°ÑĢ
ĠÑĥÑĢ Ð²Ð°Ð»
ĠÐ°Ð² Ð°Ð²
ĠÐ°Ð² ÑĤÐ¾
Ðŀ Ñģ
Ðŀ ÑİÑĥÐ½
ĠÐ¥ Ò¯ÑĢ
ĠÐ¥ Ð¾Ð²
ĠÐ¥ Ó©Ñħ
ĠÐ¥ Ð°Ð½ÑĮ
ĠÑħÐ°ÑĢ ÑĥÑĥÐ»
ĠÑħÐ°ÑĢ ÑĬÑı
Ð³Ð°Ð» ÑĭÐ½
ĠÐĲ Ð¶
ĠÐĲ Ð±
ĠÓ©Ó©ÑĢ ÑĩÐ¸Ð»Ð¶
ĠÐĳ Ð°Ñı
ĠÑĤÓ©ÑĢ Ó©Ñħ
ĠÐ±Ð°Ð¹Ð´Ð°Ð³ Ð³Ò¯Ð¹
Ò¯Ò¯ÑĢ ÑįÐ³
Ò¯Ò¯ÑĢ ÑĤÑįÐ¹
ÐŁ Ð¸
ĠÐ±Ð°ÑĢ ÑģÐ½Ñĭ
ĠÑħÒ¯ÑĢ Ð´ÑįÐ³
Ð°Ð¼Ð¶ Ð¸Ð»ÑĤ
ĠÐ´Ð°ÑĢ ÑħÐ°Ð½
Ð¾Ð½Ð´ Ð¾Ð³
ĠÐ°Ð¶Ð¸Ð» Ð»Ð°Ð½Ð°
ÐĹ ÑĥÐ½Ð´
ÐĹ Ð°Ð²ÑħÐ°Ð½
Ð¨ Ð°Ð²
Ð¨ Ð°ÑĤ
Ġ19 99
Ġ19 95
Ð´Ð» Ó©Ð½
Ðĸ Ð°
Ðĸ ÑįÐº
ĠÑħÐ¸Ð¹ Ð¼ÑįÐ»
Ð°Ð½Ñħ Ò¯Ò¯Ð³Ð¸Ð¹Ð½
Ò¯Ò¯Ñģ ÑĤÑįÐ¹
ĠÐ¡ ÐµÐ½
ĠÐ±Ð°Ð¹Ð³ÑĥÑĥÐ» Ð°Ð³Ð´Ð°Ð¶
ĠÐ¼ÑįÐ´ ÑįÐ»Ð´
ÐĽ Ð¾Ð³
ÐĽ Ð¾Ñģ
Ð²ÑįÑĢ ÑĤÑįÐ¹
ĠÑıÐ² Ð´Ð°Ð³
ĠÑıÐ² Ð´Ð»ÑĭÐ³
ĠÑĪÐ¸Ð½ Ð³ÑįÑį
Ð»ÑįÑħ Ð¸Ð¹Ð½
Ð»ÑįÑħ Ð¸Ð¹Ð³
ĠÓ©Ð½ Ó©Ó©Ð´Ó©ÑĢ
ĠÓ©Ð³ Ð»Ó©Ó©
ĠÑĤÑĥÑģ Ð°Ð¼
ĠÐ¢ Ó©ÑĢÐ¸Ð¹Ð½
ĠÐ±Ò¯ÑĤ ÑįÑįÐ¶ÑįÑį
Ò¯Ð» Ð´ÑįÑį
ĠÑį ÐµÑĢ
ĠÑĤÐ°Ð» ÑĭÐ³
ĠÑĤÐ°Ð» Ð±Ð°Ð¹Ð½
Ð°Ð°Ð» Ð¶
Ð°Ð°Ð» Ð°Ð³
Ð°Ð°Ð» ÑĭÐ½
Ð°Ð°Ð» Ð·
Ð¦ ÑįÐ½
Ð¦ ÑįÐ½ÑħÑįÑĢ
ÑģÐ½ Ð¾Ð¾ÑĢ
Ð³Ð°ÑĢ Ð³Ð°Ñħ
Ðł ÐµÐ½
Ðł Ð¾Ð¼ÑĭÐ½
Ð§ Ð¸Ð½
Ð§ ÐµÑħ
ĠÐ» Ð¸Ð³
ĠÐ» Ð¸Ð³ÑĤ
ĠÐļ Ð°Ð»
Ð¾Ð³Ð´ Ð¾Ð½
ÐĴ Ð¸Ð½
Ð»Ð°Ñħ ÑĭÐ½
Ò¯Ò¯Ð»ÑįÑħ Ð´ÑįÑį
ĠÐ±Ð¸Ñĩ Ð»ÑįÐ³Ð¸Ð¹Ð½
Ġ20 03
648 6
650 6
Ð¾Ð¾Ð³ Ð¾Ð¾
ĠÑħÐ¾ÑĳÑĢ ÑĭÐ³
ÑĤÐ°ÑĢ Ð¸Ð°Ð»
Ð¾Ðº ÑģÑĭÐ½
Ð°Ð³Ñĩ Ð¸Ð¹Ð³
ĠÐ³Ð¾Ð» Ð»Ð¾Ñħ
ĠÑĨÐ°Ð³ Ð°Ð°ÑĢ
848 2
998 6
ĠÑĤÐ¾Ð³Ð» Ð¾Ð¾
ĠÑĤÐ¾Ð³Ð» Ð¾Ñħ
949 0
ĠÐ·Ð°ÑĢ Ð´Ð°Ð»
ĠÐ·Ð°ÑĢ Ð»Ð°Ð¶
ÐµÐ² Ð¸Ðº
ĠÐ·ÑĥÑĢ Ð³Ð°Ð°Ð´ÑĥÐ³Ð°Ð°ÑĢ
ÑĪÐ¸Ð» Ð´
ĠÑıÐ» ÑģÐ°Ð½
ĠÐ±Ð°Ð¹ÑĢ ÑĪ
ĠÐ³Ð°Ð´ Ð½Ñĭ
ĠÐĺ ÑģÐ»
Ó©Ð»Ð´ Ó©Ó©
Ð¸Ð½Ð³ ÑĢÐ°Ð´
ĠÐµ ÑģÐ´Ò¯Ð³ÑįÑįÑĢ
ÑįÑįÐ³ Ð´ÑįÑħ
ĠÑįÐ» ÐµÐºÑĤÑĢ
ĠÐĽ ÐµÐ½
ĠÐĽ ÑĥÐ²ÑģÐ°Ð½
ÑħÐ°Ð¼ ÑĤ
ÐĲÐ» Ð±Ð°Ð½
Ð¯ Ð°Ð³Ð°Ð°Ð´
846 2
ĠÑģÑĥÐ´ Ð»Ð°Ð»ÑĭÐ½
ĠÑħÒ¯Ñĩ Ð»Ð¸Ð¹Ð½
ĠÐŃ Ð½
ĠÐ·Ð°Ñħ Ð¸Ð´
ÐĲÑĢ Ð°Ð±
Ð´ÑįÐ» ÑħÐ¸Ð¹Ð½
Ð´ÑįÐ» Ð³ÑįÑĨ
Ð¸Ð³Ð´ Ð°Ñħ
899 7
990 5
990 8
ĠÐ½Ð¸Ð¹ÑĤ Ð´ÑįÑį
ĠÑħÐ¾Ð¹ Ð½Ð¾
ĠÐ´ÑĥÐ½Ð´ Ð°Ð°
ĠÐ´ÑĥÐ½Ð´ Ð°Ð°Ñģ
ĠÑģÑĥÑĢÐ³ÑĥÑĥÐ» Ð¸Ð¹Ð³
ĠÓ©Ð² Ñģ
ĠÓ©Ð² Ó©Ð³
ĠÓ©Ð² ÑĩÐ½Ð¸Ð¹
868 9
Ðķ ÑģÓ©Ð½
ĠÐ·Ð°Ð¼ Ð´
Ò¯Ð½Ð´ ÑįÑģÑĤ
ĠÐ±Ð¸Ðµ ÑįÑĢ
ĠÐ¼Ð¾Ð½Ð³Ð¾Ð» ÑĩÑĥÑĥÐ´ÑĭÐ½
ĠÑħÑįÑĢÑįÐ³Ð»ÑįÐ³ ÑĩÐ´ÑįÐ´
Ð¾Ð¿ ÑĥÐ»
ĠÐ½ÑįÐ¼ ÑįÑĢ
ĠÐ´Ò¯ÑĢ Ð´
ĠÐ´Ò¯ÑĢ ÑģÐ»ÑįÐ»
ĠÓ©Ð´ ÑĢ
ĠÓ©Ð´ ÑĢÐ¸Ð¹Ð³
ĠI n
Ð¾Ð± Ð°
ac he
ĠÐ³Ò¯Ð¹ÑĨ ÑģÑįÐ½
ĠÑĤÒ¯ÑĢ Ð³ÑįÐ½
re en
ĠÑħÐ°Ð¼Ð³Ð°Ð°Ð» Ð°Ð³Ñĩ
ÑģÐº Ð¸
at ab
Ð°Ð½ÑĮ ÑĪ
is s
ĠÐ§ Ð¾Ð¹
ÑĩÐ¸Ð»Ð³ÑįÑį Ð³
ÑħÒ¯ Ð½Ð¸Ð¹
ĠA l
ĠÑĤÑįÐ¼ÑĨ ÑįÑįÐ½Ð¸Ð¹
ĠÑħÓ©Ð´Ó©Ð» Ð¼Ó©ÑĢÐ¸Ð¹Ð½
ÑĤÐ¾Ð¼ ÑĬÑĳ
ĠÑħÐ°Ð¼Ð°Ð°ÑĢ Ð´Ð°Ð³
Ð°ÑĢÐ» ÑĮ
ĠÑĥÐ½ Ð°Ð¶
ĠÑĤÐ°ÑĤ Ð°Ð½
ĠÐ·Ò¯Ð¹ ÑĤÑįÐ¹
ĠÑįÑĢÐ³ ÑįÑħ
ĠÑįÑĢÐ³ ÑįÐ¶
ĠÑħÐ°Ñı Ð³Ð¸Ð¹Ð³
ĠÐ±Ð¾Ð»Ð¾Ð²ÑģÑĢ ÑĥÑĥÐ»Ð¶
ĠÑĤÐ°Ð½ Ðº
ĠÑĩÐ°Ð½ Ð°ÑĢÑĭÐ½
Ð±Ò¯ÑĢ ÑįÐ»
ÐĳÐ°ÑĢ Ð¸Ð»Ð³ÑĭÐ½
ĠÑĪÐ°ÑĪ Ð¸Ð½Ð´
ad d
ad e
ĠÐ½Ð°Ð¹ÑĢ Ð°Ð»
ĠÐ½Ð°Ð¹ÑĢ Ð°Ð³
ĠÐ´ÑįÐ¼Ð¶ Ð´ÑįÐ³
ĠÑħÐ°Ð½Ð´ Ð°Ð»ÑĤ
Ð±Ð¸Ñĩ Ð¸Ñħ
ĠÐºÐ¾Ð¼Ð¿ÑĮÑİÑĤÐµÑĢ ÑĤ
ĠÑħÒ¯Ð» ÑįÑįÐ»
Ð°Ð³Ð´Ð´Ð°Ð³ Ð³Ò¯Ð¹
il ter
Ò®Ð½Ð´ ÑįÑģÑĤ
ĠÐ±Ð°Ð¹Ð´Ð°Ð» ÑĤÐ°Ð¹
ĠÐ³Ð°Ð·ÑĢ Ð°Ð°
Ð°ÐºÑĤ Ð¸ÐºÐ¸Ð¹Ð½
Ð¥Ð°Ð¼ ÑĤÐ»Ð°Ð³
ĠÑħÓ© ÑĤÓ©Ð»
ĠÐĲÑĢ Ð´ÑĩÐ¸Ð»ÑģÐ°Ð½
Ð³Ð¾ÑĢ Ð¸Ð¼
ĠÑĤÐ¾Ð´Ð¾ÑĢÑħÐ¾Ð¹Ð» Ð½Ð¾
ĠÑħÑıÐ½ Ð°Ñħ
ĠÐ°Ñı Ð»Ð°Ð»
ĠÐ°Ñı Ð»Ð³ÑĥÑĥ
ĠÐ½ÑĥÑĤÐ°Ð³ÑĤ Ð°Ð°
ĠÐ·Ó©Ð²ÑĪÓ©Ó©ÑĢ Ó©Ñħ
ĠÐ±ÑĥÑĢ Ð¸Ð°Ð´
ÐĳÑĢ Ð°Ð·
ĠÑĨÑįÑĢÐ³ ÑįÑį
Ð³ÑįÑįÑģ ÑįÑį
Ð¨Ð¸Ð½ Ð¶
ĠÑĤÒ¯Ð² ÑĪÐ½Ð¸Ð¹
ĠÑĤÒ¯Ð² ÑĪÐ½ÑįÑįÑģ
Ð´Ò¯ÑĢ ÑįÐ¼
ĠÐ·ÑįÑĢÐ³ ÑįÑįÑģ
ĠH T
ĠÐ¼ÑĥÐ¶ Ð¸Ð´
ĠÑįÑħÐ» Ò¯Ò¯Ð»ÑģÑįÐ½
ut e
ÐºÐ² Ð°ÑĤÐ¾ÑĢ
ĠÐ½ÑįÐ¼ÑįÐ³Ð´ Ò¯Ò¯Ð»ÑįÑħ
ĠÐ³Ò¯Ð½ Ð·Ð³Ð¸Ð¹
Ð£Ð»Ð°Ð°Ð½ Ð±Ð°Ð°ÑĤÐ°ÑĢ
ĠÐ½ÑĥÑĤÐ³ Ð°Ð°
ĠÑĪÐ¸Ð»Ð¶ Ð¸Ñħ
ĠÐ¸Ð´ÑįÐ²Ñħ Ð³Ò¯Ð¹
ĠÐ³Ð°Ð´Ð°Ð°Ð´ ÑĭÐ½
av e
ĠÑĤÑĥÐ½ Ð°Ð´
ÐŃÑħ Ð»ÑįÑįÐ´
ÑħÓ© ÑĤÓ©Ð»Ð±Ó©ÑĢ
ĠÐ¸Ð»Ð³ÑįÑį Ñħ
ĠÐ¸Ð»Ð³ÑįÑį ÑģÑįÐ½
ĠÒ¯ÑĢÐ³ÑįÐ»Ð¶ Ð»Ò¯Ò¯Ð»ÑįÐ½
ÑħÐ°ÑĤ Ð°Ð½
ĠÑĤÐ¾Ð¹ÑĢ Ð³Ð¸Ð¹Ð½
ĠÑģÑĥÐ² Ð°Ð³
Ó¨ÑĢ Ð³Ó©Ð½
ĠÐ¥ÑıÑĤÐ°Ð´ Ð°Ð´
ÑĤÐµÑħÐ½ Ð¾Ð»Ð¾Ð³
Ð¡ÑĥÑĢ Ð³ÑĥÑĥÐ»
ÐµÐ½ÑĨ Ð¸Ð°Ð»
Ð°Ð¼Ñģ Ð°Ð»ÑĤÐ°Ð¹
ĠÐ¸Ð»ÑĢ Ò¯Ò¯Ð»ÑįÑħ
ĠÑĤÑįÐ½ÑĨ Ò¯Ò¯
ĠÐ´ÑĥÑĥÐ´ Ð»Ð°Ð³Ð°
Ð±Ñĥ ÑİÑĥ
Ð¾Ð²ÑģÐº Ð¸Ð¹Ð½
ĠÓ©ÑĢÐ³ Ó©Ð¼Ð¶Ð»
Ð¿ÑĢÐ¾ÑĨÐµÑģÑģ Ð¾ÑĢ
ĠÑħÑįÑĢÑįÐ³Ð¶ Ò¯Ò¯Ð»ÑģÑįÐ½
Ð¸Ð½ÑĤÐµÑĢ ÑĦ
ĠÑĪÐ°Ñħ Ð°Ð¼
ĠÐ½Ò¯Ò¯Ð´ÑįÐ» Ð»ÑįÐ½
ĠÑĪÐ°Ð² ÑĮ
ĠÓ©Ð³Ò¯Ò¯Ð» ÑįÐ»
ĠÑįÐ³ Ð½
ĠÑģÑĥÑĥÐ´ Ð°Ð»
ĠÑĪÑĥÐ³Ð°Ð¼ Ð°Ð½
ĠÑĨÑįÐ½ Ð³ÑįÐ»Ð´ÑįÑħ
EE E
Ð¥Ð¾Ð»Ð± Ð¾Ð¾Ð½Ñĭ
ĠÑĥÐ³Ñģ Ð°Ð°
ĠÑĤÓ©ÑĢÓ©Ð»Ñħ ÑĤÐ½Ð¸Ð¹
ĠÑĤÐ°ÑĢÐ¸Ð°Ð» Ð°Ð½Ð³Ð¸Ð¹Ð½
ÑģÒ¯ÑĢÑįÐ½ Ð³Ð¸Ð¹Ð½
ĠÐ½ÑįÐ² ÑĤ
Ð¥ÑįÑĢÑįÐ³ Ð»ÑįÐ³Ñĩ
ĠÓ©ÑĢÐ³Ó© ÑĤÐ³
ÐŀÐ½ ÑĨ
ÐłÐ°Ð´ Ð¸Ð¾
ĠÐ°Ð¿Ð¿ Ð»Ð¸Ðº
ĠÐ°ÑĪÐ¸Ð³Ð»Ð°Ð³Ð´ Ð´Ð°Ð³
HT ML
ÐĳÑĥÐ» Ð³Ð°Ð½
ĠÐ³Ò¯Ð¹Ð» Ð³ÑįÑįÐ½Ð¸Ð¹
ĠÐĵÑĢÐµÐº Ð¸Ð¹Ð½
ĠÐ´Ð¾Ð³ ÑĪÐ¸Ð½
Ð¡Ò¯Ð»Ð¶ÑįÑį Ð½Ð¸Ð¹
Ð¤ÑĢÐ°Ð½ Ðº
ĠÐ¼ÐµÑħÐ°Ð½ Ð¸Ð·Ð¼
ĠÐ¾Ð± ÑĬÐµÐºÑĤ
Ð¾Ð»Ð¾Ð¾Ð´ ÑĥÐ³Ð°Ð°ÑĢ
ĠÑĤÐ°Ð³Ð½ ÑĥÑĥÐ»ÑĭÐ½
ÐĲÑĢÐ¸ ÑĥÐ½
ĠÐ¥Ð¾Ð»Ð± Ð¾Ð¾Ð½Ñĭ
ĠÑĨÑįÑĨÑįÑĢÐ»ÑįÐ³ ÑĤ
ĠÐ¸Ð¼Ð¿ Ð¾ÑĢÑĤ
ĠÐ¼ÐµÑģÑģ ÐµÐ¶
ĠÐĿÐ¸Ðº Ð¾Ð»
Ð¸Ð½Ñħ ÑĢÐ¾Ð½
Ð¿ÑĢÐ¾ÑĤÐ¾Ðº Ð¾Ð»
ÐĵÐ°Ð· ÑĢÑĭÐ½
ĠÐľÓ©Ð½ Ñħ
ÐĸÐ¸Ð½ ÑħÑįÐ½Ñį
ÐĴÐ¸Ðº ÑĤÐ¾ÑĢ
ĠÑĪÐ¸Ð³ÑĪ ÑįÑįÐ´
Micro soft
ĠÑģÐ¾Ð½Ð³Ð¾Ð» ÑĤ
ĠÐºÐ¸Ð» Ð¾Ð¼ÐµÑĤÑĢ
cri pt
ĠÐ²Ð¸Ð´ ÐµÐ¾
Ð°Ð¿Ð¿ Ð»Ð¸Ðº
atab ase
- ,
7 176
7 246
7 343
8 136
8 135
9 763
B l
C oldplay
E M
E S
E X
F irst
L a
M S
M an
M ul
N T
O L
P ar
P ri
R M
T OR
a ir
b r
e er
e ad
j ection
k s
n ing
o ol
o ver
q ue
r ess
u g
v is
Ġ ÑįÑį
Ġ 31
Ġ Ð¾Ñģ
Ġ Ð¸Ð²
Ð° ÑİÑĥÐ»Ð³Ò¯Ð¹
Ð½ Ó©ÑĢ
Ð½ Ð¾ÑĳÑĢÑħ
Ð³ ÑįÐ¼
Ð³ ÑįÐ´ÑįÐ³
Ð³ ÑįÐ½Ð´
Ð³ Ò¯Ð·
Ð³ ÑįÑħÑįÐ´
Ð» Ð¸Ð´
Ð» ÐµÑĢÐ¸Ð¹Ð½
Ð» ÑĶÑĶ
ÑĢ Ð°Ð°
ÑĢ ÑģÑįÐ½
ÑĢ Ð¾Ð´
Ð¾ Ð¾Ð»Ð´
Ð¾ Ð¾Ð³Ð´ÑģÐ¾Ð½
Ð¸ Ð°Ð»ÑĭÐ½
Ð¸ Ð°Ð³ÑĤ
Ð´ Ò¯Ð³Ð½
ĠÑ ĭ
ĠÐ ģ
ĠÐ Ļ
ÑĤ Ð¾Ð½Ñĭ
ÑĤ Ð±Ð¾Ð»
ÑĤ Ó©Ð»Ó©Ó©
Ñģ Ð¸
Ñģ ÑįÑį
Ñģ Ð²ÑįÑĢ
Ñģ Ð´ÑĭÐ½
Ñģ ÑħÐµÐ¼
Ñħ Ð°Ð°Ñģ
Ñħ Ð°Ð·
Ñħ Ð°Ð»Ñħ
Ð¼ Ð´
Ð¼ ÑĥÑĢ
Ð¼ Ð°Ð»ÑĤ
Ð¼ ÑįÐ½Ð´
Ð¼ Ð°Ð½Ñĭ
Ð¼ ÑįÐ½ÑĤ
ĠÐ± Ò¯Ò¯
ĠÐ± Ð°Ð½Ð´Ð¸
Ð°Ð½ Ñģ
ĠÑħ Ó©Ó©ÑĢ
ĠÑħ ÑĥÐ¼
ĠÑħ Ó©Ð»Ð´
ĠÑħ Ð°Ð½Ð°
Ð¶ ÑģÑĤÐ¾ÑĥÐ½
Ð°Ð» Ð°
Ð°Ð» Ð°Ð³
Ð¾Ð» Ð¾Ð»
ÑĥÑĥ ÑĩÐ¸Ð½
Ðµ Ð½Ð°
Ðµ Ð¶Ð¸Ð¹Ð½
Ðµ ÑĨÐ¸Ð¹Ð½
Ð°Ð³ Ð°ÑĢ
Ñĩ Ð°ÑĤ
Ñĩ ÑĤÓ©Ð½
Ñĩ Ò¯Ò¯ÑħÑįÐ½
ĠÑĤ Ð°Ð½Ñĭ
ĠÑĤ Ð¾Ð»Ð³
ĠÑĤ Ð°Ð½ÑĮ
ĠÑĤ Ð¾Ð¾Ð³Ð¾Ð¾ÑĢ
ĠÑĤ Ð°Ð¹Ð·
ĠÑĤ Ð¾ÑĢÐ³
ĠÑĤ ÐµÐºÑģÑĤ
ĠÑĤ Ð°Ð°Ð»Ð°Ð»
ĠÑĤ Ó©ÑħÓ©Ó©ÑĢÓ©Ð¼Ð¶Ð¸Ð¹Ð½
ĠÐ½ ÑįÑįÐ¶
ĠÐ½ Ð°Ð¹Ð·
57 57
ÑįÐ½ Ð¸Ð¹Ð³
Ð°Ð° Ð¶ÑįÑį
Ð°Ð° Ð²Ð°Ð»
ÑįÑĢ ÑħÑįÐ³
78 33
68 32
Ð¾ÑĢ Ð±
Ð¾ÑĢ Ð´ÑĭÐ½
Ð± Ð¸Ð¹Ð½
Ð± Ð°Ð½Ðº
70 00
ÑĨ Ð³
ÑĨ Ð°Ð¹
ÑĨ Ð¾Ð³
ÑĨ ÑįÑįÑĢ
ÑįÐ» Ñģ
ĠÐ´ ÑĥÑĥÐ»Ð¶
ĠÐ´ Ð¸Ð·Ð°Ð¹Ð½
ĠÐ´ Ð¸Ð¿Ð»Ð¾Ð¼Ð°ÑĤ
98 39
98 03
ÑĪ Ò¯Ð»
ÑĪ Ò¯Ò¯Ð»ÑįÑħ
ÑĪ ÑĥÐ³Ð°Ð¼
ÑĪ Ò¯Ò¯Ð¼Ð¶
Ð· Ò¯Ñģ
Ð· Ð°Ð»ÑĥÑĥ
Ð· Ò¯ÑĢÑħ
ĠÐ±Ð°Ð¹ ÑĨ
ĠÐ±Ð°Ð¹ ÑģÐ½Ñĭ
ĠÐ³ Ð°
ĠÐ³ Ð»
ĠÐ³ Ð°Ð¶
ĠÐ³ Ð¾Ð¼
ĠÐ³ ÑĢÐ°Ð½
ĠÐ³ Ð¸ÑĤÐ°ÑĢ
Ð°Ð¼ ÑĤ
Ð°Ð¼ Ð°ÑĤ
Ð°Ð¼ ÑĮÑĤ
66 17
ĠÑģ ÑįÐ¶
ĠÑģ Ð¸Ð³Ð½
ĠÑģ Ð¾ÑĨÐ¸Ð°Ð»Ð¸ÑģÑĤ
99 91
Ðº Ð¾Ð½ÑĨ
ĠÐ· Ð°Ð°Ð½
ĠÐ· Ð°Ñı
ĠÐ· ÑĥÐ½
ĠÐ· Ð¾Ð´Ð¾Ð³
ĠÐ· Ð°Ð°Ð¶
ĠÐ· ÑĥÐ½Ð³Ð°Ð°ÑĢ
tt er
Ó©ÑĢ Ð½
Ð¾Ð³ ÑĢÐ°ÑĦ
89 58
89 31
Ð¸Ð¹Ð³ ÑįÑį
ĠÑĥ ÑĥÐ´
Ð°Ð´ Ð°Ð½
Ð°Ð´ Ð°Ð°
Ð°Ð´ ÑģÐ°Ð½
ÑģÐ°Ð½ Ð³
ÑģÐ°Ð½ ÑħÒ¯Ò¯
ÑįÑħ ÑįÑįÑģ
64 39
Ó©Ð½ Ð³Ó©
ĠÐ¼ Ð¾Ð½
ĠÐ¼ Ð¸Ð½Ð¸Ð¹
ĠÐ¼ Ð°ÑĢÑĪ
ĠÐ¼ Ð¾ÑĤÐ¾ÑĢ
85 17
ÑĥÑĢ Ð²
ÑĥÑĢ ÑģÐ³Ð°Ð»
84 12
Ó©Ð» Ð¸Ð¹Ð³
Ó©Ð» Ð³Ò¯Ð¹
Ð¸ÑĢ Ð°Ð°
Ð¾Ð¾ ÑĨ
Ð¥ Ó©Ð³
Ð¥ ÑĥÐ»
Ð¥ ÐµÐ½
Ð¥ Ð¾Ð¶
Ð¥ Ó©ÑĪ
ÑįÐ¹ ÑĪ
Ð¿ Ð¾Ð½Ð´
Ð°Ð¶ Ð¸Ð³Ð»
Ð³Ð¸Ð¹Ð½ Ñħ
ĠÑĪ Ð°Ð»
ĠÑĪ Ó©Ð½Ó©
ĠÑĪ Ð°Ð³Ð°Ð¹
Ð°Ð°Ð½ ÑĥÑĥÐ´ÑĭÐ³
Ð¢ ÐĲ
Ð¢ ÑıÐ½ÑĮ
Ð¢ ÐµÐ»ÐµÐ²Ð¸Ð·
Ð°Ñģ ÑĭÐ½
Ð°Ñģ Ð°Ð°ÑĢ
Ð°Ñģ Ð¿Ð¾ÑĢÑĤ
ÑĥÐ» ÐµÐ¼
Ò¯Ò¯Ð» Ð³Ð¸Ð¹Ð½
Ð¸Ð³ ÑĩÐ¸Ð´
ÐĲ Ð¿
ÐĲ ÑİÑĥÐ»Ð³Ò¯Ð¹
Ðľ Ð¾Ð»
Ðľ Ð¸Ð»
Ðľ Ð¾ÑĤ
Ðľ Ð°ÑĪ
Ðľ Ð°Ð½Ð³
Ðľ Ð°Ð¹Ð½
Ðľ Ð¸Ð½Ð¸Ð¹
Ðľ Ð°ÐºÑģ
Ðĳ Ð¾
Ðĳ Ð¾Ð³
Ðĳ Ð»Ð¾Ðº
ÑģÑĤ Ó©ÑĢÓ©Ð³ÑĩÐ¸Ð¹Ð½
ĠÐ¾ÑĢ Ð¾Ð¾Ð´
Ð³Ð° Ð¿
ÑįÐ² ÑħÐ¸
ÐŃ ÑģÑĢ
ÐŃ ÐºÑģ
Ð¡ Ó©
Ð¡ Ð£
Ð¡ Ð°Ð½Ð´
Ð¡ Ð¾Ñĳ
Ð¡ Ð¾Ðº
Ð¡ Ð°Ð½Ðº
Ð¡ ÑįÐ»ÑįÐ½Ð³Ñį
ĠÑĩ Ó©Ð»Ó©Ó©Ð½Ð¸Ð¹
ÑģÐ¾Ð½ Ð´
Ð¸Ð´ Ð¸Ð½
Ð¸Ð´ Ð¶ÑģÑĤÐ¾ÑĥÐ½
ÑįÑģ Ð½ÑįÑįÑģ
Ð¾Ð² Ð°
ÑĥÑģ ÑĤÐ°Ð¹
ÑĤÐ³ ÑįÐ¶ÑįÑį
ÐĿ Ð°Ñģ
ÐĿ ÑĥÑĤÐ³Ð¸Ð¹Ð½
ÐĶ Ð¾Ð½
ÐĶ ÐµÑĢ
ÐĶ Ð°ÑĤ
ÐĶ ÐµÐ½
ÐĶ Ð°Ð°ÑĤÐ³
Ð¸Ðº Ð¸
ÑįÑįÑģ ÑįÑįÑĢ
Ñİ ÑĤÑįÑį
Ðĵ ÐĲ
Ðĵ Ð¸Ð±
Ðĵ Ð¾Ð²Ð¸Ð¹Ð½
Ð»ÑįÐ³ ÑĩÐ´Ð¸Ð¹Ð½
ÑĥÑĥÑĢ ÑĤÐ°Ð¹
Ðļ ÑĥÐ±
Ðļ Ð¾Ð·
Ðļ ÑĢÐ¸ÑģÑĤ
Ðļ Ð°Ð²ÐºÐ°Ð·
Ð¾Ñģ Ñģ
Ð¾Ñģ Ð»Ð°Ð²
ĠÐº Ð°Ð·
ĠÐº Ð¾Ð»Ð¾Ð½
ĠÐ¶ Ð¸Ð¼Ñģ
Ð°Ñı Ð»
ĠÐ½ÑįÐ³ Ð´ÑįÐ¶
ĠÐ½ÑįÐ³ Ð´ÑįÐ½
ĠÐ¾Ð» Ð¾Ð½Ð´
ĠÐ¾Ð» Ð½Ð¾Ð¾ÑĢ
Ðĺ Ð²
ĠÐľ Ð¾ÑĢ
ĠÐľ Ð¸Ð½
ĠÐľ Ð£
ĠÐľ ÐĲÐ¥ÐĿ
Ð°Ð³Ð´ Ð°Ð²
ĠÐ°Ð¼ ÑĤ
ĠÐ°Ð² Ð°ÑĢÐ³ÑĭÐ½
Ðŀ Ð±
Ðŀ Ð¥Ð£
ĠÐ°ÑĢ ÑĭÐ½
ĠÐ°ÑĢ ÑħÐ¸
ĠÐ¥ ÑįÐ²
ĠÐ¥ Ð°Ð½Ð³
ĠÑħÐ°ÑĢ Ð°ÑħÐ°Ð´
ĠÑħÐ°ÑĢ Ð³Ð°Ð»Ð·Ð°Ð½
Ð³Ð°Ð» Ð°Ð³
Ð³Ð°Ð» Ð°Ñħ
Ð³Ð°Ð° ÑĪ
ÑĥÐ½ ÑĮ
ĠÐĲ ÑģÑģ
ÑĩÐ¸Ð½ Ð´
ĠÒ¯Ð¹Ð» Ð´Ð´ÑįÐ³
ĠÑħÑįÑĢÑįÐ³ ÑĤ
ĠÑħÑįÑĢÑįÐ³ ÑģÐ»
ĠÐĳ Ð°Ð³Ð°
ĠÐĳ ÐĿÐ¥
ĠÑĤÓ©ÑĢ Ð¸Ð¹Ð³
ĠÑĤÓ©ÑĢ Ð¶ÑįÑį
ĠÑĤÓ©ÑĢ Ð»Ð¸Ð¹Ð³
ÑĥÑħ Ð°ÑĢ
Ò¯Ò¯ÑĢ Ð¸Ð¹Ð³
ÐŁ Ð»
ÐŁ Ð°Ð½
ÐŁ Ð°Ð³
ÐŁ ÑĥÑĤ
ĠÑħÑįÐ» ÑįÐ½Ð´
ÐµÑĤ Ð¸Ðº
ÐµÑĤ ÑħÐ¾Ð²
Ð¸ÑģÑĤ Ð¸Ðº
ĠÐ±Ð°ÑĢ Ð¶ÑįÑį
Ó¨ Ð½Ð³
ÐĹ Ó©Ð³
Ò¯Ð½ Ð¶Ð°Ð²
Ð¨ Ò¯Ð´
Ð´Ð°Ð° ÑĤÐ³
ĠÐ½ÑįÑĢ Ð»ÑįÐ³Ð´ÑįÑħ
ĠÐ½ÑįÑĢ Ð»ÑįÐ³Ð´Ð´ÑįÐ³
Ġ19 60
Ġ19 74
ÑĩÐ¸Ð» Ð¶ÑįÑį
Ð°Ðº Ð¸
Ð°Ðº ÐµÑĢ
Ð°Ðº ÑģÐ¾Ð½
ÐµÐº ÑĤÐ¾Ð½
ĠÑħÐ¸Ð¹ Ð´Ð¸Ð¹Ð½
Ð°Ð½Ñħ Ð°Ð¹
Ò¯Ò¯Ñģ Ð¸Ð¹Ð½
ĠÐ¡ ÑĤ
ĠÐ±Ð°Ð¹Ð³ÑĥÑĥÐ» Ð°Ð½
ĠÐ±Ð°Ð¹Ð³ÑĥÑĥÐ» Ð°Ð»ÑĤ
ĠÐ±Ð°Ð¹Ð³ÑĥÑĥÐ» Ð°Ð³Ñĩ
ĠÐ±Ð°Ð¹Ð³ÑĥÑĥÐ» Ð°Ð»ÑĤÑĤÐ°Ð¹
ĠÐ¼ÑįÐ´ ÑįÑįÐ¶
ÐĽ Ð°ÑĢ
ÐĽ ÐµÐ¾Ð½
ĠÑıÐ² Ð³Ð°Ð½
ĠÑıÐ² Ð°ÑħÐ°Ð´
ĠÑıÐ² Ð°Ð³Ð´Ð°Ñħ
Ð¶Ð¸Ð» Ð´
Ð¶Ð¸Ð» Ð¸Ð¹Ð½
Ð»ÑįÑħ Ò¯Ð¹
ĠÓ©Ð½ Ð´ÑĢ
ĠÓ©Ð³ ÑĩÑįÑį
Ð»Ð¾Ð³ Ð¸Ð¹Ð½
Ð»Ð¾Ð³ ÑĩÐ¸Ð¹Ð½
ĠÐ¢ Ð°
ĠÐ¢ ÑįÐ¼
ĠÐ°Ð» Ð¸Ð½Ð´
Ð°Ð°Ð» ÑģÐ°Ð½
ĠÑģÑĥÑĢ Ð³Ð°Ð°Ð»
Ð¾Ð»Ð´ Ð¾Ð¾
ÑģÐ½ Ð°Ð°
Ð¸ÑĪ Ð½Ð°Ð¼
ĠÐĶ ÐĲÐ¨Ð¢
Ðł Ð¾Ðº
Ðł Ð¾Ð±ÐµÑĢÑĤ
Ð§ Ð¸Ñħ
ÐµÐ¹ Ð´
ÑĥÑĥÐ½ Ð°Ð°Ñģ
ĠÐ» Ð°Ð²
ĠÐ» Ð¸ÑĨ
Ð¾Ð»ÑĤ Ð¾Ð½Ð´
Ð¾Ð³Ð´ Ð¾Ð½Ð¾
ÐĴ ÐµÐ½
ÐĴ Ð¸ÑĤ
ÐĴ ÐµÐ±
ÐĴ ÑįÐ±
ÑĥÐ³ ÑĭÐ½
ĠÑģÐ°Ð½ Ð°Ð°Ð½Ð´
ĠÑģÐ°Ð½ ÑģÑĢÑĭÐ½
Ð¤ Ð¸Ð·Ð¸Ðº
ĠÐ±Ð¸Ñĩ Ð¶ÑįÑį
Ġ20 17
Ó©Ð³Ð´ Ó©Ð½
Ó©Ð³Ð´ Ó©Ð»
ĠÑĦ ÑĢ
ĠÑĢ Ð°ÑĪÐ°Ð°Ð½
ĠÑĢ ÐµÐ³Ð¸ÑģÑĤÑĢ
Ð±Ð°Ð¹ Ð¶
Ð±Ð°Ð¹ Ð³Ð°Ð»
ĠÐ£ Ðĳ
ĠÐ³Ð¾Ð» ÑĩÐ»Ð¾Ð½
860 5
ĠÑħÓ©Ð³Ð¶ Ò¯Ò¯Ð»Ð¶
ĠÐ·Ð°Ñģ Ð°Ð¶
Ð±ÑįÑĢ Ð¸Ð¹Ð½
en c
en ti
ÑħÐ½ ÑĭÐ³
ĠÐĿ Ð°Ð¹ÑĢ
ĠÐĿ ÑįÐ³Ð´ÑģÑįÐ½
ĠÑĤÑĥÑħ Ð°Ð¹Ð»Ð±Ð°Ð»
ĠÐŁ Ð°Ðº
ĠÐŁ Ð¾ÑĢÑĤ
ĠÐ³ÑįÑĢ ÑįÑįÐ½Ð¸Ð¹
ÐµÐ² Ð¸Ð½
849 3
ĠÐŀ Ð½
ti v
ti ve
Ð°ÑĨ ÑĤÐ°Ð¹
ÑĪÐ¸Ð» ÑĤÑĭÐ½
ĠÑįÑĢÑħ ÑĤ
757 9
ĠÑĤÐ¾Ð´Ð¾ÑĢÑħÐ¾Ð¹ Ð³Ò¯Ð¹
Ò¯Ð³ ÑįÐ»
939 8
ÑįÑįÐ³ Ð´ÑįÐ¶
ĠÑįÐ» Ð´ÑįÐ²
ĠÐ°Ð³ ÑĥÑĥ
ĠÐ°Ð³ ÑĥÑĥÐ»Ð¶
ÑħÐ°Ð¼ ÑĢ
ÐĲÐ» ÑĤÐ°Ð¹Ð½
es c
ĠÓ©Ð¼Ð½ Ó©Ó©Ñģ
ĠÑįÐ´ Ò¯Ð³ÑįÑį
Ð´Ó©ÑĢ Ð²
Ð¯ Ð¼
846 3
877 2
ĠÐ´Ð°Ð² ÑĤ
ĠÐ´Ð°Ð² Ð¶
ĠÑħÒ¯Ñĩ ÑįÑį
ĠÐŃ Ð½Ñį
ÐĲÑĢ Ð´ÑĩÐ¸Ð»ÑģÐ°Ð½
ÑĤÑįÐ½ Ð³ÑįÑĢ
Ð½Ð³ Ð°ÑĢÑĭÐ½
ĠÐ¾ÑĢÐ¾Ð»ÑĨ Ð¾Ð½
ĠÐ¾ÑĢÐ¾Ð»ÑĨ Ð¶ÑįÑį
Ð¸ÑĥÐ» Ð°Ñħ
ĠÑĤÓ©Ð² Ð¸Ð¹Ð³
ĠÑħÐ¾ÑĢ Ð¸Ð³
ĠÑĤÒ¯Ò¯Ñħ Ð¸Ð¹Ð³
ic on
ĠÑģÐ°Ð» ÑħÐ¸
ĠÐ°Ñģ ÑĥÑĥÐ»ÑĤ
Ð±Ð¾Ð» Ð¾Ð½
ĠÑģÐ°Ð¹ ÑĤÐ°ÑĢ
ĠÑĤÐ°Ð² ÑĮÐ¶ÑįÑį
Ð±ÑįÐ» Ð³ÑįÐ´
ĠÑģÑĥÐ¼ Ð°Ð½Ð´
ĠS QL
ÐŀÑĢ Ð¾Ð»ÑĤ
ÐŀÑĢ ÑħÐ¾Ð½
ĠÐ½ÑįÐ¼ ÑįÐ³Ð´ÑįÑħ
ĠÐ´Ò¯ÑĢ Ð¸Ð¹Ð³
Â» ,
ĠÑħÑĥÐ³Ð°ÑĨ Ð°Ð°Ð³
ĠÑħÑĥÐ³Ð°ÑĨ Ð°Ð°Ð³Ð°Ð°ÑĢ
Ð³Ð°Ñħ ÑĭÐ³
Ð¾Ð± Ð¸Ð½
ĠÐ½ÑĥÑĤÐ°Ð³ Ð»Ð°Ð¶
ac le
Ð¾Ð´Ð¾Ð³ Ð³Ò¯Ð¹
ĠÑĥÑħ Ð°Ð°Ð½Ð´
ĠÑĥÑħ Ð°Ð°Ð»Ð°Ð³
ĠÑĤÒ¯ÑĢ Ò¯Ò¯Ð½Ð´
ĠÑĤÒ¯ÑĢ ÑįÐ¼Ð³Ð¸Ð¹
ĠÐ¼ÑįÑĤ ÑįÑįÑĢ
ĠC oldplay
ĠC PU
ĠÒ¯Ò¯ÑĢ Ð³ÑįÑį
ĠÑħÒ¯Ð½Ð´ ÑĤÑįÐ¹
ĠÐ°Ð´ Ð¼Ð¸Ð½Ð¸ÑģÑĤÑĢÐ°ÑĤÐ¾ÑĢ
ÑĥÐ¶ Ð°Ð½
ĠÐ±Ò¯ÑĤÑįÑįÐ» ÑįÑį
ĠÑĤÑįÐ¼Ð´ÑįÐ³ Ð»ÑįÐ»
Ð»Ð¸ Ð³Ð¸Ð¹Ð½
Ð°Ð½ÑĨ Ð°ÑĢ
Ð°Ð¼Ð± Ð»ÐµÐ¹
ÑģÑĥÑĢ Ð°Ð»ÑĨ
ĠÐ¦ ÑįÑĢÐ³Ð¸Ð¹Ð½
ĠÑħÐ¸Ð¹Ñħ ÑįÑįÑĢ
ĠÑħÐ¸Ð¹Ñħ Ð´ÑįÑį
ĠÓ©Ð³Ó©Ð³Ð´ ÑģÓ©Ð½
ĠÑħÐ°Ð¼Ð°Ð°ÑĢ Ð°Ð½
Ð°Ð°Ñħ Ð°Ð¹
ÐĺÑħ ÑįÐ²ÑĩÐ»ÑįÐ½
Ð¸Ð·Ð¼ Ð´
ÑģÐ½Ð¸Ð¹ ÑħÑįÑį
ĠÑħÐ°Ð» Ð¸Ð¼
ĠÐ½Ð¾Ð¼ ÑĭÐ³
ĠÐ½Ó©Ñħ Ó©Ð½
ĠÐ·Ò¯Ð¹ Ð´
ĠÐ±Ð°ÑĤ Ð»Ð°Ð½
ÐĳÐ°ÑĢ Ñģ
ĠÐ·Ð°ÑħÐ¸ÑĢ Ð°Ð³Ñĩ
ĠÐ°Ð´Ð¸Ð» Ð³Ò¯Ð¹
ĠÑĥÑģ ÑĭÐ³
ÐĶÐ°ÑĢ ÑħÐ°Ð½
ÐĶÐ°ÑĢ Ð°Ð°Ð³Ð¸Ð¹Ð½
Ð¼Ð°Ð³ Ð°Ð´
ĠÐ°Ð¶Ð¸Ð»Ð»Ð°Ð³Ð°Ð° ÑĤÐ°Ð¹
ĠÑħÐ°Ð² ÑĤÐ°Ð½
ĠÐ±Ò¯ÑĤÑįÑįÐ³ Ð´ÑģÑįÐ½
ĠÐ±Ò¯ÑĤÑįÑįÐ³ Ð´Ñħ
ĠÐ±Ð¸ÑĩÐ¸Ð³ ÑĤ
ĠÑħÑĥÑĢÐ´ Ð½Ñĭ
ĠÑħÐ¾Ð½ Ð¾Ð³ÑĤ
ÑĥÐ· ÐµÐ¹Ð½
Ð°Ð°Ð² ÑĤÐ°ÑĢ
ĠÐ¶Ð¸Ð¶Ð¸Ð³ ÑħÑįÐ½
em ent
ÑĤÑĥÐ» Ð³Ð°ÑĢ
ĠÐĲÐ» ÐµÐºÑģÐ°Ð½Ð´ÑĢ
ĠÐ±Ð°ÑĢÐ¸Ð¼ÑĤ ÑĭÐ³
ĠÐ±Ð°ÑĢÐ¸Ð¼ÑĤ Ð°ÑĤ
ĠÑĪÐ¸ÑĢ ÑįÑįÐ½Ð¸Ð¹
ĠÐ¾Ð¹Ð»Ð³ Ð¾Ð¶
ÐľÑįÐ´ ÑįÑįÐ¶
ĠÐ°Ñı Ð»Ð°Ð½
ĠÐ´Ð¾ÑĢ Ð½Ð¾
Ð·Ð¾ÑĢ Ð¸Ð³
ĠÐ±ÑĥÑĨ Ð°Ð°Ð½
ÑħÐ°Ð°Ð½ ÑĤ
ÐµÐ¿ ÑĤ
ÑĤÐ¾Ð´ ÑĢ
ĠÑıÐ²ÑĨ ÑĭÐ³
ĠÑģÐ°Ð½Ð°Ð» Ð°Ð°ÑĢ
ĠÒ¯Ñģ Ð³ÑįÑįÑĢ
Ð´ÑĥÑĢ ÑģÐ³Ð°Ð»
ĠÑħÑıÐ·Ð³Ð°Ð°ÑĢ ÑĭÐ³
ĠÐ¼ÑįÑĢÐ³ÑįÐ¶ Ð¸Ð»ÑĤ
ĠÑĤÑĥÑĢÑĪ Ð»Ð°Ð³Ð°
ĠÐºÐ¾Ð´ ÑĭÐ³
ĠÐºÐ¸Ð½ Ð¾Ð³
ĠÑħÓ©Ð´Ó©Ð»Ð³Ó©Ó©Ð½ Ð´
ĠÑħÓ©Ð´Ó©Ð»Ð³Ó©Ó©Ð½ Ð¸Ð¹Ð³
ĠN et
ĠÑĥÐ»Ð¸ÑĢ Ð»ÑĭÐ½
ĠÐ³Ð°Ð½ÑĨ Ð°Ð°ÑĢ
ĠÐ³Ð°Ð½ÑĨ ÑħÐ°Ð½
Ð»Ð¾Ð³Ð´ Ð¾Ð¶
ĠÐ´Ð°ÑĢÐ°Ð°Ð» Ð°Ð½
Ð¸Ð°Ñģ Ð°Ð°
ĠÐ°Ð¼ÑĮ ÑĤÐ°Ð´
ÑĤÐ°Ñģ Ð°Ð»Ð´
ĠÑħÐ°Ð¹ÑĢ ÑĨÐ°Ð³
Ð£ÑĢ ÑĮÐ´
ĠÑģÐ¾Ð½Ð¸ÑĢÑħ Ð¾Ð»
ĠÐ¼Ð¾ÑĢ Ð¸Ð½
ĠÑĪÐ°ÑĢ Ð³Ð°Ð»
ĠÐ±Ð°Ð¹Ð»Ð´ Ð°Ð½
ĠÐ½ÑĥÑĤÐ³ Ð°Ð°ÑĢ
Ð±Ð°Ð¹ÑĢ ÑĪ
ĠÑĤÐ°Ð»Ð´ Ð°Ð°
ĠÐ´Ð¾Ð²ÑĤ Ð»Ð¾Ñħ
ÑĥÐ½Ðº ÑĨÐ¸Ð¹Ð½
ĠÑĤÑĥÐ½ ÑħÐ°Ð³
ĠÑĥÐ»Ð°Ð¼Ð¶ Ð»Ð°Ð»ÑĤÐ°Ð¹
ÑįÐ¹Ð½ ÑĤÐ±Ð¾Ð»
tr ol
ĠÐ´Ò¯Ò¯ÑĢ Ð³ÑįÑģÑįÐ½
Ð½ÑįÐ¼ ÑįÐ³Ð´
ĠÑģÑĥÐ² Ð¸Ð»
ĠÑįÑĢÑįÐ³ ÑĩÐ¸Ð½
ĠÑĪÐ°Ð»Ð³Ð°ÑĢ ÑģÐ°Ð½
ĠÑĥÑĢÑģÐ³Ð°Ð» ÑĭÐ½
ĠÑĥÑĢÑģÐ³Ð°Ð» ÑĭÐ³
ĠÐ¼ÑįÐ´ÑĢ ÑįÑħ
Ð¸ÑĦ ÑĤ
ĠÑĤÐ¾Ñģ Ð½Ñĭ
ĠÐ´Ð°Ð¹ÑĢ Ñĩ
ĠÑĨÑĥÐ³Ð» ÑĥÑĥÐ»Ð³Ð°
ĠÐ´ÑįÐ»Ð³ÑįÑĢ ÑģÑįÐ½
ĠÐ´ÑįÐ»Ð³ÑįÑĢ ÑįÐ½Ð³Ò¯Ð¹
ĠÐ±Ð¾Ð´Ð»Ð¾Ð³ ÑĭÐ½
ĠÐ´Ð°Ð²ÑħÐ°ÑĢ Ð³Ð°
ĠU nix
ĠÓ©ÑĢÐ³ Ó©Ð¼Ð¶Ð¸Ð»
ĠÑħÓ©Ð´ Ð»
ĠÑĪÐ°Ð»Ð³ Ð°Ñħ
ÐĶÐ°Ð» Ð°Ð¹
ĠÑģÑĥÑĢÐ²Ð°Ð»Ð¶ Ð¸Ð´
Ð¥ÑįÐ´ Ð¸Ð¹
ĠÑħÐ¸ÑĩÑįÑįÐ» Ð¸Ð¹Ð½
ĠÐ½Ð°Ð¹Ð¼ Ð°Ð½
ĠÐ°Ð²ÑĤÐ¾Ð¼ Ð°ÑĤ
tic s
ĠÑģÐ¾Ð½Ð³ÑĥÑĥÐ» Ð¸Ð¹Ð½
ĠÐ´Ð¾Ð¾ÑĢ Ñħ
ĠÓ©Ð½Ð³Ó©ÑĢ ÑģÓ©Ð½
ĠÐ±Ð°Ð¹ÑĢÐ» Ð°Ð»Ð´
Ð´ÑįÑįÑĢ ÑįÐ¼
ÑħÐ°ÑĢÐ¸Ð»ÑĨ Ð°Ð°
ĠÐ´ÑįÐ²ÑĪ ÑģÑįÐ½
ĠÐ´ÑįÐ²ÑĪ Ò¯Ò¯Ð»ÑģÑįÐ½
ĠÑĥÑĥÐ»Ð· Ð°Ð»ÑĤ
Ó©ÑĢÑĤ Ñį
ÐľÐ¾ÑĢ Ð¸Ð½
Ð¡Ò¯Ñħ Ð±Ð°Ð°ÑĤÐ°ÑĢÑĭÐ½
ÑħÓ©Ð´ Ð»
ĠÑĤÑĥÑĥÑĢ Ð²
ĠÑĤÑĥÑĥÑĢ Ð²Ð¸
ÐĹÑĥÑĢ Ð°Ð³
Ð±ÑĥÑĢÐ³ ÑĤ
ĠÑģÑĥÑĥÐ» Ð³Ð°ÑģÐ°Ð½
ĠÑĥÑĥÑģ Ð´Ð°Ð³
ĠÑĥÑĥÑģ Ð¼Ð°Ð»
ĠÑĥÐ³Ñģ Ð°Ð°Ð½Ñĭ
ĠÑħÐ°Ð°Ð» Ð³Ð°
ÐĿÐ°Ð¹ÑĢ Ð°Ð¼Ð´Ð°Ñħ
ÐºÐ¾Ð¼Ð¿ Ð°Ð½Ð¸
ÐĲÐ½Ð³ Ð»Ð¸Ð¹Ð½
ĠÑĤÓ©ÑĢÐ» Ó©Ó©ÑĢ
ĠÑĦÐ¸Ð»Ð¾ÑģÐ¾ÑĦ Ð¸Ð¹Ð½
ill bo
ÑħÐ¾Ð¾Ð» Ð¾Ð¹
ĠÐĳÐ°Ð¹ Ð³ÑĥÑĥÐ»
ĠÓ©ÑĢÑĤ ÑģÓ©Ð½
Ð±Ò¯Ñģ Ð³Ò¯Ð¹
ĠÐ¶Ð°Ð³ÑģÐ°Ð°Ð»ÑĤ ÑĭÐ³
ĠÑħÑįÑģÐ³ Ò¯Ò¯Ð´Ð¸Ð¹Ð³
Ð³Ð°Ð»Ð´ Ð°Ð¹
ÐĳÐĿÐ¥ ÐĲÐ£
Ð¥Ð°ÑĤ Ð°Ð½
ĠÑĥÑĢÑģ Ð´Ð°Ð³
ÐŃÐ½ÑįÑĤÑħÑįÐ³ Ð¸Ð¹Ð½
ĠÐŃÐ» ÑĩÐ¸Ð½
ĠÑĥÑĤÐ°Ñģ Ð³Ò¯Ð¹
ĠÑĤÐµÑħÐ½Ð¾Ð»Ð¾Ð³ Ð¸Ð¹Ð³
ÑĤÑĥÐ½ ÑħÐ°Ð³
ĠÐ·Ð¾Ñħ Ð¸Ñħ
Ð°ÑĤÑĢÐ¸ ÑĨ
ĠÐŃÐ½ÑįÑĤÑħÑįÐ³ Ð¸Ð¹Ð½
HT TP
ÑĤÐ¾ÑħÐ¸ Ð¾Ð»Ð´
ĠÑģÑĥÐ´Ð°Ð» Ð³Ð°Ð°Ð³Ð°Ð°ÑĢ
ĠÐ¥Ò¯Ð½Ð½Ò¯ Ð³Ð¸Ð¹Ð½
ĠÐ½Ó©Ð»Ó©Ó©Ð³ Ó©Ó©ÑĢ
ĠÐ¸Ð½Ð´ ÐµÐºÑģ
Ġth e
Ð¸ÑģÑįÐ»Ð´ ÑįÐ»ÑĤ
ÐĸÐ°Ð¼ ÑĬÑıÐ½
ÑĤÑĥÑħ Ð°Ð¹
ÐµÐ¾ÑĢ ÐµÐ¼
Ð¡Ð¸ÑģÑĤÐµÐ¼ Ð¸Ð¹Ð½
ÑĤÒ¯Ð² ÑĪÐ¸Ð½
ĠÐºÐµÑĢÐ½ ÐµÐ»
ĠÐ¿ÑĢÐ¾ÑĨ ÐµÑģ
ĠÐ´ÑĥÐ³ ÑĥÐ¹Ð½
Ð¸Ð´ÐµÑĢÐ» Ð°Ð½Ð´
ĠÐĶÑĥÐ½Ð´ Ð°Ð´
Ð¸Ð²ÐµÑĢÐ¿ Ò¯Ò¯Ð»
ÐĴÐ»Ð°Ð´ Ð¸Ð¼Ð¸ÑĢ
Ð¡ÑĥÐ´Ð»Ð°Ð° ÑĩÐ¸Ð´
illbo ard
A B
A pp
F I
G N
G en
G oogle
I A
I V
M or
N ew
P h
S H
T V
a il
a ke
c us
d er
i e
i ew
l d
l ay
n a
o od
p ro
p ort
s u
s ch
s erver
u ter
Ñ ī
â Ī
Ġ '
Ġ 32
Ġ 95
Ġ Ð°Ð½Ð´
Ġ Ð¾Ñĳ
Ġ 2018
Ġ Ð¸Ñĩ
Ġ Ó©Ð²Ð»
Ġ ÑįÐ³Ñĩ
Ġ Ò¯Ð¹Ð¼
Ġ https
Ð° ÑİÑĥÐ»
Ð½ Ð¾ÑĢ
Ð½ Ð°Ð¹Ð´
Ð½ ÐµÑģÑĤ
Ð½ Ð°Ð²Ñĩ
Ð½ ÑıÐ³
Ð½ Ð°Ð¹ÑĤ
Ð½ ÑıÐ³ÑĤ
Ñį ÐºÑģ
Ð³ ÑĥÑĥ
Ð³ ÑĥÑĥÐ´ÑĤÐ°Ð¹
Ð» Ò¯Ò¯
Ð» Ò¯Ò¯Ð»ÑģÑįÐ½
Ð» ÐµÐºÑģ
ÑĢ Ð°Ð°Ñģ
ÑĢ Ð°Ð·
ÑĢ Ð¸ÑĤ
ÑĢ ÑįÐ³Ñĩ
Ð¸ Ð¾Ð¼
Ð¸ Ð¾Ð´
Ð´ Ð²
Ð´ Ò¯Ò¯
Ð´ ÑįÑĢ
Ð´ Ð´Ð°Ð³
Ð´ Ò¯Ð½
Ð´ ÑĥÑĥÐ»Ð¶
Ð´ Ð¾Ð»Ð»
Ð´ ÑįÐ²ÑģÐ³ÑįÑĢ
Ð´ Ð¾Ð¼Ð¾Ð³
Ñĥ ÑįÑĢ
Ñĥ ÑĦ
Ò¯ Ð³Ò¯Ð¹
Ò¯ Ð½Ñį
Ò¯ ÑĤÑįÐ½
Ò¯ ÑĪÐ¸Ð¼
ÑĤ Ð¸Ð¹Ð³
ÑĤ Ð°Ð½Ð´
ÑĤ ÐµÐ»
ÑĤ Ð¸Ð²
ÑĤ Ð¾Ð¿
ÑĤ ÐµÐ»ÐµÐ²Ð¸Ð·
Ñģ Ð°Ð¹Ð½
Ñģ Ò¯Ð»Ð´
Ñħ ÑģÑįÐ½
Ñħ ÑĤÐ°Ð¹
Ñħ Ó©Ó©ÑĢ
Ñħ Ò¯Ò¯Ð½
Ñħ ÑĥÐ¼
Ñħ Ð¾ÑĢÑħÐ¾Ð¹
Ó© ÑĩÐ¸Ð½
Ð¼ Ð¸ÑĢ
Ð¼ ÐµÐ½
Ð¼ Ð°Ðº
Ð¼ ÑįÐ¹Ð»
Ð¼ ÑĥÑĪÐ³
Ð¼ ÐµÐ½ÐµÐ¶Ð¼ÐµÐ½ÑĤ
ĠÐ± Ñį
ĠÐ± ÑĥÑĥÐ½Ñĭ
ĠÐ± Ó©Ó©Ð½
Ð°Ð½ Ð°Ð°ÑĢ
Ð°ÑĢ Ð°
Ð°ÑĢ ÑĭÐ³
Ð°ÑĢ ÐµÐ¹
Ð°ÑĢ ÑĮÑģ
Ð°ÑĢ Ð¸Ð»Ð¶
Ñĭ ÑĢ
ĠÑħ ÑįÑį
ĠÑħ Ð°Ð°Ð»ÑĤ
ĠÑħ Ð°Ð°Ð³Ñĩ
Ð¶ ÑĥÑĥÐ»
Ð² Ñģ
Ð² Ð°Ð°
Ð² Ð°ÑĢÑĤ
Ð² ÐµÐ½ÑĨ
Ð°Ð» ÑĮÑĨ
ÑĥÑĥ Ð³Ð¸Ð¹Ð½
Ðµ Ð·Ð°ÑĢ
Ð°Ð³ ÑĨ
Ð°Ð³ ÑĥÑĥÐ»
Ð°Ð³ ÐµÐ½ÑĤ
Ð¾Ð½ ÑĭÐ³
Ð¾Ð½ ÑħÐ¸Ð»
Ñĩ ÑĤÐ¾Ð¹
Ñĩ Ð»Ð°Ð³Ð´Ð°Ñħ
ĠÑĤ ÑĥÑıÐ°
ĠÑĤ Ò¯Ò¯Ð½ÑĤÑįÐ¹
ĠÐ½ ÑįÑħÑįÐ½
ÑįÐ³ ÑĩÐ´Ð¸Ð¹Ð½
Ð¾ÑĢ Ð¾Ð»Ð´Ð»
Ð± Ó©Ó©
Ð± Ð¾ÑĤ
Ð± Ð°ÑĪ
Ð± Ð°Ð½Ð¸
Ð± Ò¯ÑĢÑįÐ½
Ð± Ð»Ð¾Ðº
Ð± Ð°ÐºÑĤÐµÑĢ
ÑĨ ÑįÐ»
ÑĨ Ð¾Ð³ÑĤ
ÑĨ Ð°Ð°ÑĪ
ÑĨ Ð°ÑģÐ½Ñĭ
ÑĨ Ð°ÑħÐ¸Ð»Ð³Ð°Ð°Ð½
ÑĨ Ð¾Ð¼Ð¾Ð³
ĠÐ´ ÑįÐ¼
ĠÐ´ Ð¾Ð¾Ð³
ĠÐ´ Ð¾ÑĢÐ½Ð¾Ð´
98 70
ÑĪ Ð¾Ð¾
ÑĪ Ð¶ÑįÑį
ÑĪ Ò¯Ò¯Ñħ
ÑĪ Ð°ÑĢÑħ
Ð¸Ð» Ð¾Ð½
Ð¸Ð» ÑįÑĢ
Ð· Ð°
Ð· Ð¾Ñħ
Ð· Ð°Ð¹Ð»
Ð· Ð°ÑĢÐ»
ĠÐ³ Ò¯Ð½Ð¸Ð¹
ĠÐ³ Ð¾ÑĨÐ»Ð¾Ð»
Ð°Ð¼ Ð°
Ð°Ð¼ ÑĮÑģÐ³Ð°Ð»
Ð°Ð¼ Ð´Ð»ÑĭÐ½
ĠÑģ Ò¯Ò¯
ĠÑģ Ò¯Ñģ
ĠÑģ Ð¸Ð¼ÑĦ
or ity
Ðº ÑĢÐ°
Ð°Ñħ Ð¸ÑĢ
ĠÐ· ÑįÑĢ
ĠÐ· Ð°Ð°Ð³
ĠÐ· Ð°Ð´Ð°ÑĢ
ĠÐ· Ð¾Ð½ÑħÐ¸Ð»
Ó©ÑĢ Ð³Ó©Ð½
Ð¾Ð³ Ð¾Ð¹
ÑģÐ°Ð½ ÑĭÐ³
ÑģÐ°Ð½ Ð³Ò¯Ð¹
ÑįÑħ ÑįÐ»
Ó©Ð³ Ð´Ð»
ĠÐ¼ Ð¸Ðº
ĠÐ¼ Ð°ÑģÑĤÐµÑĢ
ĠÐ¼ ÑįÐ»ÑħÐ¸Ð¹
Ñı ÑģÑĤ
Ñı Ð»Ð°Ð³
Ð°Ð² ÑĤÐ°ÑĢ
94 37
Ð¸ÑĢ Ð¸Ð½
Ð¸ÑĢ ÑįÐ¼
Ð¸ÑĢ Ð³ÑįÐ´
ÑįÐ¼ Ñħ
Ð¥ Ð¾Ð½
Ð¥ Ò¯Ò¯
Ð¥ Ð°Ð»Ð¸Ð¼Ð°Ð³
Ð¥ ÑĥÐ±Ð¸Ð»Ð°Ð¹
Ð¿ Ð¸Ð»
Ð¿ ÑĢÐ¾ÑĨ
ĠÑĪ Ð¸ÑĦÑĢ
Ð¢ Ð¾Ð½
Ð¢ ÐµÑĢ
Ð¢ Ð¸Ð¼
Ð¢ ÑĥÐ½
Ð¢ Ð°Ð¹Ð»
Ð¢ Ð¾Ðº
Ð¢ Ð¾Ð»Ð³Ð¾Ð¹
Ð¢ Ð°ÑĤÐ°ÑĢ
Ð¢ Ð°Ð½Ð³ÑĥÐ´
Ð°ÑĤ Ð¾Ð¼
Ó©Ó© ÑģÓ©Ð½
ÐĲ ÑĤÐ¾Ð¼
Ðľ ÑįÐ½
Ðľ Ð°Ð¼
Ðľ Ð¾Ð³
Ð¶ÑįÑį Ð³Ò¯Ð¹
Ðĳ Ð¸ÑĤ
Ðĳ Ð¸Ð·
Ðĳ Ò¯Ð»
Ðĳ ÑıÐ¼
Ðĳ Ð°Ð´Ð°ÑĢ
ĠÑĨ ÑįÑįÑĢ
ĠÑĨ Ð°Ð°Ñģ
ĠÑĨ Ð¾Ð¼ÑĭÐ½
ÑģÑĤ ÑĢÐ¸
ĠÐ¾ÑĢ ÑĥÑĥÐ»Ð°Ð½
ĠÐ¾ÑĢ ÑĥÑĥÐ»Ð°Ð»ÑĤ
ĠÐ¾ÑĢ Ð½ÑĭÐ³
ĠÐ¾ÑĢ Ð»Ð¾Ð³Ñĩ
Ð¡ Ò¯Ð¼
Ð¡ Ð°Ð½ÑħÒ¯Ò¯Ð³Ð¸Ð¹Ð½
ĠÑĩ Ð¾Ð½Ð¾
Ð°Ð»ÑĤ Ð³Ò¯Ð¹
ÑģÐ¾Ð½ Ð¸Ð½
ÑģÐ¾Ð½ Ð³Ò¯Ð¹
Ð¸Ð´ Ð°
Ð¸Ð´ ÑĢÐ¸Ñħ
ĠÐ¾Ð½ Ð¾Ð²Ñĩ
ÑĥÑģ Ñģ
ĠÑı Ð³Ð°Ð°Ð½
ÐĿ ÐµÐ¹
ÐĿ ÑįÐ³Ð´
ÐĿ Ð¾ÑĢÐ²
ÐĿ ÐĳÐĲ
ÐĶ Ð¾Ð»
ÐĶ Ð¾Ð»Ð³
ÐĶ Ð¾ÑĢÐ½
Ð¸Ðº Ð¾
ÑįÑįÑģ Ð¸Ð¹Ð³
ÑįÑįÑģ Ð½Ð¸Ð¹
ÐµÐ½ Ð½
ÐµÐ½ Ð¶
ÐµÐ½ Ðº
ÐµÐ½ ÑĤÑĢ
ĠÐ±Ò¯ Ð¶Ð³Ð¸Ð¹Ð½
Ð¾ÑĤ Ð¾Ð½
Ð¾ÑĤ Ð¸Ðº
Ð¾ÑĤ Ð¸Ð²
Ð¾ÑĤ ÐµÑħÐ½
Ð°Ð»Ð´ Ð°Ð¶
Ð°ÑĪ Ð¸Ð³
Ð°ÑĪ Ð½Ð¸Ðº
Ñİ Ð³
Ñİ ÑĤÐµÑĢ
Ñİ Ð½Ñħ
Ñİ Ð°Ð½ÑĮ
Ðĵ ÑįÐ³
Ðĵ Ð°Ð´
Ðĵ Ð¾Ð¼
Ðĵ Ð¾Ð²ÑĮ
ÑĥÐ² Ð°
Ð£ ÑģÐ°Ð½
Ð£ ÑĤÐ°Ñģ
Ð°Ð½Ð´ Ð°
ÑĦ Ð¸Ð·
Ðļ ÐµÑĢ
Ðļ ÐĴ
Ðļ Ð°Ð¿
ĠÑħÐ°Ð¼ ÑĤÑĢ
Ð¾Ñģ Ð»Ð¾Ð²
ĠÐ³Ð°ÑĢ Ð°Ð»
ĠÐ³Ð°ÑĢ Ð°Ð²
ĠÐ³Ð°ÑĢ Ð°Ð»ÑĤÑĭÐ½
ĠÐ³Ð°ÑĢ Ð°Ð°Ð³Ð°Ð°
ĠÐº Ð°ÑĢ
ĠÐ°Ð¶ Ð¸Ð³Ð»Ð°Ð³Ð´
Ð°Ñı Ð½Ñĭ
Ó©Ñħ Ð¸Ð¹Ð½
Ó©Ð¼ Ñģ
Ð°Ð· Ð·
Ðĺ Ð£
ĠÐľ ÐŃ
Ð°Ð½Ð³ ÑĥÐ¹Ð½
Ó©Ð´ ÑĢ
Ó©Ð´ Ó©ÑĢ
ĠÐ°Ð¼ Ð¶Ð¸Ð»
ĠÐ°Ð² Ð°ÑħÐ°Ð´
Ðŀ Ð³
ĠÐ°ÑĢ Ð¼Ð¸Ð¹Ð³
ĠÐ±Ð°Ð¹ÑģÐ°Ð½ Ð³Ò¯Ð¹
ĠÐ¥ ÑĮÑİ
ĠÐ¥ Ð°Ð»Ð¸Ð¼Ð°Ð³
Ó©Ó©Ð´ Ó©Ð³
ÑĥÐ½ Ð°Ð¹
ĠÐĲ Ð´
ĠÐĲ ÑĤ
ĠÐĲ ÑİÑĥÐ»Ð³Ò¯Ð¹
ÐµÐ¼ ÑĮÐµÑĢ
ĠÑħÑįÑĢÑįÐ³ Ð»ÑįÐ½
ĠÑħÑįÑĢÑįÐ³ Ð»ÑįÑģÑįÐ½
ĠÑįÑĢ Ð³Ð¸Ð¹Ð½
ĠÑįÑĢ ÑħÐ¸Ð¹Ð½
ĠÓ©Ó©ÑĢ ÑĩÐ¸Ð»ÑģÓ©Ð½
ĠÐĳ Ð°Ð»
ĠÐĳ ÐĿ
ĠÐ±Ð°Ð³ ÑĥÑĥÐ´
ÑĥÑħ Ð°Ð»
ÐŁ Ð°ÑĢÐ»Ð°Ð¼ÐµÐ½ÑĤ
ÐŁ Ð°ÑĥÐ»
ÐµÑĤ ÑĢÐ¸Ð¹Ð½
Ó¨ Ð»Ð³
ĠÐ´Ð°ÑĢ Ð°Ð½Ð³ÑĥÐ¹
ĠÑįÑħ Ð¸Ð¹Ð½
Ò® Ñħ
Ò® Ò¯ÑĢ
ĠÐ¿ ÑĢÐ¾ÑĤ
ĠÐ¿ Ð»Ð°ÑĤÑĦÐ¾ÑĢÐ¼
Ð¨ Ð¸
Ð¨ Ð¸Ð³
ĠÐ±Ò¯ÑĢ ÑįÑįÑĢ
er v
Ð±Ð°ÑĢ Ð¸Ð²
Ð±Ð°ÑĢ Ð¸Ð»Ð³Ð°
ĠÐ½ÑįÑĢ Ð¸Ð¹
Ġ19 30
Ġ19 40
Ġ19 46
Ġ19 79
Ġ19 70
Ġ19 80
Ġ19 89
Ð´Ð» Ð°Ð°Ñģ
Ðĸ Ð¾ÑĢÐ¶
ÑįÑįÐ´ Ò¯Ð¹
Ð¸Ð³Ð» ÑįÑħ
ĠÐ¡ Ð¸
ĠÐ¡ Ò¯Ñħ
ĠÐ¡ Ð¸Ð±
ĠÐ±Ð°Ð¹Ð³ÑĥÑĥÐ» Ð»Ð°Ð³Ð°Ð´
ÐĽ Ð¾Ð½Ð´
ÐĽ ÑħÐ°Ð³
ĠÑıÐ² Ð°Ð°
ĠÑıÐ² ÑģÐ°Ð°ÑĢ
ĠÑıÐ² Ð°ÑħÐ´Ð°Ð°
Ð°Ð¹Ð» Ð°Ñħ
Ð¸Ð· Ð°Ð½ÑĤ
ĠÓ©Ð½ Ó©Ó©
ĠÓ©Ð³ Ò¯Ò¯Ð»Ð´ÑįÐ³
ĠÑĤÑĥÑģ Ð³Ð°Ð¶
ÐµÑģ Ð¸Ð¹Ð½
ÑįÑįÐ½ Ò¯Ò¯Ð´
ĠÐ¢ ÑįÐ½
ĠÐ¢ Ð°Ð¹Ð»
Ò¯Ò¯Ñħ ÑįÐ¹
ĠÐ±Ò¯ÑĤ ÑįÑįÐ¶
in ter
Ð°Ð°Ð» Ð°Ð¹
Ð°Ð°Ð» Ð°Ñħ
Ð³Ð°Ð½ ÑĨ
Ð²Ð°ÑĢ Ð´
ĠÐ±Ñĥ Ð´Ð°Ð³
ĠÑģÑĥÑĢ Ð°Ð³Ñĩ
ĠÐ´ÑįÑįÑĢ ÑįÐ¼
ĠÑĤÑĥÐ» Ð°Ð°Ð½Ñĭ
ĠÐ¸Ð» ÑįÑĢÑģÑįÐ½
ÑĩÐ¸Ð´ Ð¸Ð¹Ð½
Ð³Ð°ÑĢ ÑĨ
Ðł ÐĲ
Ðł ÐµÐ¹
Ð§ Ð°Ð¿
ĠÐļ Ð°Ð·
Ð¾Ð»ÑĤ ÑĭÐ³
Ð´Ð¾Ð³ Ð¸Ð¹Ð½
ÑĪÐ¸Ð½ Ð³ÑįÐ½
ĠÓ©ÑĢ Ð½Ó©
Ð¸Ñĩ Ð°ÑĢÐ´
Ð´Ð°Ð» Ð°Ð¹
ĠÑĦ ÑĢÐ¾Ð½
ĠÑĦ ÑĥÐ½ÑĤ
ĠÑĦ Ð¸Ð·Ð¸ÐºÐ¸Ð¹Ð½
an c
an e
an ce
ĠÐ·ÑįÑĢÑįÐ³ ÑĨÑįÐ½
ĠÐ£ Ð¼Ð°ÑĢÐ´
Ó©Ð»ÑĤ Ð¸Ð¹Ð³
ĠÑĤÐ¾Ð³ÑĤ Ð¾Ð¾Ð»
ĠÑĥÐ´ Ð¼ÑĭÐ½
ĠÐ´Ð°Ñħ Ð¸Ð½Ð´
ĠÐ·Ð¾ÑĢ ÑĮÑģÐ¾Ð½
ĠÐ´ÑįÐ» ÑħÐ¸Ð¹Ð³
en tic
ĠÐ·Ð°ÑĢ Ð»Ð°ÑģÐ°Ð½
ĠÐĿ ÑĮÑİ
ĠÒ¯Ò¯Ñģ ÑĩÑįÑį
ĠÐŁ Ð¾Ð»
ĠÐ³ÑįÑĢ ÑįÑįÐ»
ĠÐ·ÑĥÑĢ Ð°Ð°
ĠÐ·ÑĥÑĢ Ð°Ð³ÑĤ
ĠÒ¯ÑĢ Ð¶
ĠÐ±Ð¾Ð´ Ð¾Ð»
ĠÐ´ÑĥÑĥ Ð³Ð°Ð°
ĠÑıÐ» Ð³Ð°Ñħ
ĠÑįÑĢÑħ Ð»ÑįÐ½
Ð¥Ð°ÑĢ ÑĮÑĨ
ĠÐ³Ð°Ð´ ÑĥÑĥÑĢ
ĠÐ·Ò¯Ð¹Ð» Ò¯Ò¯Ð´
ĠÑĤÐ¾Ð´Ð¾ÑĢÑħÐ¾Ð¹ Ð»Ð¾Ð³Ð´
ĠÐ° ÑģÐ°Ð½
Ð°Ð»Ð³ Ð°Ð¶
Ð°Ð»Ð³ Ð°Ð°Ð½Ð´
ĠÐ°Ð³ ÑĥÑĥÐ»Ð°Ñħ
ĠÐ² ÐµÐºÑĤÐ¾ÑĢ
ĠÐ² Ð¸ÑĢÑĤÑĥÐ°Ð»
ĠÐĹ ÐµÐ»
ĠÑģÑĥÐ´ Ð»Ð°Ð»
ĠÑģÑĥÐ´ Ð°Ð»Ð¶
Ð¾ÑĨ Ð¸ÑĤ
ÐµÐ´ Ð¸Ð¹Ð½
ĠÐ´Ð°Ð² Ð°Ð½
ĠÐ±Ò¯Ñħ ÑįÐ»Ð´
ĠÐ°Ð»Ð´ Ð°Ð¶
ĠÑħÑĥ Ñĩ
ĠÐ·Ð°Ñħ Ð¸Ð°Ð»
ĠÑħÑįÐ² Ð»ÑįÐ³Ð´ÑģÑįÐ½
ĠÑħÑįÐ² Ð»ÑįÐ³Ñĩ
ÐĲÑĢ Ð´
ÐĲÑĢ Ð²Ð°Ð½
ÑĤÑįÐ½ Ð³Ð¸Ñģ
ĠÒ¯Ð» Ð³ÑįÑĢ
ĠÒ¯Ð» Ð´Ð¶ÑįÑį
Ð¸Ð³Ð´ ÑįÐ½
Ð°Ð± ÐµÑĤ
ÑĤÐ°Ð» Ð±Ð°Ð¹
ĠÑħÐ¾Ð¹ ÑĤ
ĠÐĸ Ð°Ð½
ĠÑģÐ°Ð» ÑĪÐ³Ò¯Ð¹
ĠÑĪÐ¸Ð½Ñį Ñĩ
ĠÑįÐ¼ Ð¸Ð¹Ð½
ĠÑįÐ¼ Ñĩ
ĠÐ¨ Ð¸
ĠÐ¨ Ð¸Ð½Ð¶
ĠÑĤÐ°Ð² Ð¸Ð³Ð´ÑģÐ°Ð½
ÑįÐ½Ñħ Ò¯Ò¯
st er
ĠÐ±Ð°Ð¹Ð´Ð» Ð°Ð°
ĠÑĥÑĥÐ» Ð°Ð½Ð´
ĠÑģÑĥÐ¼ ÑĭÐ³
ol og
ĠÑĤÐ¾Ð¾ ÑĤÐ¾Ð¹
ÐŀÑĢ Ð´
Ð¾Ð¿ Ð»Ð°Ð·Ð¼ÑĭÐ½
ĠÐ½ÑįÐ¼ ÑįÑħ
ĠÐ´Ò¯ÑĢ ÑįÑįÑĢ
ĠÐ¤ ÑĢÐ°Ð½
ĠÓ©Ð´ Ð³Ó©Ó©
ĠI V
ĠI II
Ð¾Ð± ÐµÐ»Ð¸Ð¹Ð½
Ò¯Ð· Ò¯Ò¯ÑĢ
ÑĪÐ¸Ð³ ÑĩÐ¸Ð´
ĠÐ¼Ó©ÑĢ Ð¸Ð¹Ð³
ĠÐ¼Ó©ÑĢ Ð´Ó©Ð½
ĠC h
ÑĶ Ð´
ÐŃÑĢ Ò¯Ò¯Ð»
ĠÑħÐ°Ð¼Ð³Ð°Ð°Ð» Ð°Ð»ÑĤÑĭÐ½
ĠÐ°Ð»Ð± ÑĭÐ³
Ð³Ð°Ð°Ð³ Ð°Ð°
ĠÒ¯Ð½ ÑįÑħÑįÑįÑĢ
ĠÑĪÐ°Ð°ÑĢÐ´ ÑģÐ°Ð½
ĠÑģÐ¾Ð½Ð³ Ð¾Ð½
ĠÑģÐ¾Ð½Ð³ Ð¾Ð³Ð´Ð¾Ð¶
ĠÐ§ Ð¸Ð½
ĠÐ§ Ð°Ð¿
Ò¯Ñħ ÑįÑĢ
ĠÑĪÐ¸Ð¹ Ð´ÑįÑħ
ĠÑĪÐ¸Ð¹ Ð´ÑįÐ»
ĠÑħÓ©ÑĢ Ñģ
ĠÑħÓ©ÑĢ ÑģÐ½Ð¸Ð¹
ÑħÑįÑĢÑįÐ³ Ð¶
ÑħÑįÑĢÑįÐ³ Ð»ÑįÑį
ÑįÐ²Ñĩ ÑĤÑįÐ¹
ĠÐ¾ ÑİÑĥÐ½Ñĭ
us ic
Ð³ÑįÐ´ ÑįÐ¹
ĠÐ±Ð°Ð³ÑĤ Ð°Ð¶
Ð°Ð½ÑĨ Ð°Ð½
ĠÑĤÐ¾ÑħÐ¸ Ð¾Ð»Ð´Ð»
ÑħÒ¯ÑĢ ÑįÑįÐ»ÑįÐ½
ĠÑĥÐ½ Ð°Ð´Ð°Ð³
ĠÑĨÑįÑĢÑįÐ³ ÑĤ
Ð¼ÑįÐ» Ð¸Ð¹Ð³
ĠÑĤÐ°ÑĤ Ð°Ñħ
ĠÐ·Ð¾ÑĢÐ¸ÑĥÐ» Ð°Ð»ÑĤÐ°Ð°ÑĢ
ĠÐ´Ð°Ð» Ð°Ð½
ĠÐ´Ð°Ð» Ð°Ð¹Ð´
ĠÐ¸Ð´ ÑįÑį
ĠÐ¸Ð´ ÑįÑĪ
ÑĤÓ©ÑĢ Ó©Ð³ÑĩÐ¸Ð¹Ð½
ĠÐ³Ò¯Ð¹ÑĨÑįÑĤÐ³ ÑįÑģÑįÐ½
ĠÑįÑĢÐ³ ÑįÐ»Ð·
ĠÐ±Ð°ÑĤ Ð»Ð°Ð³Ð´ÑģÐ°Ð½
ÑĤÓ©Ð» Ó©Ð²Ð»Ó©Ð»ÑĤ
ĠÐ±Ð¾Ð»Ð¾Ð²ÑģÑĢ ÑĥÑĥÐ»Ð°Ð»ÑĤ
ÑħÑĥÑĢ Ð°Ð»Ð´
ĠÑĤÐ°Ð½ Ð¸Ñħ
ĠÑĩÐ°Ð½ Ð³Ð°
ÑģÐ» Ð°Ð½Ð³
ĠÑĤÓ©Ð³ ÑĢÓ©Ð³
ÐŃÐ´ Ò¯Ð³ÑįÑį
Ð® Ñĥ
ĠÑĤÐ°ÑĢ Ð¸Ð°Ð½Ñĭ
Ð±Ò¯ÑĢ ÑĤÐ³
Ð±Ò¯ÑĢ ÑĤÐ³ÑįÐ»
ĠÑĩÑĥÑħ Ð°Ð¼
ÑĢÐ°Ð´ ÑĥÑģ
ÑĢÐ°Ð´ Ð¸Ð¾
Ð·Ð°ÑĢ Ñĩ
ĠÐ·Ð°ÑħÐ¸ÑĢ Ð°Ð»
ĠÐ°ÑģÑĥÑĥÐ´ Ð°Ð»Ð´
ĠÑĪÐ°ÑĪ Ð¸Ð½ÑĤ
Ð´Ð°Ð² ÑĤÐ°Ð¼Ð¶
ĠÑħÐ¾ÑĪ ÑĥÑĥÐ³
ĠÑĤÑįÑĢÐ³ Ò¯Ò¯Ð»Ð¶
Ð¸Ð»Ð» Ð°
ĠÐ°ÑĢÐ´ ÑĩÐ¸Ð»ÑģÐ°Ð½
Ð±Ò¯ÑĤ ÑĨ
ĠÑħÐ°ÑĢÑĮÑĨ Ð°Ð°ÑĤÐ°Ð¹
Ð±Ð¾Ð´ Ð»Ð¾Ð³
ĠÑħÐ°Ð½Ð´ Ð»Ð°Ð³Ð°
Ð¾Ð· Ð¸Ð½
ĠÑĩÑĥÐ» ÑĥÑĥÐ»Ð°Ð³
ĠÐ±ÑĥÐ» Ð°Ð°Ð½
Ð¾Ð»Ð» Ð°Ð½Ð´
ÐĲÐ½ ÑĤÐ¸Ð³
ÐĲÐ½ Ð¶ÐµÐ»
ĠÐ¸Ð»ÑįÑĢÑħÐ¸Ð¹ Ð»ÑįÐ»
Ð¶Ò¯Ò¯Ð»ÑįÑħ ÑįÐ´
ÑĦÑĢ ÐµÐ´
ĠÐ³Ð°Ð·ÑĢ Ð°Ð°ÑĢ
ĠÐ³Ð°Ð·ÑĢ ÑĥÑĥÐ´
ĠÑħÐ¾Ð½ ÑĮ
Ð±ÑĥÑĢ Ð³Ð¸Ð¹Ð½
Ð±ÑĥÑĢ Ð¸Ð°Ð´
ÐµÐ¶ Ð½
Ð±Ð°Ð¹Ð³ÑĥÑĥÐ» Ð°Ð¼Ð¶
ÐľÐ°ÑĢ ÑĪÐ°Ð»
ĠR e
ÐµÑĢÐ½ Ð¸Ð·
ĠÑĤÐ¾Ð¾ÑĨ Ð¾Ñħ
ÑĤÑĥÐ» Ð°Ð°Ð½
ĠÐ±Ð°Ð¹Ð³Ð°Ð°Ð³ Ð°Ð°
ĠÐ°Ð¼ÑĮÐ´Ð°ÑĢ Ð½Ð°
ĠÑĥÑĥÑĢ ÑĭÐ½
ĠÐ¾Ð¹Ð»Ð³ Ð¾Ñħ
ĠÑħÑıÐ½ Ð°Ð»ÑĤÑĭÐ½
ÑħÐ¾Ð»Ð± Ð¾Ð³Ð´
ĠÐ±ÑĥÑĨ Ð°Ð°Ð¶
ĠÑģÑįÑĢÐ³ Ð¸Ð¹Ð»
ĠÐ¸ÑħÑįÐ½Ñħ Ð¸
un t
ĠÐ±Ð¾Ñģ Ð»Ð¾Ð³ÑĭÐ³
ĠÐĳÑĢ Ð°Ð·
lo ad
ĠÑĩÐ°Ð´Ð²Ð°ÑĢ Ð»Ð°Ð³
Ð±ÑĥÐ» ÑĪ
Ð´ÑĥÑĢ Ñģ
Ð±Ó©Ð¼Ð±Ó©Ð³ ÑĩÐ¸Ð½
ÑĤÑĥÑģ Ð»Ð°Ð¼Ð¶
Ò¯Ò¯Ð´ÑĤÑįÐ¹ Ð³ÑįÑį
ĠÐ³Ð¸ÑĪÒ¯Ò¯Ð½ ÑįÑįÑĢ
ĠÐ½ÑįÐ²ÑĤÑĢ ÑįÑħ
ĠÐ½Ð¸Ñģ Ð»ÑįÐ³
Ð·Ð°Ñģ Ð²Ð°ÑĢ
ĠÐ³ÑįÐ´ Ð³ÑįÑį
Ð³Ð°Ð´ Ð°ÑĢÐ³
ĠÐ½Ð¾Ñĳ Ð´ÑĭÐ½
ĠÐ·Ð°Ð¹ Ð³
and ra
ÑģÑĥÐ´ Ð°Ð»
ÑħÐ°Ð» Ð¸Ð¼
Ð£ÑĢ Ð³Ð°Ð¼
ĠÐ¶Ð¸Ð½ ÑĤÑįÐ¹
ĠÐ¾Ð»Ð³ Ð¾Ñħ
ĠÐ¼Ð¾ÑĢ Ð¸Ð½Ñĭ
ĠÐ¼Ð¾ÑĢ ÑĮÑĤ
ĠÐ±Ð°Ð¹Ð»Ð´ Ð°Ð¶
ĠÑĪÐ¸Ð»Ð¶ ÑģÑįÐ½
ĠÑĪÐ¸Ð»Ð¶ Ð¸Ð¶
ĠÐ¼ÑįÐ´ÑįÐ³ Ð´ÑģÑįÐ½
ĠÓ©Ó©ÑĢÑģ Ð´Ó©Ó©
Ġc on
Ð°ÑħÐ°Ð°ÑĢ Ð³Ò¯Ð¹
ÐĿÐ°ÑĢ Ð°Ð½
ĠÐ¸ÑĢÐ³ÑįÐ´ Ð¸Ð¹Ð³
ĠÑħÐ°Ð¼ÑĤÐ»Ð°Ð³ Ð¸Ð¹Ð³
ÑĬÑı Ð°
ĠÑħÐ¾Ð» Ð¸Ð»Ð´
pl ication
ĠÐ½ÑĥÑĢ ÑĥÑĥÐ½Ñĭ
ĠÐ·Ð¾Ð³Ñģ Ð¾Ð¾Ð¶
ÐŃÐ¼ ÑįÐ³ÑĩÐ¸Ð½
ĠÐ±Ð°Ð³ÑĪ Ð°Ð°ÑĢ
tr a
ĠÒ¯ÑĢÐ³ÑįÐ»Ð¶ Ð»ÑįÑħ
ĠÐ´Ò¯Ò¯ÑĢ ÑįÐ³
ĠÐ¼Ð°ÑĤÐµÑĢÐ¸Ð°Ð» ÑĭÐ³
Ð¿ÑĢ ÐµÑģÑģ
ĠÐ±ÑįÑħ Ð¸
ĠÑįÐ»ÐµÐ¼ÐµÐ½ÑĤ Ð¸Ð¹Ð½
ĠÑģÐ¾Ð» Ð¸Ñħ
ĠÐ·Ó©Ð²Ð» Ó©Ð»Ð¸Ð¹Ð½
ĠÑĪÐ°Ð»Ð³Ð°ÑĢ Ñĩ
ĠÐ±Ò¯ÑĢÐ´ Ò¯Ò¯Ð»Ð¶
Ð±Ð¸ÑĤ Ð¸Ð¹Ð½
ĠÐ°ÑĢÑħ ÐµÐ¾Ð»Ð¾Ð³Ð¸Ð¹Ð½
ĠÑįÐ»Ñģ ÑįÐ¶
ĠÑĩÐ¸Ð³Ð»ÑįÐ» ÑĤÑįÐ¹
Ò®Ð¹Ð» ÑĩÐ»
ÑĪÐ°ÑĤ Ð°ÑĢ
ĠÑĥÑĢÐ»Ð°Ð³ Ð¸Ð¹Ð³
Ð¾Ð½ÑĨ Ð»Ð¾Ð³
ĠÐ´ÑĥÑĤ ÑĥÑĥ
ĠÑįÑģÑįÑĢÐ³Ò¯Ò¯ÑĨ ÑįÐ»
ÑĤÓ©Ð³ ÑģÐ³Ó©Ð»
ÑħÓ©Ð´Ó©Ð» Ð³Ò¯Ò¯ÑĢ
ĠÐ½Ó©Ó©ÑĨ Ð¸Ð¹Ð³
ÑĥÑĥÐ»Ð°Ð³ ÑĩÐ¸Ð´
ĠÐ±Ò¯Ð³ Ð´Ð¸Ð¹Ð³
ĠÐ±Ð¾Ð»Ð³Ð¾Ñħ ÑĭÐ½
ĠÐ¾Ð»Ð¸Ð¼Ð¿ ÑĭÐ½
ĠÑħÑįÑĢÑįÐ³Ð»ÑįÑį Ð½Ð´
ĠÐºÐ¾Ð¼Ð°Ð½Ð´ ÑĭÐ³
ĠÐ±Ð°Ñı Ð»Ð°Ð³
ĠÑĤÐ°Ð¹Ð»Ð±Ð°ÑĢ Ð»Ð°ÑģÐ°Ð½
ĠÑħÐ°Ð³Ð°Ñģ ÑĤ
Ð¢ÑįÐ¼ ÑĨ
Ð±Ð¾Ñģ Ð³
ĠÐ°Ð²ÑĤÐ¾Ð¼ Ð°ÑĤÐ°Ð°ÑĢ
ĠÑģÐ¾Ð½Ð³ÑĥÑĥÐ» ÑĮÐ´
ĠÑĨÐ¾Ð³ÑĨ Ð¾Ð»Ð±Ð¾ÑĢ
ĠÐ±Ð°Ð¹Ð³ÑĥÑĥÐ»Ð°Ð¼Ð¶ Ð¸Ð¹Ð½
ĠÑıÐ»Ð³Ð°ÑĢ Ð´Ð°Ð³
ĠÐ½Ð°ÑģÑĤÐ°Ð¹ Ð´Ð°Ð°
Ò¯Ð² Ð´ÑĢ
ĠÑĤÐµÐ¼Ð¿ÐµÑĢÐ°ÑĤÑĥÑĢ ÑĭÐ½
ĠÐ°Ð¼ÑĮÑģÐ³Ð°Ð» ÑĭÐ½
ÐķÑĢÓ©Ð½ÑħÐ¸Ð¹ Ð»Ó©Ð³Ñĩ
ĠÑģÑĥÑĥÐ´ Ð°Ð³
ub lic
EE D
ĠÑįÐ¼Ð½ÑįÐ» Ð³Ð¸Ð¹Ð½
ĠÒ¯Ò¯ ÑģÑįÐ½
ĠÐ¸ÑĢÑįÑįÐ´ Ò¯Ð¹
ĠÓ©Ð²Ñĩ ÑĤÑįÐ¹
ÐĶÐ°Ð½ Ð·Ð°Ð½
Ð¼Ðµ ÑħÐ°Ð½Ð¸Ðº
Ð¡Ò¯Ò¯Ð» Ð´
ĠÐ±Ð°Ð¹Ð³ÑĥÑĥÐ»Ð»Ð°Ð³ ÑĥÑĥÐ´
ĠÑĦÐ¸Ð»Ð¾ÑģÐ¾ÑĦ Ð¸
ĠÒ¯Ð»Ð´ÑįÑį ÑģÑįÐ½
ĠÑħÓ©Ð³Ð¶Ð¸Ð» Ð´
Ð§Ð¾Ð¹ Ð±Ð°Ð»ÑģÐ°Ð½
ÑĥÐ±Ð¸Ð» Ð°Ð¹Ð½
ass andra
Net work
ĠÐ³ÐµÐ½ Ð¸Ð¹Ð½
Ð¸ÑĢÐ³ Ð¸Ð·
Ð¥Ó©Ð» Ð±Ó©Ð¼Ð±Ó©Ð³Ð¸Ð¹Ð½
ĠÐľÐ¾ÑģÐºÐ² Ð°Ð´
ÑģÒ¯Ð¹ ÑĢ
ÑħÑĥÑĥÐ´ Ð°Ñģ
ord s
ĠÐ´ÑĥÑĥÑĢ Ð¸Ð¹Ð½
Ð·Ð°Ð»Ð³ Ð°Ð¼Ð¶
ĠÐ°ÑĢÐ¸Ð»Ð¶ Ð°Ð°Ð½Ñĭ
Ð¥Ò¯Ð½Ð½Ò¯ Ð³Ð¸Ð¹Ð½
Ð¾Ð»Ð¸Ð¼Ð¿ Ð¸Ð°Ð´
ĠÐµÐ²ÑĢÐ¾Ð¿ ÑĭÐ½
ĠÐ´Ð°Ð°ÑĤÐ³ Ð°Ð»ÑĭÐ½
ĠÐ¢Ò¯ÑĢ ÑįÐ³
ĠÐĲÐ²ÑģÑĤÑĢÐ°Ð» Ð¸
Ð³Ð¸Ð¿ ÐµÑĤ
ÑĪÑĥÐ² ÑĥÑĥ
ĠÐ³Ð¾Ð»Ð´ ÑĥÑĥ
ĠÐ¾ÑĢÐ³Ð°Ð½ Ð¸Ðº
ĠÑħÐ°Ð°Ð´ ÑĭÐ½
ÐľÐ°ÑĢÑĤ Ð¸Ð½
ĠÐ½ÑįÐ³Ð´ Ð¼ÑįÐ»
ĠÐ¼Ð°ÑĢÐºÐµÑĤ Ð¸Ð½Ð³Ð¸Ð¹Ð½
ĠÐ±ÑįÐ»Ð³ÑįÐ´ ÑįÐ»
ÐµÐ¾Ð¿ Ð¾Ð»Ð¸ÑĤ
Ð¢ÐµÑħÐ½ Ð¸ÐºÐ¸Ð¹Ð½
ÑĦÐ¸Ð»Ð¾ÑģÐ¾ÑĦ Ð¸
ĠÐ´Ó©ÑĢÐ² Ó©Ð»Ð¶Ð¸Ð½
ĠÐ¥ÑĥÑĢ Ð»ÑĭÐ½
ĠÐ¨Ð¸Ð» Ð´ÑįÐ³
Ð°Ð»Ð¼Ð°Ð¹ÑĤ Ð½Ñĭ
ÑħÑıÐ» Ð±Ð°ÑĢ
Ð¢Ð°ÑĢÐ² Ð°Ð³Ð°
Ð²Ð°Ð»Ð¶Ð¸Ð» Ð³Ð°
ĠÒ¯Ð½ÑįÐ³ Ò¯Ð¹
lob al
ĠÐ½Ð¸Ð¼ Ð³ÑįÐ½
ÐŃÐ»ÑįÐ³ Ð½Ð¸Ð¹
ĠÑĤÐ¾Ð³Ð»Ð¾Ð¾ Ð¼ÑĭÐ½
Ò®Ð½Ð´ÑįÑģÑĤ Ð½Ð¸Ð¹
ÐĶÐ°Ð°ÑĤÐ³ Ð°Ð»ÑĭÐ½
ĠÐĿÐ°Ð¹ÑĢ Ð°Ð¼Ð´Ð°Ñħ
âĪ Ĵ
Ð£ÑĤÐ°Ñģ Ð³Ò¯Ð¹
Ó¨Ð»Ð³ Ð¸Ð¹
. ,
B S
B o
D A
D M
E ntertainment
F or
H ot
I T
I m
L A
P C
P al
P ay
S S
S e
S h
S ec
U ni
X X
g h
g er
h n
i o
j ect
k en
l oc
n d
p en
p ar
q l
r ic
s l
t e
v en
w eb
y m
á ł
ì Ŀ
Ġ 37
Ġ Ð¸Ð¹Ð³
Ġ 64
Ġ 41
Ġ 2019
Ġ âĢĿ
Ġ re
Ġ le
Ġ Ð°Ð°Ð¶
Ð° x
Ð½ Ð¾Ð¹
Ð½ Ó©Ð´
Ð½ Ð¾Ñĳ
Ð½ Ò¯Ñħ
Ð½ Ð°ÑģÑĤ
Ð½ Ð¾Ð¾ÑĢÐ¾Ð¾
Ð³ ÑįÑģ
Ð³ Ð¾Ð½Ð´
Ð³ Ò¯ÑĢÑįÐ½
Ð³ Ð¾Ð²ÑĮ
Ð» Ó©Ð¶
Ð» ÑįÑģÐ½Ð¸Ð¹
Ð» ÑįÑģÐ½ÑįÑįÑĢ
ÑĢ Ó©Ð½
ÑĢ Ð¾Ð²
ÑĢ ÐµÐ»
ÑĢ ÑįÐ»ÑĤ
ÑĢ Ð°ÑĨ
Ð¾ Ð°
Ð¾ ÑĩÑĢ
Ð¾ ÑİÑĥÐ½
Ð¸ Ð´Ð°Ð³
Ð¸ Ð°Ð½Ð°
Ð´ Ð¾Ð»
Ð´ Ð¾ÑħÐ¸
Ð´ Ð°Ð¹ÑĤ
Ð´ Ð¸Ð·Ð°Ð¹Ð½
ĠÑ Ķ
Ñĥ Ð³Ð°Ð½
Ñĥ Ð°Ð»ÑĮ
Ñĥ Ð¿Ð¿
12 000
ÑĤ ÑĮ
ÑĤ ÑįÑĤÐ³
ÑĤ Ð¾Ð¾Ð½
ÑĤ ÑĥÑıÐ°
ÑĤ ÑįÐ³ÑĪ
ÑĤ Ò¯Ð»ÑħÒ¯Ò¯ÑĢ
Ñģ Ð°Ð¹Ð´
Ñģ ÑĥÑĥÐ³
Ñģ ÐµÐ³Ð¼ÐµÐ½ÑĤ
Ñħ Ðµ
Ñħ ÑĭÐ³
Ñħ ÑĥÐ´
Ñħ Ð¸Ñĩ
Ñħ ÑįÐ³ÑĤ
Ñħ Ð¾Ð¾ÑĢÐ¾Ð½Ð´
Ñħ Ð¾ÑĤÐ³
Ó© ÑģÑĤ
Ð¼ Ð¼
Ð¼ Ñı
Ð¼ Ó©Ð»
Ð¼ Ð°Ð°Ð½
Ð¼ Ð¾Ð¾ÑĢ
Ð¼ Ð°Ñı
Ð¼ ÑĥÑĥÐ´ÑĭÐ³
Ð¼ ÑįÑĤ
Ð¼ ÐµÑĤÑĢ
Ð¼ Ð°ÑĤÐµÐ¼
ĠÐ± Ð°Ð°
ĠÐ± Ð°Ñħ
ĠÐ± Ð¾ÑĤ
Ð°Ð½ Ð°Ð°Ñģ
Ð°Ð½ ÑĤÐ°Ð½
Ð°Ð½ Ð°Ð±
ĠÑħ Ð°
Ð¶ Ð¸Ð¹Ð³
Ð¶ ÑģÐ°Ð½
Ð¶ Ð´ÑįÐ³
Ð¶ ÑģÓ©Ð½
Ð¶ Ò¯Ð¶
Ð² ÐµÐ³
Ð°Ð¹ Ð¶
Ð°Ð¹ ÑĤÐ°Ð¹
Ð°Ð¹ Ð´Ð°Ð³
Ð°Ð¹ ÑħÐ°Ð½
ÑįÑį Ñĩ
Ð¸Ð¹Ð½ ÑħÒ¯Ò¯
Ð°Ð» Ðµ
Ð°Ð» Ð¸Ð½
Ð°Ð» Ð°Ð°ÑĢ
Ð°Ð» ÑĮÐ´
Ðµ Ð¾Ð»Ð¾Ð³
Ðµ Ð¸Ð·Ð¼
Ð°Ð³ ÑĤÐ°Ð¹
Ð¾Ð½ ÑĤÐ¾Ð¹
Ð¾Ð½ ÐµÐ·
Ñĩ ÑģÓ©Ð½
Ñĩ Ð°Ð°Ð»
Ñĩ Ð»Ð°Ð³Ñĩ
ĠÑĤ Ð°Ð½Ð´
ĠÑĤ ÐµÐ»
ĠÑĤ Ð°Ð°Ð»
ĠÑĤ ÑĢÐ°Ð½
ĠÑĤ Ð¾Ð¿
ĠÑĤ ÑĥÑĥÐ¶
ĠÑĤ Ð°ÐºÑĤÐ¸Ðº
ĠÑĤ ÑĥÐ³Ð¸Ð¹Ð½
ĠÐ½ ÑĥÐºÐ»
ÑĮ ÑıÐ½
Ò¯Ò¯ Ð³ÑįÑį
ÑįÑĢ ÑįÐ»
Ð¾ÑĢ ÑģÐ¾Ð½
Ð± ÑĭÐ½
Ð± Ð¸Ð´
Ð± Ó©Ó©ÑĢ
Ð± ÐµÐº
Ð± Ð¾Ð¾Ð»
Ð± Ð°Ð³Ð¸Ð¹Ð½
ÑĨ Ð¾ÑħÐ¸
ÑĨ Ð°Ð³ÑĤ
ÑĨ Ð°Ð½Ð°
ÑįÐ» ÐµÐºÑĤÑĢÐ¾Ð½
ĠÐ´ Ðµ
ÑĪ Ó©Ó©Ð»
ÑĪ Ð¸ÑĦÑĢ
ÑĪ Ð°Ð½ÑĮÑİÐ¹
ÑĪ Ð°Ð³Ð°Ð¹
Ð¸Ð» ÑĮÐ´
Ð¸Ð» Ð°Ð»Ð°Ð½
Ð· ÑĥÐ»
Ð· ÑįÐ²
Ð· Ð¸ÑģÑĤ
Ð· Ð°Ð°Ð³
Ð· ÑĥÐ³ÑĤ
ĠÐ³ Ñĥ
ĠÐ³ ÑĥÑĤ
ĠÐ³ Ð¾ÑĢÑħ
ĠÐ³ ÑĢÐ°ÑĦ
ĠÐ³ ÑįÐ³Ð´ÑįÑħ
ĠÐ³ ÑĢÐ°ÑĦÐ¸Ðº
ĠÐ³ ÑĥÐ´Ð°Ð¼Ð¶
Ð°Ð¼ ÑĮ
Ð°Ð¼ ÑħÐ°Ð¹
ĠÑģ Ó©ÑĢ
ĠÑģ Ò¯Ð»
ĠÑģ ÐµÑĢÐ²
ĠÑģ Ð°Ð°ÑĤ
or a
Ðº Ð¾Ð»
Ðº ÑģÐ°Ð½
Ðº Ð°Ð±
Ðº Ð°Ð³Ð¸Ð¹Ð½
Ð°Ñħ Ð°Ð½
ed ic
ia e
ĠÐ· Ð¾Ð³
ĠÐ· Ó©Ó©
ĠÐ· Ò¯Ð³ÑįÑįÑĢ
ĠÐ· Ð°Ð°Ð»ÑĤ
ĠÐ· Ó©Ð²Ð»Ó©Ð»ÑĤÐ¸Ð¹Ð½
Ð¾Ð³ ÐµÐ½
Ð¾Ð³ ÑĩÐ´
ÑĥÑĥÐ» Ð³Ð°Ð°ÑĢ
ĠÑĥ Ð½Ð°ÑģÐ°Ð½
ĠÐ±Ð¾Ð» Ð·
ÑįÑħ Ð½ÑįÑĢ
ÑįÐ´ ÑįÐ¹
Ó©Ð³ ÑĤÑįÐ¹
Ó©Ð³ Ó©Ð³Ð´Ð»Ð¸Ð¹Ð½
Ó©Ð½ Ð³Ó©Ð¶
ĠÐ¼ Ð°Ð³
ĠÐ¼ Ð°Ðº
ĠÐ¼ Ð¸Ð½ÑĮ
ÑĥÑĢ Ð»Ð°Ð³
ÑįÑįÑĢ ÑįÐ¼
Ð°Ð² Ð°Ð»
Ð°Ð² ÑĩÐ¸ÑĢ
Ð°Ð² Ð°ÑĢÐ³Ð°
Ð°Ð² ÑħÐ´
Ó©Ð» Ó©Ð³
Ð¸ÑĢ Ð°
Ð¾Ð¾ ÐºÑģ
ÐµÑĢ Ð°
ÐµÑĢ Ð¸Ð¹Ð³
ÐµÑĢ Ð¸Ð°Ð»
Ð¥ Ð¾
Ð¥ Ò¯Ð¹
Ð¥ Ð°Ð´
Ð¥ Ð¥
Ð¥ Ð¢
Ð¥ ÑĥÐ½
Ð¥ Ð°Ð°Ð½Ñĭ
Ð¥ Ð°Ð¹Ð´
Ð¥ Ò¯Ð½Ð´
Ð¥ Ð°Ñĩ
Ð¥ Ó©Ð´Ó©Ó©
Ð¿ Ð°ÐºÐµÑĤ
Ð³Ð¸Ð¹Ð½ ÑħÑįÑį
ĠÑĪ Ð°Ð³
ĠÑĪ Ð¾ÑĢÐ¾Ð¾
ĠÑĪ ÑĥÐ»ÑĥÑĥÐ½
Ð¢ Ó©Ñģ
Ð¢ Ð¾Ð³Ð»
Ð¢ Ð¾Ð¾ÑĢÐ¾Ð¹
ÑĥÐ» ÑĮÑĤ
Ò¯Ò¯Ð» Ð±ÑįÐ»
Ò¯Ò¯Ð» ÑģÐ½Ð¸Ð¹
Ð¸Ð³ Ð°Ð½
Ð¾Ð´ Ð¾Ð¾Ð´
ÐĲ Ð¢
ÐĲ ÑĥÐ´
Ðľ ÐµÐº
Ðľ Ð°Ð³Ð½
Ðľ Ð°ÑĤÐµÑĢÐ¸Ð°Ð»
Ðľ Ð°Ð³Ð°Ð´
Ðľ ÐµÑħÐ°Ð½Ð¸Ðº
Ðĳ Ð¾Ñģ
Ðĳ ÑĥÑħ
Ðĳ ÑįÑįÐ¶Ð¸Ð½
Ðĳ ÑĥÑıÐ½
ĠÑĨ Ð¾Ð¾
ĠÑĨ ÑįÐ½ÑħÑįÑĢ
ÑģÑĤ ÐµÑĢ
ÑģÑĤ Ó©ÑĢÓ©Ð³Ñĩ
ĠÐ¾ÑĢ Ð»
ĠÐ¾ÑĢ ÑĥÑĥÐ»
ĠÐ¾ÑĢ Ð»Ð¾Ð³Ð¾
ÐŃ ÑĨÑįÐ³
Ð¡ ÐµÑĢ
Ð¡ ÑĥÑħ
Ð¡ ÑĤÐ°Ð»
Ð¡ Ð°Ð½Ð¶
Ð¡ Ð¿Ð¾ÑĢÑĤ
Ð¡ ÑįÑĤÐ³ÑįÐ»
Ð¡ Ð¼Ð¸ÑĤ
Ð¡ Ð¾ÑĢÐ¾Ð½Ð·Ð¾Ð½
Ð¡ ÑįÑĢÐ³ÑįÐ½
ĠÑĩ Ð¸Ð½ÑĮ
Ð¸Ð¼ Ð°
ÑģÐ¾Ð½ Ð°Ð»
Ð¸Ð´ ÑįÑį
âĢ İ
Ó©Ó©ÑĢ Ñģ
ÐĿ Ð°Ð¹Ð¼
Ð¸Ñħ Ð°ÑĢ
Ð¸Ñħ ÑĤÐµÐ½
ÐĶ Ð°Ñħ
ÐĶ Ð¥
ÐĶ Ð°Ð¹Ð½
ÐĶ Ð°Ð½Ð¸
ÐĶ ÑĥÐ³ÑĥÐ¹
Ð¾Ð½Ð³ Ð¸Ð»
ÐµÐ½ ÑįÑįÑģ
ÐµÐ½ Ð¸Ð»Ð°Ð»Ð°Ð½
ĠÐ±Ò¯ ÑħÐ½Ð¸Ð¹Ð³
Ð¾ÑĤ Ð°
Ð¾ÑĤ Ð»Ð°Ð½Ð´ÑĭÐ½
Ð°Ð»Ð´ Ð°Ñħ
Ðĵ ÐµÐ½
Ðĵ Ð£
Ðĵ ÑįÐ»ÑįÐ³
Ð»ÑįÐ³ Ð´ÑįÐ½
Ð£ Ðĳ
Ð£ ÑħÐ°Ð°Ð½
ÑĦ Ð»
ÑĦ Ð¸
Ðļ Ð¾Ð´
Ðļ Ð¾ÑĤ
Ðļ Ð¾ÑĢÐ½
Ðļ Ð°Ð½Ð½
Ðļ Ð¸Ð±ÐµÑĢ
Ðļ Ð°Ð¼Ð±Ð¾Ð¶
Ñĳ ÑĤ
Ñĳ Ñģ
Ð¾Ñģ Ð¾Ð¼ÑĭÐ½
Ð¾Ñģ ÐµÑĦ
ÑįÑįÐ» Ð¸Ð¹Ð½
Ð°Ñı Ð»Ð°Ð»
ĠÐ½ÑįÐ³ ÑĤÐ³ÑįÐ¶
Ð°Ð· ÐµÑĢ
ĠÐ¾Ð» Ð´Ð¾Ð³
ĠÐ¾Ð» Ð½ÑĭÐ³
ÑįÑĢÐ³ Ð¸Ð¹
ĠÐľ Ð°Ð½Ð´
ĠÐľ Ð°ÑĢÑĤ
ĠÐľ Ð¸ÑħÐ°
Ð°Ð³Ð´ ÑģÐ°Ð°ÑĢ
ĠÑĥÑĢ Ð°Ð³
ĠÑĥÑĢ Ð¸Ð°Ð»
ĠÑĥÑĢ Ð³Ð°Ð¶
ĠÐ°Ð² ÑĤ
ĠÐ°Ð² Ð°ÑħÑĭÐ½
ĠÐ°Ð² ÑĬÑı
ĠÐ°Ð² ÑĢÐ°Ð³Ð°
Ðŀ ÑİÑĥÑĤ
ĠÒ¯Ðµ Ð¸Ð¹Ð³
ĠÐ°ÑĢ ÑĮ
ĠÐ°ÑĢ Ð»ÑĭÐ½
ĠÐ¥ Ð¸ÑĤ
ĠÐ¥ ÑĥÐ±Ð¸Ð»Ð°Ð¹
ÑĩÐ» ÑįÐ»Ð¸Ð¹Ð½
ÑĩÐ» Ð°Ð»ÑĭÐ³
ĠÑħÐ°ÑĢ Ð°Ð°ÑħÐ°Ð½
ÑĥÐ½ Ð¸
ĠÐĲ Ð³
ĠÐĲ Ð¼Ð°ÑĢ
ÑĩÐ¸Ð½ Ñĭ
ĠÒ¯Ð¹Ð» Ð´Ð»Ò¯Ò¯Ð´Ð¸Ð¹Ð³
ÐµÐ¼ Ð¾Ð´
ÐµÐ¼ ÐµÐ½
ÐµÐ¼ Ð°ÑĤÐ¸Ðº
ĠÑħÑįÑĢÑįÐ³ Ð³Ò¯Ð¹
ĠÑįÑĢ ÑįÐ»
ĠÐĳ Ð¾Ð»
ĠÐĳ Ð¾Ð´
ĠÐ±Ð°Ð³ Ð¸Ð¹Ð³
ĠÐ±Ð°Ð³ ÑĥÑĥÐ´Ð°Ð´
ĠÐ±Ð°Ð³ ÑĤÐ°Ð½Ð°
ÑĥÑħ Ð°Ð½
ÐŁ Ð¸ÑĢ
ÐŁ Ð°ÑĤ
ÐŁ Ð»Ð°Ð½
ĠÑħÑįÐ» Ð»ÑįÐ³
ĠÑħÑįÐ» ÑįÑħÑįÐ´
ÐµÑĤ Ð¸
ÐµÑĤ Ð¾Ð½
ĠÑħÑĥÐ² Ð¸Ð»
ĠÑħÑĥÐ² Ð°Ð°Ð½
ĠÑħÑĥÐ² ÑĨÐ°Ñģ
ĠÐ±Ð°ÑĢ ÑĮÑĨÐ°Ð»Ð´
Ó¨ Ó©ÑĢÐ¸Ð¹Ð½
ĠÐ´Ð°ÑĢ Ð°Ð°Ð³Ð°Ð°ÑĢ
Ð»ÑįÐ» Ò¯Ò¯Ð´
ĠÐ°Ð¶Ð¸Ð» ÑĩÐ¸Ð½
ĠÐ°Ð¶Ð¸Ð» ÑĤÐ½ÑĥÑĥÐ´
ÐĹ ÑįÐ´
ÐĹ Ó©Ð²Ð»
ÐĹ ÑįÐ²Ñģ
Ò¯Ð½ ÑįÐ¼
Ò® Ð·
ĠÐ¿ Ð¾Ð»
Ð¨ Ð°Ñħ
ÐµÐ» Ð´
ĠÐ±Ò¯ÑĢ ÑĤÐ³ÑįÐ³Ð´ÑģÑįÐ½
Ð°Ð°Ð³ Ð°Ð°Ð´
ÑĥÑĥÐ»Ð°Ñħ Ð³Ò¯Ð¹
ÑĥÑĥÐ»Ð°Ñħ Ð´Ð°Ð°
er o
er ic
Ð´ÑįÑį Ñħ
Ð±Ð°ÑĢ ÑĮÑĨÐ°Ð»Ð´
ĠÐ½ÑįÑĢ Ð»ÑįÐ³Ð´ÑģÑįÐ½
Ġ19 24
Ġ19 25
Ġ19 37
Ġ19 38
Ġ19 91
ÑĩÐ¸Ð» Ð´ÑįÐ³
ÑĥÐ¼ Ð´
ÑĥÐ¼ ÐµÐ½ÑĤ
ÐµÐº ÑĥÐ»ÑĭÐ½
Ðĸ ÐµÐ½
ĠÑħÐ¸Ð¹ Ð²
ĠÑħÐ¸Ð¹ ÑĨ
Ð°Ð½Ñħ ÑĥÐ¹
ĠÐ¾Ð½Ð´ Ð¾Ð¾
ĠÐ¡ Ð°Ð¹Ð½
ĠÐ±Ð°Ð¹Ð³ÑĥÑĥÐ» Ð°Ð³Ð´Ð¶ÑįÑį
ÐĽ Ð°Ð±
Ð°Ð¹Ð» ÑĤ
Ð¸Ð· Ð¼Ð¸Ð¹Ð½
Ð»ÑįÑħ ÑįÑįÑĢ
ĠÑĤÑĥÑģ Ð³Ð°Ð»
ĠÑĤÑĥÑģ Ð³Ð°ÑģÐ°Ð½
ĠÑĤÑĥÑģ Ð³Ð°Ð¹Ð»Ð°Ð½
ÐµÑģ Ðº
ĠÐ¢ ÑįÑĢÐ³
Ð°ÑĢÑĤ Ð°Ðº
ĠÐ±Ò¯ÑĤ ÑįÑįÐ½
ĠÑį ÐºÑģ
ĠÑį ÐºÑģÐ¿ÐµÐ´Ð¸ÑĨ
Ð¦ Ð¾Ñħ
Ð¦ Ð¾Ð¼
Ð¦ ÑįÑĢÑįÐ½
Ð¦ Ó©Ð¼Ð¸Ð¹Ð½
ĠÑįÑģ Ò¯Ò¯Ð´
ĠÑģÑĥÑĢ Ñĩ
ĠÑģÑĥÑĢ Ð°Ñħ
ĠÑģÑĥÑĢ ÑĤÐ°Ñħ
ÑģÐ½ ÑĥÑĥÐ´
ÑģÐ½ Ð¾Ð¾Ñģ
Ð¸ÑĪ ÐµÑĢ
Ð¸ÑĪ Ð¸Ð³
ĠÐ¸Ð» Ò¯Ò¯Ð´
Ð³Ð°ÑĢ ÑħÐ°Ð³
ÑĤÑĢ ÑĭÐ½
ÑĤÑĢ Ð°Ñħ
ĠÐĶ Ð¾ÑĤ
ĠÐĶ Ð°ÑĢÑĮ
Ðł Ó©
Ðł Ð°ÑĪ
Ð§ Ð°ÑĢ
Ð§ ÐµÑĢ
Ð§ ÑĥÑħÐ°Ð¼
Ð§ Ð¸ÐºÐ°Ð³
Ð¸Ð² ÑĭÐ³
ÐµÐ¹ ÑĪ
ĠÐ» Ò¯Ò¯
ĠÐļ Ð°ÑĢÐ»
ĠÐļ Ð¾ÑģÐ¾Ð²
ÐĴ ÑĤ
ÐĴ Ð¸ÑĢÑĤÑĥÐ°Ð»
ĠÐ±Ð¾Ð»Ð¾Ñħ ÑĥÐ¹ÑĨ
Ð¾Ð»ÑĨ Ð¾Ð¾Ñħ
Ò¯Ò¯Ð»ÑįÑħ Ð¸Ð¹Ð³
Ò¯Ò¯Ð»ÑįÑħ Ð³Ò¯Ð¹
ÑĪÐ¸Ð½ Ð´
Ð¤ Ð¸Ð½
ÑĥÐ½Ð´ Ð°Ð°
Ð¸Ñĩ Ð¸Ð¹Ð½
Ð¸Ñĩ ÑĥÑĥÐ´ÑĭÐ½
ĠÐ°Ð½Ñħ Ð°Ð°ÑĢÐ°Ð»
ĠÑħÐ¾Ð»Ð± Ð¾Ñħ
ĠÑħÐ¾Ð»Ð± Ð¾Ð¾Ð½Ð´
ĠÑħÐ¾Ð»Ð± Ð¾Ð»ÑĤÑĭÐ½
Ð³ÑįÑĢ ÑįÐ»
ĠÐ·Ð¾ÑħÐ¸ Ð¾Ð¼Ð¶
ĠÐĵ Ð°ÑĢ
ĠÐĵ Ð°Ð»
Ð´Ð°Ð» Ð°Ð²Ñĩ
Ð¾Ðº Ðº
ĠÑĦ ÑĢÐ°Ð½ÑĨ
ĠÑĦ ÐµÐ¾Ð´
ÑħÐ°ÑĢ ÑĥÑĥÐ»
ĠÑħÐ¾ÑĤ ÑĥÑĥÐ´
ĠÐ³Ð¾Ð» Ð»Ð¾Ð½
Ó©Ñģ Ð½Ð¸Ð¹
ĠÑĤÐ¾Ð³ÑĤ Ð¾Ð»ÑĨÐ¾Ð¾Ð³
Ð²Ð°Ð½ Ð¸Ñģ
ĠÑĨÐ°Ð³ Ð¸Ð¹Ð³
ĠÐ¾Ð¹ ÑĢÐ°Ð´
ĠÐ·Ð¾ÑĢ ÑĮÐ¶
ĠÑĩÐ°Ð´ Ð¶ÑįÑį
Ð¾Ð»Ð³ Ð¾Ð¾Ð½
ĠÑħÓ©Ð³Ð¶ Ð¼Ð¸Ð¹Ð³
Ð¶Ð¸Ð½ Ð´
ĠÑĤÐ¾Ð³Ð» Ð¾ÑħÐ¾Ð´
ĠÐ±Ð¾Ð»Ð³ Ð¾Ð½Ð´
Ð±ÑįÑĢ ÑįÐ»
en ter
ĠÑħÑįÐ´ Ð¸Ð¹Ð½
ĠÐ·Ð°ÑĢ Ð´Ð»ÑĭÐ³
ĠÐĿ Ð¸Ð¹
ĠÐĿ Ð°ÑĢ
ĠÐĿ ÐĳÐĲ
ar is
ĠÒ¯Ò¯Ñģ Ð½Ñį
ĠÐŁ Ð¾ÑĤ
ĠÐŁ ÐµÑĤÐµÑĢ
ĠÐ³ÑįÑĢ ÑįÑįÐ³
ÐµÐ² ÑĢ
ÐµÐ² Ð¸Ð¹Ð³
ĠÑĤÓ©Ð» Ó©Ð²Ð»Ó©Ð»ÑĤ
ĠÑĤÓ©Ð» Ð±Ó©ÑĢÐ¸Ð¹Ð½
ÐµÑģÑģ Ð¾ÑĢ
ĠÑĤÑįÑĢ Ð±ÑįÑįÑĢ
ÑįÐ³Ð´ Ð¶ÑįÑį
ÑįÐ³Ð´ ÑįÐ½Ñį
ti m
Ð°ÑĨ ÐµÑĤ
ĠÑıÐ» Ð³Ð°Ð¶
ĠÑįÑĢÑħ ÑįÑį
Ð¥Ð°ÑĢ ÑħÐ¾ÑĢ
ĠÐ³Ð°Ð´ Ð½Ð°Ð°Ñģ
ĠÐ³Ð°Ð´ Ð°ÑĢÐ³ÑĭÐ½
ĠÐ·Ò¯Ð¹Ð» ÑįÑįÑģ
ĠÑģÐ¸ÑģÑĤÐµÐ¼ ÑįÑįÑĢ
Ó©Ð»Ð´ Ó©Ð³
Ð»Ð°Ð» Ð°Ð°
al is
ĠÐ² ÐµÐ±
ÑħÐ°Ð¼ Ð³Ð¸Ð¹Ð½
ÐĲÐ» ÑĤ
ĠÐĹ Ð¡ÐĳÐĿÐ¥Ð£
Ð¯ Ð³
Ð¾ÑĨ Ð¸
ÐµÐ´ ÑĥÑĢ
ÑĢÐ¾ÑĨ ÐºÐ¸Ð¹
ĠÐ°Ð»Ð´ Ð°Ð°ÑĤÐ°Ð¹
ÐĲÑĢ Ð³
ÐĲÑĢ Ñħ
ÐĲÑĢ Ð°Ð»
Ð£Ð» Ð°Ð¼Ð¶
Ð´ÑįÐ» Ð³Ò¯Ò¯ÑĢ
Ð¸Ð³Ð´ Ð¾Ð¶
Ð³Ð°ÑĨ Ð°Ð°
ĠÐĸ Ð°Ð¼
ĠÐĸ ÐµÐ¹
ĠÒ¯Ð¹Ð»Ð´Ð²ÑįÑĢ Ð»ÑįÐ¶
ĠÑģÑĥÑĢÐ³ÑĥÑĥÐ» Ð¸Ð°
ĠÓ©Ð² Ó©Ð»
Ð±Ð¾Ð» ÑģÐ¾Ð½
Ð±Ð¾Ð» Ð¾Ð²
ĠÑĤÐ°Ð² Ð¸Ð½
ĠÐ±Ð¸Ðµ Ñį
ĠÐ±ÑĥÐ¹ Ð³
ĠÐ´ÑĥÑĢ Ð³Ò¯Ð¹
ĠÐ´ÑĥÑĢ ÑĮÐ´
ĠÐ±Ð°Ð¹Ð´Ð» Ð°Ð°Ñģ
ĠÑĥÑĥÐ» Ð°ÑĢÑħÐ°Ð³
ĠÐ°Ð¹Ð¼ Ð³ÑĥÑĥÐ´
ĠÐ¼Ð¾Ð½Ð³Ð¾Ð» ÑĩÑĥÑĥÐ´ÑĭÐ³
ÐŀÑĢ Ð¾Ð½
Ó©Ó©Ð³ Ó©Ó©ÑĢ
ĠÐ½ÑįÐ¼ ÑĢÑįÑį
ĠÐ´Ò¯ÑĢ Ð¼Ð¸Ð¹Ð½
ĠÑģÑįÑĤÐ³ ÑįÑĨÐ¸Ð¹Ð½
Ð±Ð°Ð° Ð·
Ð½Ñħ Ð¾ÑĢ
ĠI nter
Ð¾Ð± Ð°Ð»
Ò¯Ð· ÑįÐ»
ÑĪÐ¸Ð³ ÑĪÑįÑį
ĠÐ³ÑĥÑĢ Ð²Ð°Ð»Ð¶Ð¸Ð½
ĠÐ½ÑĥÑĤÐ°Ð³ ÑĤÐ°Ð¹
ĠÑĥÑĤ Ð°ÑģÐ½Ñĭ
ĠÑĥÑħ Ð°Ð°ÑĢ
ĠÑĤÒ¯ÑĢ Ò¯Ò¯
ĠÐ¼ÑįÑĤ Ð¸Ð¹Ð½
ĠC om
ÑħÑĥÐ² Ð¸Ð»Ð±Ð°ÑĢ
ÑĶ Ð³
ÑĶ Ñħ
ĠÑĥÐ³ ÑģÐ°ÑĢ
ĠÑħÐ°Ð´ Ð°Ð½
ĠÑħÑįÑģÑįÐ³ ÑĤÑįÐ¹
Ð°ÑħÐ³Ò¯Ð¹ Ð³ÑįÑįÑĢ
ĠÐ´Ð°Ð¹ ÑģÐ°Ð½
at or
ÐµÐ³ Ð¸
ÐµÐ³ Ð¾ÑĢ
ÐµÐ³ Ð¼ÑįÐ½ÑĤ
ĠÐ°Ð´ ÑĥÑĥ
ĠÐ´Ð°Ð³ Ð°Ð¶
ÑģÐ³ Ó©Ð»Ð´
ĠÑģÐ¾Ð½Ð³ Ð¾Ñħ
ĠÑģÐ¾Ð½Ð³ Ð¾Ð¶
ÐĲÐ¼ Ð³Ð°Ð»Ð°Ð½
Ð´Ð°ÑĢ Ð°Ð»ÑĤ
ĠÐ°Ð½Ð³ Ð¸Ð»Ð¶
ĠÑħÓ©ÑĢ ÑĪ
ro und
Ð³Ð°Ð¹ Ñħ
ÑħÑįÑĢÑįÐ³ ÑģÑįÐ»
ĠÑħÑĥÑĥÐ» Ð¸Ð¹Ð³
ĠÑħÑĥÑĥÐ» ÑĮÐ´
ÑįÐ²Ñĩ Ð¸Ñħ
Ð¼ÑįÐ´ ÑįÑį
ÑĩÐ¸Ð»Ð³ÑįÑį Ð½Ð¸Ð¹
ĠÑħÐ°ÑĢÐ¸Ð»ÑĨ Ð°Ñħ
Ð´ÑĥÐ³Ð°Ð°ÑĢ ÑĤ
ÐµÑĢÑĤ Ð¸ÑĦ
Ð°Ð¼Ð± ÑĥÑĥ
le y
ĠA ccess
ĠÑħÐ¸Ð¹Ñħ Ð¸Ð¹Ð³
ÑĤÐ¾Ð¼ ÑĮÑĳ
ĠÑĤÑįÐ½ Ð³ÑįÑĢÐ¸Ð¹Ð½
ÑħÒ¯ÑĢ ÑįÑį
ĠÑĥÐ½ ÑĪÐ¸Ð¶
it h
Ð°Ð°Ñħ Ð³Ò¯Ð¹
ĠÐ·Ð¾ÑĢÐ¸ÑĥÐ» Ð°Ð»ÑĤÑĭÐ½
ÑįÑįÐ½Ð´ ÑįÑį
ĠÐ¸Ð´ ÑįÐ¶
ĠÐ¸Ð´ ÑįÐ²ÑħÐ¸
ĠÐ¿ÑĢÐ¾ÑĨÐµÑģÑģ oÑĢ
ĠÑįÑĢÐ³ Ò¯Ò¯Ð»ÑįÐ½
ĠÐ±Ð°ÑĤ Ð°Ð»ÑģÐ°Ð½
ĠÐ±Ò¯Ñģ Ð»ÑįÐ½
ĠÐ±Ð¾Ð»Ð¾Ð²ÑģÑĢ ÑĥÑĥÐ»ÑģÐ°Ð½
ĠÐ±Ð¾Ð»Ð¾Ð²ÑģÑĢ Ð¾Ð½Ð³ÑĥÐ¹
as k
ÑģÐ°ÑĢ Ð½
ÑģÐ°ÑĢ Ð³Ò¯Ð¹
ĠÑĤÐ°Ð½ Ð¸Ð½
ĠÑĤÓ©Ñģ Ð»Ð¸Ð¹Ð½
ÑĥÑĥÐ³ Ð°Ð°Ñģ
ÑĥÑĥÐ³ Ð´ÑģÐ°Ð½
Ð¾ÑģÑĤ Ð¾Ð²
ĠÑĤÐ°ÑĢ Ð°Ð°Ñħ
Ð±Ò¯ÑĢ ÑħÒ¯Ò¯Ð»
ÐĳÐ°ÑĢ ÑĥÑĥÐ½Ñĭ
Ð·Ð°ÑĢ ÑĩÐ¸Ð¼
ĠÐ·Ð°ÑħÐ¸ÑĢ Ð³Ð°Ð°
ĠÑĪÐ°ÑĪ Ð½ÑĭÐ³
Ð³Ó©Ó©Ð½ Ð´
ĠÓ¨ Ð½Ð´Ó©ÑĢ
ÑĤÓ©Ð½ ÑĨ
ÑģÐ³Ð°Ð» Ð°Ð½ÑĤ
ĠÑĤÑįÑĢÐ³ Ò¯Ò¯Ð»ÑįÐ³Ñĩ
ĠÑĤÑįÑĢÐ³ Ò¯Ò¯ÑĤÑįÐ¹
am e
ĠÑħÐ°Ð½ ÑĭÐ½
ĠÑħÐ°Ð½ ÑĭÐ³
ĠÑĥÑģ ÑĤÐ°Ð¹
ĠÐ°ÑĪÐ¸Ð³ Ð»Ð°Ð³Ð´Ð°Ñħ
ĠÐ°ÑİÑĥÐ» Ð´
ĠT r
ĠÑĩÑĥÐ» ÑĥÑĥÐ»Ð³Ð¸Ð¹Ð½
ÐĶÐ°ÑĢ ÑĮ
ĠÓ©Ñģ ÑģÓ©Ð½
Ð¾Ð»Ð» ÐµÐ¶
Ò¯Ò¯Ð»ÑįÐ»ÑĤ ÑįÐ´
ĠÑħÐ°Ð² ÑĤÐ°Ð½Ð³
ĠÑĪÐ°ÑĤ Ð½Ñĭ
Ð°ÑħÐ¸Ð»Ð³ Ð°Ð°Ð½Ñĭ
ÐŃÐ´Ð³ÑįÑįÑĢ Ð¸Ð¹Ð³
ÑĥÐº Ð½ÐµÑĢ
ĠÐ½Ð°Ð¼ ÑĤÐ°ÑĢ
ĠÑħÐ¾Ð»Ð±Ð¾Ð³Ð´ Ð¾Ð¶
ĠÑħÐ¾Ð»Ð±Ð¾Ð³Ð´ ÑĥÑĥÐ»Ð°Ð½
ĠÐ·ÑĥÑĢÐ°Ð³ Ð»Ð°Ð»
ĠÐ·Ð°ÑģÐ°Ð³ Ð»Ð°Ð»ÑĭÐ½
ÑĤÑĥÐ» Ð³ÑĥÑĥÑĢ
Ð¾ÑĢÐ¼ Ð¾Ð½Ñĭ
Ð¥Ò¯Ð½ ÑģÐ½Ð¸Ð¹
ĠÐĲÐ» ÑĮ
ÑĤÑįÑį Ð²ÑįÑĢ
ÑħÐ¾Ð»Ð± Ð¾Ð»ÑĤ
Ð°Ð°ÑĤ Ð½Ñĭ
ent ral
ĠÐ·Ó©Ð²ÑĪÓ©Ó©ÑĢ Ñĩ
lo w
ur n
ĠÑħÑįÑĢ ÑįÐ²
Ð±ÑĥÐ» ÑĩÐ¸Ð½
ĠÒ¯Ñģ Ð³Ð¸Ð¹Ð³
ÑħÑįÐ² Ð»ÑįÐ»
ĠÑħÓ©Ð½ Ð´Ð¸Ð¹Ð½
ĠÑĤÐ°ÑĢÑħ Ð¸
id a
ĠÐ½Ð¸Ñģ Ð´ÑįÐ³
Ð¢ÑįÐ³ ÑįÑħÑįÐ´
ĠÐ¼Ð°Ð½ Ð¶Ð¸Ð¹Ð½
ĠÐ½ÑįÑĢÑĤÑįÐ¹ Ð³ÑįÑįÑĢ
ĠÑħÐ°Ð¹ÑĢ ÑħÐ°Ð½
ĠÑħÒ¯ÑĢÐ³ ÑįÑħ
ĠÑģÑįÑĤÐ³Ò¯Ò¯Ð» Ð¸Ð¹Ð½
ĠÑģÑįÑĤÐ³Ò¯Ò¯Ð» Ñĩ
Ó¨Ó©ÑĢ ÑĩÐ»
ĠÑħÐ¾ÑĪÑĥÑĥ Ð½Ð´
ĠÐ¾Ð»Ð³ Ð¾ÑģÐ¾Ð½
ÐĺÐ½Ð³ ÑįÑħÐ´ÑįÑį
ĠÐ½Ð¸Ð¹Ð» Ð¶
ĠÐ½Ð¸Ð¹Ð» Ð±ÑįÑĢ
ÑģÑĥÑĥÑĢ Ð¸Ð»
ĠÐ°Ð½ Ð¸Ð¼
ĠÑĤÓ©Ð»Ó©Ó© Ñħ
ĠÐ·Ð°Ð½ Ð°Ð»
ĠÐ·Ð°Ð½ ÑĪÐ¸Ð»
Ġc om
ĠÐ´Ð¾Ð²ÑĤ Ð¾Ð»Ð³Ð¾Ð¾
Ð¸ÑĢÑĤ ÑĥÐ°Ð»ÑĮ
ĠÑĤÓ©Ð»Ó©Ó©Ð» Ó©Ð³ÑĩÐ¸Ð´
ĠÐ·Ð¾Ð³Ñģ Ð¾Ð¾Ñħ
ĠÐ°Ð³Ð°Ð°ÑĢ ÑĤ
ĠÐ® Ð°Ð½ÑĮ
Ð¡ÑĤ Ð¸Ð²
Ð¡ÑĤ Ð°Ð½Ð´Ð°ÑĢÑĤ
Ġ15 00
ĠÑģÐ°Ð¹Ð´ Ð°Ð°ÑĢ
ĠÑĥÑĤÐ³ Ð°Ð°ÑĢÐ°Ð°
ĠÑħÑĥÐ²Ð¸Ð»Ð±Ð°ÑĢ ÑĥÑĥÐ´
ĠÑĤÐ°Ð»Ð±Ð°Ð¹ Ð³
ĠÑįÐ»ÐµÐ¼ÐµÐ½ÑĤ Ò¯Ò¯Ð´Ð¸Ð¹Ð³
ĠÐ·Ó©Ð²Ð» Ó©Ñħ
ĠÐ½Ð¸Ð¹Ð³ÑįÐ¼ Ð»ÑįÐ³
ÐŀÐ´ Ð¾Ð¾Ð³Ð¾Ð¾ÑĢ
ÑĤÐµÑħÐ½ Ð¾Ð»Ð¾Ð³Ð¸
Ð¡ÑĥÑĢ Ð³Ð°Ð»ÑĤÑĭÐ½
ĠÑģÒ¯ÑĢ Ð»ÑįÐ³
ĠÐ±Ð¾Ð´Ð¸Ñģ ÑĭÐ³
ĠÐ¸Ð»ÑįÑĢÑħÐ¸Ð¹Ð» ÑģÑįÐ½
ab y
ĠÐ´Ð°Ð¹ÑĢ Ð°Ð½
ĠÐ´ÑįÐ²ÑģÐ³ÑįÑĢ Ð¸Ð¹Ð½
ĠÐ¼ÑįÐ½Ð´ ÑįÐ»Ð¶ÑįÑį
ĠÑĤÓ©Ð»Ó©Ð²Ð» Ó©Ð³Ó©Ó©Ð³
Ð¸Ð¹Ð» Ó©Ð½
ĠÐ·Ð°Ð² ÑģÑĢÑĭÐ½
Ð¥Ð¾ÑĳÑĢ Ð´ÑĥÐ³Ð°Ð°ÑĢ
ĠÒ¯Ò¯Ð´ ÑįÐ½
ĠÒ¯Ò¯Ð½Ð¸Ð¹Ð³ ÑįÑį
ÑĥÑĥÐ»Ð°Ð³ ÑĩÐ´ÑĭÐ½
Ð¾Ð²ÑģÐº Ð¸Ð¹
ĠÐ°Ð¶Ð¸Ð»Ð» ÑĥÑĥÐ»Ð¶
ĠÑĪÐ°Ð»Ð³ Ð°Ð´Ð°Ð³
ĠÐºÐ¾Ð¼Ð°Ð½Ð´ Ð»Ð°Ð³Ñĩ
Ò¯Ðµ Ð¸Ð¹Ð½
ĠÐ±Ð°Ñı ÑĢÑĭÐ½
ĠÐ·Ð°Ð° Ð´Ð°Ð³
ĠÑħÑįÑĢÑįÐ³Ð¶ Ò¯Ò¯Ð»Ð¶
ĠÑħÑįÑĢÑįÐ³Ð¶ Ò¯Ò¯Ð»Ð´ÑįÐ³
ĠÑĤÐ°Ð¹ Ð²Ð°Ð½
Ó¨Ð½ Ó©Ó©Ð³Ð¸Ð¹Ð½
ĠÐ´Ò¯ÑĢÑģ Ð»ÑįÑħ
Ð±Ð¾Ñģ Ð»Ð¾Ð³Ð¾
ĠÑħÑĥÐ²Ð° Ð°Ð³Ð´
ĠÑħÑĥÐ²Ð° Ð°Ð³Ð´Ð´Ð°Ð³
ĠÑģÐ¾Ð½Ð³ÑĥÑĥÐ» Ð¸Ð°ÑĢ
ĠÑĨÐ°ÑĨ ÑĢÐ°Ð³
Ð¤ÑĢ Ð¸Ð´ÑĢÐ¸Ñħ
ĠÐ°Ð½Ð³Ð¸Ð» Ð°Ð»
ĠÐ°Ð½Ð³Ð¸Ð» Ð´Ð°Ð³
ĠÑĤÐ°Ð¼Ð¸ÑĢ ÑĩÐ¸Ð´
ĠÐ½Ò¯Ð´ Ð½Ð¸Ð¹
ĠÐ·ÑĥÑĥÐ½ Ð°Ð°Ñģ
ÐĳÑĥÑĢ Ð¸Ð°Ð´
ĠÐ±Ð°Ð¹ÑĢÐ» ÑĥÑĥÐ»ÑģÐ°Ð½
Ð¼Ð¾Ð½Ð³Ð¾Ð» ÑĭÐ½
Ð°Ð´ÐµÐ¼ Ð¸
ĠÑĤÐ¾Ð¼Ð¸Ð» ÑģÐ¾Ð½
Ð¾ÑĨÐ¸Ð°Ð» Ð¸Ð·Ð¼ÑĭÐ½
Ð¼ÑįÐ´ÑįÑįÐ» ÑįÐ»
Ð¼ÑįÐ´ÑįÑįÐ» Ð»Ð¸Ð¹Ð½
ÑıÑĨ ÑħÐ°Ð½
ĠÑĪÑĥÐ² ÑĥÑĥÐ´
ĠÐ±Ð°ÑĢÐ¸Ð¼ Ð°Ð»
Ð±Ð°Ð°ÑĤ Ð°ÑĢÑĤ
ĠÐ¾Ð¹Ð»Ð³Ð¾Ð»ÑĤ ÑĭÐ³
ĠÐ´ÑįÐ³ Ð»ÑįÐ¼
ĠÐ°Ð³ÑĥÑĥÐ» Ð°Ð¼Ð¶
net work
Ð´Ð¾Ð²ÑĤ Ð¾Ð»Ð³Ð¾Ð¾
Ð·Ð°Ð² ÑģÐ°ÑĢ
ĠÐ¼ÐµÑĤ Ð°Ð»
ĠÐ¼ÐµÑĤ ÑĢÐ¸Ð¹Ð½
ÐĹÒ¯Ò¯Ð½ Ð³Ð°ÑĢÑĭÐ½
ÑĪÐ¸Ð½Ð¶ Ð»ÑįÑħ
ub e
Ð´Ð¾ÑĢ Ð¾Ð¹
Ð°Ð¼Ð¿ ÑĥÑĥÑĢ
ĠÑĥÑĢÐ°Ð»Ð´ Ð°Ð°Ð½Ñĭ
ĠÑħÒ¯Ò¯ÑħÑįÐ´ ÑĤÑįÐ¹
Ð½Ð°ÑĢ Ð¸Ð¹Ð²
ĠÑħÐ°Ñģ Ð°Ñħ
ÑĨÑįÐ³ ÑĨ
ĠÐ³Ð°Ð² ÑĮÑıÐ°
ĠÑħÑĥÐ²Ð°Ð°ÑĢ ÑĮ
ĠÑĥÐ´Ð¸ÑĢ Ð´Ð°Ð³
ĠÑħÑįÐ²Ð» Ò¯Ò¯Ð»ÑģÑįÐ½
ĠÐķÑĢÓ©Ð½ÑħÐ¸Ð¹ Ð»Ó©Ð³Ñĩ
ÐŁÐµÑĢ ÑģÐ¸Ð¹Ð½
ĠÑĤÑĥÐ»Ð³ÑĥÑĥÑĢ Ð»Ð°ÑģÐ°Ð½
ĠIP v
ĠÑħÐ°ÑĢÑĮÑı Ð°ÑĤ
ĠÐ¿Ð°ÑĢÐ»Ð°Ð¼ÐµÐ½ÑĤ ÑĭÐ½
ĠÐ¼Ó©Ð½Ð³Ó©Ð½ Ð¸Ð¹
ĠÓ©Ð²Ñĩ ÑĤÓ©Ð½
ÑĪÐ°Ð°ÑĢÐ´ Ð»Ð°Ð³
ÑģÒ¯Ò¯Ð» ÑĤ
ÑħÒ¯Ò¯Ñħ Ð´
Ð¥Ó©Ð³Ð¶ Ð¸Ð¼
ÐĺÐ½ÑĤÐµÑĢ Ð½ÐµÑĤ
Ð°ÑĥÐ´ ÑĭÐ½
ÑįÑĢÑģ Ð´ÑįÐ»
ÑĨÐ°ÑĢ Ð¸Ð¹Ð½
Ð°Ð¼ÑĪ Ð»ÑĭÐ½
Ó©ÑĢÐ³ Ó©Ð¼Ð¶Ð»
ĠÑĩÐ¸Ð³Ð» ÑįÑģÑįÐ½
ÑĥÑħÐ°Ð¼ Ð¼ÐµÐ´
ĠÑħÑįÑģÐ³ Ò¯Ò¯Ð´Ð¸Ð¹Ð½
ĠÑħÒ¯Ò¯ÑħÐ´ Ò¯Ò¯Ð´
ĠÐ±Ð¾Ð»ÑģÐ½ Ð¾Ð¾Ñģ
Ð¢Ó©Ð³ ÑĢÓ©Ð³
ĠÐľÐ¾ÑģÐºÐ² Ð°
ĠÐľÐ¾ÑģÐºÐ² Ð°Ð³Ð¸Ð¹Ð½
Ð±Ó©Ð¼Ð± Ó©ÑĢ
Ð¥Ó©Ð´Ó©Ð» Ð¼Ó©ÑĢÐ¸Ð¹Ð½
Ð¢ÑĢ Ð¸Ð³
ĠÓ©ÑĢÐ½ Ó©Ð¶
ĠÑħÐ¾Ð»Ð±Ð¾Ð»ÑĤ ÑĭÐ³
ĠÑģÑĥÑĥÐ³ ÑĩÐ´ÑĭÐ½
Ð¥ÑĥÑĥÐ» Ð¸Ð¹Ð½
Ð¥Ð¾Ð² Ð´ÑĭÐ½
ÑĢÐ¾ÑĦ ÐµÑģÑģÐ¾ÑĢ
ÑĤÑĥÑĥÑĢ Ð²
ĠÑĤÑįÐ½Ñħ Ð¸Ð¼
Ð±Ð¸Ð» ÑįÐ³
ĠÐ¼Ð°ÑĤÐµÐ¼ Ð°ÑĤÐ¸ÐºÐ¸Ð¹Ð½
ĠÐ¢Ð°Ð¹ Ð²Ð°Ð½
ĠÑĤÑĥÐ¹ Ð»
Ð°ÑħÐ¸ ÑĥÑĢ
Ð¸ÑĢÐ³ÑįÐ½ Ð¸Ð¹
ÐµÑĢÐ± Ð¸Ð¹Ð½
ĠÑħÐ°Ð¶ÑĥÑĥ Ð³Ð°Ð°ÑĢ
ĠÑĤÑįÐ½Ð´ ÑįÑįÑģ
Ð¡Ð¾Ð½Ð³ Ð¾Ð´Ð¾Ð³
ÐĳÐ°Ð¹Ð³ÑĥÑĥÐ» Ð»Ð°Ð³ÑĭÐ½
Ð¸Ð»ÑįÑĢÑħÐ¸Ð¹ Ð»
ĠÐ±Ð°Ð¹Ð»Ð³ Ð°Ñħ
Ð¢Ó©ÑĢ Ó©Ð»
ÐĲÐ¼ÑĮÐ´ ÑĢÐ°Ñħ
Ð¢Ð¾Ð´ Ð¾ÑĢÑħÐ¾Ð¹
ÐľÐ¸ÑħÐ° Ð¸Ð»
Ð£Ð½ Ð³Ð°ÑĢ
ĠÒ¯Ð·ÑįÑģÐ³ÑįÐ» ÑįÐ½ÑĤ
Ð¾Ð½ÑģÐµÑĢÐ² Ð°ÑĤ
ÐŀÐ»Ð¸Ð¼Ð¿ ÑĭÐ½
ĠÑħÑĥÐ´ Ð°Ð»
ĠÑģÑĤÑĢÐ°ÑĤ ÐµÐ³Ð¸Ð¹Ð½
ÐĿÑįÑĢ Ð³Ò¯Ð¹
ĠÐºÐ» Ð¸Ð¿
Ð¼ÑįÐ³ ÑĨ
ĠÐ³Ð°Ð¹ÑħÐ°Ð¼ ÑĪÐ¸Ð³ÑĤ
Ð¥Ó©Ð² ÑģÐ³Ó©Ð»
Ð¢Ð°Ñģ Ð°Ð»Ð´
ÐĴÑĮÐµÑĤ Ð½Ð°Ð¼
Ð¤Ð¸Ð» Ð¸Ð¿Ð¿
ĠÑĤÐ¾Ð³ÑĤÐ½Ð¾ ÑģÐ¾Ð½
Ó¨Ð¼Ð½ Ó©
ĠÐ¿Ð°ÑĢ Ð°Ð¼ÐµÑĤÑĢ
ÐĽÐ° Ð¾ÑģÑĭÐ½
ĠÐ·Ð°ÑĢÐ»Ð¸Ð³ Ð°Ð°ÑĢ
ÑĢÐ¸Ð¿ ÑĤ
ÑģÑĥÑĢÑĤÐ°Ð» ÑĩÐ¸Ð»
ĠÐ½ÑįÐ²ÑĤÑįÑĢ Ñĩ
Ð¢Ð°Ð² Ð°Ð½
ÐľÐ¾ÑģÐºÐ² Ð°Ð³Ð¸Ð¹Ð½
ÑħÐ°ÑĢÑĮÑı Ð°Ð»
ĠÐŀÐ» Ð¸Ð¼Ð¿
irl s
ĠÐ¼ÑįÑĢÐ³ÑįÐ¶Ð¸Ð» ÑĤÑįÐ½
ĠÑĤÓ©Ð¼ ÑĢÐ¸Ð¹Ð½
Ð·Ð°Ð° Ð²Ð°ÑĢ
Ð¥ÑĥÑĥÐ´ Ð°Ñģ
ÐĺÑģÐ¿ Ð°Ð½Ð¸Ð¹Ð½
ĠÐ°Ð¼ÐµÑĢ Ð¸Ðº
ĠÐ´Ò¯ÑĢÑģÑįÐ» ÑģÑįÐ½
ĠÑĤÐ°ÑĤÐ³Ð°Ð»Ð· ÑģÐ°Ð½
Ð¾ÑĥÐ» Ð¸Ð½Ð³
Ð²Ð°Ð´ Ð¾ÑĢÐ¶
ĠÑģÐµÐº ÑĥÐ½Ð´
Ð¸Ð¼Ð°Ð» Ð°Ð¹Ð½
Ð¾Ð½Ð´ÐµÐ½Ñģ Ð°ÑĤÐ¾ÑĢ
Ð¦ÑįÑĢ ÑįÐ½Ð´
ĠÐ¨Ð¸Ð½ Ñį
irt ual
Ð°Ð²Ð·Ð°Ð½Ð´ Ð°Ð¼Ð±Ð°
ĠÑĪÐ¾ÑĢÐ¾Ð½ Ð³Ð¸Ð¹Ð½
ÐĲÑĦÑĢ Ð¸Ðº
ÐĽÐ¾Ð³ Ð¸Ðº
Ð°ÑĢÐ»ÑĮ Ð·
Ð¨Ð¸Ð½Ð¶ Ð»ÑįÑħ
Ð¢ÐµÐ»ÐµÐ²Ð¸Ð· Ð¸Ð¹Ð½
ÐŃÑģÑĢ ÑįÐ³
ÐĹÓ©Ð³ Ð¸Ð¹Ð½
Ð¸ÑĪÐ½Ð°Ð¼ ÑĥÑĢ
ĠÑģÐ¸Ð¼ÑĦ Ð¾Ð½Ð¸
ĠÐ¨Ð¸Ð½Ð¶ Ð»ÑįÑħ
. "
/ ,
A M
A R
A g
A r
B M
B e
C H
C ol
D L
E N
G P
I C
I CA
I EEE
L E
L e
M M
M ag
O ff
P O
P P
R F
S EED
T er
T CP
U I
U nix
V ID
V III
V PN
W i
W or
X IX
Y Y
a k
b ack
c ul
c tr
f ic
f ig
h ost
i b
i ti
l ock
m em
m un
m iss
o us
o ul
p rotocol
u le
u th
u per
v a
Ã ©
â Ĥ
Ġ ;
Ġ r
Ġ 47
Ġ 55
Ġ 75
Ġ Ð¸Ð¼
Ġ 120
Ġ 250
Ġ ac
Ġ 400
Ġ Ð°ÐºÑĤ
Ġ Ó©Ó©Ñħ
Ġ ip
Ġ QR
Ġ Ð¸Ð·Ð¾ÑĤÐ¾Ð¿
Ð½ Ð°Ð¼Ð´
Ð½ ÑıÐ¼
Ð½ ÑįÑįÐ»ÑĤ
Ð½ Ð°ÑģÑĤÐ°Ð¹
Ð½ ÑĥÐºÐ»
Ð½ Ð°Ð¼Ð¶Ð¸Ð»
Ñį x
Ð³ Ó©Ð³Ñĩ
Ð³ ÑĥÑģÑĤ
Ð³ ÑĢÐ°ÑĦ
Ð³ ÑįÐ³Ð¸Ð¹Ð½
Ð» ÑģÐ°Ð½
Ð» Ð°Ð¹Ð»
Ð» Ð¸ÐºÐ¸Ð¹Ð½
Ð» Ó©Ó©Ñģ
Ð» ÑĥÑĥÐ´Ð°Ð´
Ð» Ð°Ð¼ÑĭÐ½
Ð» Ð¾Ð»ÑĭÐ³
Ð» ÐµÐ±
Ð» Ð¾Ð²ÑĭÐ½
ÑĢ Ð½
ÑĢ Ñĩ
ÑĢ Ð¾ÑĢ
ÑĢ Ð°Ð¶
ÑĢ Ó©Ó©ÑĢ
ÑĢ Ð¸Ñģ
ÑĢ Ð°Ð»ÑĤÑĭÐ½
ÑĢ Ð°ÑħÐ³Ò¯Ð¹
ÑĢ ÑįÐ»ÑĤÑįÐ¹
Ð¾ ÑİÑĥÑĤ
Ð¸ Ð°Ñħ
Ð¸ ÑģÐ°Ð½
Ð¸ ÑĥÑĢ
Ð¸ ÐµÐ²
Ð´ Ð¾Ð¾ÑĢ
Ð´ Ð»Ð°Ð³Ð°
Ð´ ÑįÑĢÐ³ÑįÐ´
Ò¯ Ð³Ð¸Ð¹Ð½
Ò¯ ÑĩÐ¸
ÑĤ ÑģÐ°Ð½
ÑĤ Ð¸Ð¼
ÑĤ ÑģÐ¾Ð½
ÑĤ Ò¯Ð»
ÑĤ Ð°Ð³Ð½
ÑĤ Ð¾Ð»ÑĮ
ÑĤ Ð¸Ð»Ð»
ÑĤ Ð½ÑĥÑĥÐ´ÑĭÐ½
ÑĤ ÐµÐ°ÑĤ
ÑĤ ÐµÐ¾ÑĢÐµÐ¼
Ñģ Ñĥ
Ñģ Ñĩ
Ñģ Ð°Ð´
Ñģ Ó©Ð³
Ñģ ÑĤÐ°Ð¹
Ñģ Ð°Ñı
Ñģ Ð»ÑįÑħ
Ñģ Ð¸Ð¹Ð»
Ñģ Ð¸Ð³Ð½
Ñħ ÑĤÑįÐ¹
Ñħ ÑĥÐ¹
Ñħ Ð¸ÑģÑĤ
Ñħ ÑįÐ²Ñĩ
Ñħ ÑıÑĤÐ°Ð´ÑĭÐ½
Ñħ Ð°Ð³Ð°Ñģ
Ñħ ÑĢÐ¾Ð¼
Ñħ ÑĥÑĤÐ°Ð³ÑĤ
Ó© ÑĤ
Ð¼ Ð¾
Ð¼ Ð±
Ð¼ Ð°ÑĪ
Ð¼ ÐµÑģÑģ
Ð¼ Ð°Ð½ÑĮ
Ð¼ Ð°ÑģÑģ
Ð¼ Ð±Ð¾
Ð¼ ÑĶÑĢ
Ð¼ ÑĥÐ·ÐµÐ¹
ĠÐ± Ð¾ÑĢÐ´
ĠÐ± ÑįÑĢÑĤ
ĠÐ± ÑıÑģÐ»Ð°Ð³
Ð°Ð½ Ð¸Ð½
Ð°Ð½ Ð¸Ð¹Ð³
Ð°ÑĢ Ð°Ð²
Ð°ÑĢ Ð³Ð°Ð°ÑĢ
Ð°ÑĢ Ð²Ð°Ð½
Ð°ÑĢ Ð¼Ð¸
ĠÑħ Ð¸Ð¼
ĠÑħ Ð°Ð½Ñĭ
ĠÑħ Ð°Ð½ÑĤ
ĠÑħ Ð°Ð¹Ñħ
ĠÑħ Ð¾Ñĩ
ĠÑħ Ó©Ð¼ÑĢÓ©Ð³
ĠÑħ ÑįÑĤÑĢ
ĠÑħ Ð¾ÑĨÑĢ
Ð¶ ÑĥÑĥÐ´
Ð¶ Ð¾Ð»Ð¾Ð¾
Ð² Ðµ
Ð² Ð°Ð³
Ð² Ñĩ
Ð² Ð°Ð°ÑĢ
Ð² ÑįÑįÑģ
Ð² ÐµÐ½
Ð² Ð°Ð°Ð½Ð´
Ð°Ð¹ Ñģ
Ð°Ð» Ð¾Ð³
Ð°Ð» ÑĥÑĥÐ´ÑĭÐ½
Ð¾Ð» Ð¾Ð¾ÑĢ
Ð¾Ð» Ð¸Ð·
Ð°Ð³ ÑĩÐ´ÑĭÐ³
Ñĩ Ð¸Ð³Ð¸Ð¹Ð½
Ñĩ ÑĥÑĥÐ»Ð³Ð°Ð½
Ñĩ Ð½Ó©Ó©ÑĢ
Ñĩ ÑĥÑħÐ°Ð»
ĠÐ½ Ð¾Ð¾Ñģ
ĠÐ½ Ð°Ð»ÑĥÑĥ
ĠÐ½ Ó©Ð»Ó©Ó©Ð½Ð´
ki ng
ÑĮ ÐºÐ¾Ð²
ÑįÐ³ Ð½
ÑįÐ³ ÑĩÐ¸Ð¹Ð½
Ð°Ð° ÑĪÐ¸Ð»
Ð¾ÑĢ Ð¾Ð»Ð´
Ð¾ÑĢ Ð´Ð¾Ð³
Ð± Ð¾Ð³
Ð± Ó©Ð³
Ð± Ð¾Ð¹
Ð± Ð°Ð°Ð³
Ð± Ð°Ð»ÑĭÐ½
Ð± Ð¾ÑĢÐ´
Ð± Ð¾ÑħÐ¸ÑĢÐ´
ÑĨ Ð°
ÑĨ Ð°Ð»
ÑĨ Ð°Ð²
ÑĨ Ó©Ð»
ÑĨ Ó©Ó©ÑĢ
ÑĨ ÑĥÐ³
ÑĨ ÑĥÑĤÐ³
ÑįÐ» ÑįÐ½
ÑįÐ» ÐµÐºÑĤÑĢ
ĠÐ´ Ð°Ð°Ð½
ĠÐ´ ÑįÐ±
ĠÐ´ Ð¸Ð½Ð°Ð¼Ð¸Ðº
ÑĪ Ð³
ÑĪ Ð¸
ÑĪ Ð¾ÑĢ
ÑĪ ÑĥÑĥÐ»
ÑĪ Ð°Ð°ÑĢ
ÑĪ Ò¯ÑĢ
ÑĪ Ð°Ð°Ð½
ÑĪ ÑĥÑĥÐ»Ð°Ñħ
ÑĪ Ò¯Ð´
ÑĪ Ò¯Ò¯Ð³
Ð· ÑĢ
Ð· Ó©Ð³
Ð· Ò¯Ò¯Ð´
Ð· ÑįÑĢÐ³
Ð· Ð°Ð¹Ð½
Ð· Ó©Ó©Ð»
Ð· Ð°Ð½Ð³Ð¸Ð»
ĠÐ³ Ó©ÑĢ
ĠÐ³ Ð¾Ð¾
ĠÐ³ Ð°ÑĤ
ĠÐ³ Ð°ÑĪ
ĠÐ³ Ð°Ð»ÑĭÐ½
ĠÐ³ ÑĥÐ¹Ð²
Ð¸Ð½ Ð¾Ñħ
Ð¸Ð½ Ð°Ð°Ñģ
Ð°Ð¼ Ñħ
Ð°Ð¼ Ð±Ð°Ð¹
Ð°Ð¼ Ð°Ð¹Ð³
Ð°Ð¼ Ð¾ÑĤÐ¾
ĠÑģ Ð²
ĠÑģ Ðº
ĠÑģ Ò¯Ò¯Ð´
ĠÑģ Ò¯Ð³
ĠÑģ Ð¸Ð½ÑĤ
ĠÑģ Ð¾Ð»Ð¾Ð½Ð³Ð¾Ñģ
ĠÑģ Ð¿Ð¸ÑĢ
ĠÑģ ÐµÐ³Ð¼ÐµÐ½ÑĤ
Ðº Ð³
Ðº ÑĥÑĢ
Ðº Ð°Ð½Ñĭ
Ðº ÐµÑĢÐ½
Ð°Ñħ ÑĥÐ¹
ĠÐ· ÑįÑįÑĢ
ĠÐ· Ò¯Ò¯Ð´
ĠÐ· ÑįÐ²
ĠÐ· Ð°Ð°Ð²
ĠÐ· ÑĥÐ³Ð°Ð°
Ó©ÑĢ ÑģÓ©Ð½
Ó©ÑĢ Ð³Ó©Ð¶
Ð¾Ð³ ÑĭÐ½
Ð¾Ð³ Ð´Ð»
Ð¾Ð³ Ð¾Ð²ÑĮ
ÑĥÑĥÐ» ÑĮ
ĠÑĥ Ð¹
ĠÑĥ ÑĥÐ¶
Ð°Ð´ ÑĢ
Ð°Ð´ Ð¸Ð»
ÑģÐ°Ð½ Ð°Ð°Ñģ
Ó©Ð³ ÑĩÐ´
Ó©Ð³ Ð´Ð»Ð¸Ð¹Ð³
Ó©Ð½ ÑĨÓ©Ð³
ĠÐ¼ Ð°Ð»Ð³Ð°Ð¹
ĠÐ¼ ÐµÐ¼Ð±ÑĢÐ°Ð½
ĠÐ¼ ÑĥÐ·ÐµÐ¹Ð½
Ñı Ð°Ð³
Ñı Ð³Ð¸Ð¹Ð½
Ñı Ð»Ð°Ð»
Ñı Ð¿Ð¾Ð½
Ð°Ð² Ð¸
Ð°Ð² Ñħ
Ò¯ÑĢ Ð¶
Ð¸ÑĢ ÑģÐ°Ð½
Ð¸ÑĢ ÑĥÐ½
ÐµÑĢ Ð°Ð·
ÑįÐ¼ ÑĩÐ¸Ð½
Ð¥ ÑįÑģ
Ð¥ Ò¯Ð»
Ð¥ Ò¯Ð¼
Ð¥ Ò¯Ð·
Ð¥ ÑĥÐ´Ð°Ð»Ð´
Ð¥ Ð°Ð³Ð°Ñģ
Ð¥ Ð°Ð»Ð¸Ð¼
Ð¥ Ð°Ð»ÑħÑĭÐ½
Ð¥ ÑĥÐ¶Ð¸ÑĢ
Ð¥ Ð¸Ð°Ð³ÑĤ
ĠÒ¯ Ð³ÑįÑįÑĢ
ĠÒ¯ Ð³ÑįÑį
ÑįÐ¹ ÑĤ
ÑįÐ¹ ÑģÐ¸Ð¹Ð½
ÑįÐ¹ ÑĪÐ½
Ð¿ Ð¸
Ð¿ Ð¾Ð»ÑĮ
Ð¿ ÑĢÐ¾ÑĤ
ĠÑĪ Ð¾Ñĥ
ĠÑĪ Ð°Ð°ÑĢÐ´Ð°Ð³
Ð¢ Ð¾ÑĢ
Ð¢ Ð°Ñħ
Ð¢ Ð¾Ð³
Ð¢ Ð°ÑĤ
Ð¢ Ð¸ÑĤ
Ð¢ Ð°Ð³Ð½
Ð¢ Ò¯Ð²
Ð½Ð¸Ð¹ Ñħ
Ð½Ð¸Ð¹ ÑĤÐ¸Ð¹Ð½
Ð¾Ð¼ Ð¸
ÑĥÐ» Ð¸ÑĤ
Ð°ÑĤ Ð¸
Ð°ÑĤ Ð³Ð°Ð»
Ò¯Ò¯Ð» ÑįÑį
Ò¯Ò¯Ð» ÑįÐ»
Ð¸Ð³ Ð°
Ð¸Ð³ Ð°Ð°ÑĢ
Ð¸Ð³ Ð°Ð°Ñģ
Ð¾Ð´ Ð¸
Ð¾Ð´ ÑĭÐ³
ÐĲ Ð°Ð²
ÐĲ Ð»Ð°Ð³
ÐĲ ÑĤÐ°Ð»
ÐĲ ÑĩÐ°Ð°Ð»
Ðľ Ð¸
Ðľ Ð°Ð½Ñħ
Ðľ ÑıÐ½
Ðľ ÐµÐºÑģ
Ðľ Ð°ÑĪÐ¸Ð½
Ð½Ñĭ ÑħÐ°Ð°
Ðĳ Ò¯
Ðĳ Ð¾Ð½
Ðĳ ÑĥÑĤ
Ðĳ ÐµÐº
Ðĳ Ò¯Ð¶
Ðĳ Ð¸Ð»Ð»
Ðĳ Ò¯Ñģ
Ðĳ ÐµÐ½ÑĨ
Ðĳ Ð°Ð¹Ð»Ð´Ð°Ð°Ð½Ñĭ
ĠÑĨ ÑĥÐ³
ĠÑĨ ÑĥÑĨ
ĠÑĨ Ð°Ð°Ð½Ð°
ĠÑĨ Ð°Ð°ÑģÐ½Ñĭ
Ð³Ò¯Ð¹ Ð»
ÑģÑĤ Ð°ÑĤ
ÑģÑĤ ÑĢÐ°ÑĤ
ĠÐ¾ÑĢ Ð¾ÑģÑĭÐ½
ĠÐ¾ÑĢ Ð¾Ð¾Ð³Ò¯Ð¹
ĠÐ¾ÑĢ Ð»Ð¾Ð³ÑĭÐ½
Ò¯Ò¯Ð´ Ð´ÑįÑį
ÐŃ Ð·ÑįÐ½
Ð¡ Ð¸Ð»
Ð¡ Ò¯Ð¹
Ð¡ Ò¯ÑĢ
Ð¡ Ð¾Ð´
Ð¡ ÐµÐ¼
Ð¡ Ð°ÑĢÑĭÐ½
Ð¡ Ð°Ð½ÑĤ
Ð¡ Ð°Ð»Ñħ
Ð¡ ÐµÑĢÐ³
Ð¡ Ð¾Ð»Ð¾Ð½Ð³Ð¾ÑģÑĭÐ½
Ð¡ Ò¯Ð±
Ð¡ ÑĤÐ°Ð»Ð¸Ð½
Ð°Ð°Ñģ Ð½Ð°Ð°ÑĢ
Ð½Ð° ÑĨ
ÑģÐ¾Ð½ Ð³ÑĥÑĥÐ»
Ð¸Ð´ Ð¾
Ð¸Ð´ Ð°Ð´
ÑįÑģ ÑįÑįÑĢ
ĠÐ¾Ð½ Ð¾Ð¾ÑģÐ¾Ð½
ÑĤÐ³ Ð°Ð¶
ÑĤÐ³ ÑįÐ½Ñį
ÐĿ Ðµ
ÐĿ Ð¾Ð³
ÐĿ ÑĥÑĢ
ÐĿ Ð°ÑĨ
ÐĿ Ð°Ð¼ÑĭÐ½
ÐĿ Ð°Ð²Ñĩ
ÐĿ Ð¾Ð¼ÑĭÐ½
ÐĿ ÑĥÑĤÐ°Ð³
ÐĶ Ð½
ÐĶ Ð¾Ð¾Ð´
ÐĶ Ó©ÑĢÐ²
ÐĶ Ó©ÑĢÓ©Ð²
Ð¸Ðº Ð¸Ð¿ÐµÐ´
ĠÐ±Ò¯ ÑħÐ½
ĠÐ±Ò¯ Ð¶Ð¸Ð³
ĠÑİ ÑĥÐ½Ñĭ
Ðĵ Ð°Ð½Ð´
Ðĵ ÐĹ
Ð´ÑįÐ³ Ñĩ
ĠÑİÐ¼ Ñģ
Ð»ÑįÐ³ Ð´
Ð»ÑįÐ³ Ð´ÑįÑįÐ³Ò¯Ð¹
Ð£ Ð¥
Ð£ ÐºÑĢ
Ð°Ð½Ð´ Ð´Ð¾ÑĢÐ¶
ÑĦ Ñĥ
ÑĥÑĥÑĢ ÑĤ
Ð¾Ð¾ÑĢ Ð´Ð¸Ð½
Ðļ Ñĥ
Ðļ Ð¸Ð¼
Ðļ ÐµÐ¹
Ðļ Ð¾Ð»Ð»
Ðļ ÐµÐ²Ð¸Ð½
Ñĳ Ð½ÑĮ
ĠÑħÐ°Ð¼ ÑĢÐ°Ñħ
Ð¾Ñģ ÐµÐºÑģ
ĠÐ³Ð°ÑĢ Ð°Ð½
ĠÐ³Ð°ÑĢ Ð°Ð³
ĠÐ³Ð°ÑĢ Ð°Ð°ÑĢ
ĠÐ³Ð°ÑĢ ÑĭÐ³
ĠÐ³Ð°ÑĢ Ð°Ð³Ð¸Ð¹Ð½
ĠÐ³Ð°ÑĢ Ð°Ð°Ð³Ò¯Ð¹
ÑįÑįÐ» ÑĤÑįÐ¹
ĠÐ°Ð¶ Ð¸Ð³
ĠÐ°Ð¶ Ð»Ð°Ð°
ĠÐ¶ Ð¸Ð¼
ĠÐ¶ Ð¸ÑĢÐ¸Ð¹Ð½
Ó©Ñħ Ó©Ó©Ñģ
ĠÐ½ÑįÐ³ Ð¸Ð¹Ð³
Ð°Ð· Ð°ÑĢÑĭÐ½
Ð¸ÑĤ ÐµÑĢ
Ð¸ÑĤ ÐµÐºÑĤÐ¾ÑĢ
ĠÐ¾Ð» Ð¶ÑįÑį
Ðĺ Ð±
Ðĺ Ð¾Ñħ
Ðĺ Ðļ
ÑĥÑĤ Ð°Ñģ
ÑĥÑĤ Ð³Ð°
ĠÐ±Ð¸ ÑĩÐ¸Ð»
ĠÐľ Ð°Ð»
ĠÐľ Ð°ÑĢÐº
Ð°Ð½Ð³ ÑĥÑĥ
Ð°Ð½Ð³ Ð°Ð°ÑĢÐ°Ð°
Ð°Ð³Ð´ Ð°Ð°
Ð°Ð³Ð´ Ð°Ð°Ð´
Ð°Ð³Ð´ Ð°Ð´ÑĭÐ½
ĠÐ°Ð¼ Ð½Ñĭ
ĠÑĥÑĢ Ð³ÑĥÑĥÐ»
ĠÐ°Ð² ÑĢÐ°Ñħ
Ðŀ ÑĤ
ĠÒ¯Ðµ ÑĤÑįÐ¹
ĠÐ°ÑĢ Ð¼
ĠÐ°ÑĢ Ð¸Ð»Ð³
ĠÐ¥ ÑįÑĢ
ĠÐ¥ Ð¥
ĠÐ¥ ÑįÐ½ÑĤÐ¸Ð¹
ĠÐ¥ ÑĥÐ±Ð¸Ð»Ð°Ð¹Ð½
Ó©Ó©Ð´ ÑĢÐ¸Ð¹Ð½
ÑĩÐ» ÑįÑħ
ÑĥÐ½ Ð°Ð³
ÑĥÐ½ ÑĨÐ°Ð³
ĠÑĥÐ»Ñģ Ð°Ð°
ĠÑĥÐ»Ñģ ÑĥÑĥÐ´ÑĭÐ³
ÑĩÐ¸Ð½ Ð³
ĠÒ¯Ð¹Ð» Ð´
ÑĮÐ´ Ð¾Ð³
ĠÑįÑĢ Ð¼ÑįÐ»Ð·
ĠÐĳ ÐµÑĢ
ĠÐĳ ÐµÐ½
ĠÐĳ Ð¾Ñģ
ĠÐĳ ÑĢÐ°
ĠÐĳ ÐµÑĢÐ½
ĠÐ±Ð°Ð³ Ð°Ð´Ð°Ð°
ÑĥÑħ ÑĥÐ»
Ò¯Ò¯ÑĢ ÑįÑįÑĢ
ÐŁ Ò¯
ÐŁ Ð°Ð¿
ÐŁ Ð°ÑĢÐº
ĠÑħÑįÐ» ÑįÑħÐ´ÑįÑį
ÐµÑĤ ÑĤ
ÐµÑĤ Ð¸ÐºÐ¸Ð¹Ð½
Ð¸ÑģÑĤ Ð¸ÐºÐ¸Ð¹Ð½
ĠÐ±Ð°ÑĢ Ð°Ð°Ð½
ĠÐ±Ð°ÑĢ Ð°Ð°Ð½Ñĭ
ĠÐ±Ð°ÑĢ Ð¸Ð³Ñĩ
ĠÑħÒ¯ÑĢ ÑįÑįÐ´
ĠÑħÒ¯ÑĢ ÑįÑįÐ³Ò¯Ð¹
Ó¨ Ð¼
ĠÐ°Ð¶Ð¸Ð» ÑĤÐ°Ð½
ÐĹ ÑįÑĢÑįÐ³
ĠÑįÑħ ÑįÑįÑĢ
Ò¯Ð½ ÑĮ
Ò¯Ð½ ÑįÐ½
Ò¯Ð½ Ð·Ð¸Ð¹Ð½
ĠÑħÑįÐ¼ ÑįÑįÐ¶ÑįÑį
Ò® Ò¯Ð³ÑįÑįÑĢ
ĠÐ¿ ÑĥÑĥÐ¶Ð¸Ð½
Ð¨ Ð°Ð³
Ð¨ ÑĥÐ²
Ð¨ ÑĥÐ¼
Ð¨ Ð¸Ð½Ð³
Ð¨ Ð²ÐµÐ´
ÐµÐ» ÑĮÑĤ
ĠÐ±Ò¯ÑĢ Ð´ÑįÑħ
ĠÐ±Ò¯ÑĢ Ð³ÑįÐ´
ĠÒ¯Ð· ÑįÑįÐ´
ĠÒ¯Ð· ÑįÑħÑįÐ´
ĠÒ¯Ð· ÑįÐ³Ð´ÑįÑħ
Ð´ÑįÑį ÑĪ
Ð±Ð°ÑĢ Ð¸Ð»
ĠÐ½ÑįÑĢ Ð»ÑįÐ½Ñį
Ġ19 13
Ġ19 27
Ġ19 21
Ġ19 97
Ġ19 65
Ġ19 73
Ġ19 92
Ġ19 61
Ð´Ð» Ð¾Ð³Ð¾
Ð´Ð» Ó©Ð½Ð³Ð¸Ð¹Ð½
ÑĩÐ¸Ð» ÑįÐ½
ÑĩÐ¸Ð» Ð½Ñį
ÑĩÐ¸Ð» Ð»ÑĭÐ½
ÑĥÐ¼ Ð±ÑĥÑĥÑĢ
Ð°Ðº ÑĥÑĥ
Ð°Ðº Ð¾Ð¼
ÑģÓ©Ð½ Ó©Ó©ÑĢ
Ðĸ Ð°Ð»
Ðĸ Ð¸Ð»
ĠÑħÐ¸Ð¹ Ð»Ð³
ĠÑħÐ¸Ð¹ ÑģÐ²ÑįÑĢ
ĠÐ¡ Ð¸Ð½
ĠÐ±Ð°Ð¹Ð³ÑĥÑĥÐ» Ð´Ð°Ð³
ĠÐ±Ð°Ð¹Ð³ÑĥÑĥÐ» Ð°ÑħÐ°Ð´
ĠÐ¼ÑįÐ´ ÑģÑįÐ½
ĠÐ¼ÑįÐ´ Ð»ÑįÑį
ÐĽ Ð¸
Ð²ÑįÑĢ Ð¸Ð¹Ð½
ĠÑıÐ² Ð½Ð°
ĠÑıÐ² Ð°Ð°Ð´
Ð°Ð¹Ð» ÑģÐ°Ð½
Ð°Ð¹Ð» Ð·ÑĥÑĥÑĢ
ĠÐ¾Ð»Ð¾Ð½ ÑĤÐ¾Ð¹
Ð¸Ð· ÐµÐ»ÑĮ
Ð»ÑįÑħ Ð³Ò¯Ð¹
ĠÓ©Ð½ Ð´
ĠÓ©Ð½ Ó©Ó©Ð³
ĠÓ©Ð½ Ð³Ó©Ó©ÑĢ
ĠÑĤÑĥÑģ Ð³Ð°Ñħ
Ð»Ð¾Ð³ Ð¾Ð´
Ð»Ð¾Ð³ Ð¾Ð¾ÑĢ
ĠÐ¢ Ð°Ð½
ĠÐ¢ Ð¸Ð¼
ĠÐ¢ Ð¾Ðº
ĠÐ¢ Ò¯Ð²
ÑįÐ»ÑĤ ÑįÑįÑĢ
Ð°ÑĢÑĤ Ð°Ð°
in a
in k
ĠÐ¸ÑĢ ÑģÐ½ÑįÑįÑĢ
Ð¦ ÑįÑĢÐ³Ð¸Ð¹Ð½
Ð¦ Ð¾Ð³ÑĤ
Ð¦ ÐµÐ¼ÐµÐ½ÑĤ
Ð¦ Ð°ÑħÐ¸Ð¼
ĠÑģÑĥÑĢ ÑģÐ°Ð½
ĠÐ´ÑįÑįÑĢ ÑįÑįÑģ
ĠÑĤÑĥÐ» Ð°Ð°Ð½Ð´
ÑĩÐ¸Ð´ ÑĤÑįÐ¹
ÑĤÑĢ ÑĭÐ³
ÑĤÑĢ ÑĥÑĥÐ´ÑĭÐ½
ĠÐĶ Ð°
ĠÐĶ Ð°ÑĢ
ĠÐĶ Ð¾Ð¼
ĠÐĶ ÑįÑįÐ´
ĠÐĶ Ó©ÑĢÐ²Ó©Ð½
ĠÐĶ ÐĿÐĳ
Ðł ÑĥÑģ
Ð§ Ð¸Ð¹Ð³
Ð§ Ð¸Ð½Ð³
Ð§ ÐµÑĩÐµÐ½
ÑĥÑĥÐ½ ÑĭÐ³
ĠÐ» Ð°ÑĤÐ¸Ð½
ĠÐļ Ð¸ÑĢ
ĠÐļ Ð¸Ð¿
ĠÐ±Ð°Ð¹Ñħ Ð°Ð°Ñģ
ÐĴ Ð¸
ÐĴ Ð°ÑĢ
ÑĥÐ³ Ð°Ð°Ñģ
Ð»Ð°Ñħ ÑĭÐ³
Ð´Ð¾Ð³ Ñĩ
Ð»ÑĭÐ½ ÑħÐ°Ð°
Ð¤ Ð»Ð¾ÑĢ
ÑİÑĥ ÑĪ
ĠÐ±Ð¸Ñĩ ÑįÑįÑģ
ĠÐ°Ð½Ñħ Ð»Ð°Ð½
ĠÑħÐ¾Ð»Ð± Ð¾Ð½
ĠÐ·Ð¾ÑħÐ¸ Ð¾Ð¶
ĠÐ·Ð¾ÑħÐ¸ Ð¾Ð»ÑĭÐ³
ĠÐ·Ð¾ÑħÐ¸ Ð¾Ð³Ñĩ
ĠÐ·Ð¾ÑħÐ¸ Ð¾Ð¼Ð¾Ð»
ĠÐĵ Ñĥ
ĠÐ±ÑĥÑģ Ð°Ð°ÑĢ
ĠÐľÐ¾Ð½Ð³Ð¾Ð» ÑĩÑĥÑĥÐ´ÑĭÐ½
ĠÐ°ÑĪÐ¸Ð³Ð» Ð°ÑħÐ°Ð´
ĠÐ°ÑĪÐ¸Ð³Ð» Ð°Ð½Ð°
ĠÐ°ÑĪÐ¸Ð³Ð» Ð°ÑģÐ½Ð°Ð°ÑĢ
ĠÑĦ Ð¾ÑģÑĦÐ¾ÑĢ
ĠÑĦ ÑĥÐ½ÐºÑĨÐ¸Ð¹Ð½
ĠÑĢ ÐµÐº
an y
ĠÑĤÑįÐ¼ ÑįÑį
Ð±Ð°Ð¹ ÑĪÐ¸Ð½
ĠÐ·ÑįÑĢÑįÐ³ ÑĤÑįÐ¹
ĠÐ£ ÑĢÐ¸Ð°Ð½Ñħ
Ó©Ð»ÑĤ Ó©Ð½
Ó©Ð»ÑĤ Ó©Ð½Ð´
Ð°Ð¹Ð¼ Ð»ÐµÑĢ
ĠÑĤÐ¾Ð³ÑĤ Ð¾Ð¾Ð³Ð´ÑģÐ¾Ð½
ĠÐ´Ð°Ñħ Ð¸Ð½Ñĭ
ĠÑĨÐ°Ð³ Ð¸ÑĢÐ°Ð³
Ð¸Ð»Ð³ ÑĭÐ³
Ð¾Ð»Ð³ Ð¸Ð¾Ð½
ĠÑħÓ©Ð³Ð¶ Ð¸Ñħ
ĠÑħÓ©Ð³Ð¶ Ò¯Ò¯Ð»ÑģÑįÐ½
Ð¶Ð¸Ð½ ÑĮ
Ð¶Ð¸Ð½ Ð³Ð¸Ð¹Ð½
ĠÐ½Ð°ÑĢ Ð°Ð°Ñģ
ĠÐ±Ð¾Ð»Ð³ Ð¾Ð¾Ð¼
Ð±ÑįÑĢ ÑĤ
Ð±ÑįÑĢ ÑįÐ»Ð¸Ð¹Ð½
ĠÑĥÐ»ÑģÑĭÐ½ ÑħÐ°Ð°
en a
en ce
ĠÑħÑįÐ´ ÑħÑįÐ½
ĠÐ³Ð°Ð·Ð°ÑĢ ÑĤÐ°Ð¹
ĠÐĿ Ð¸Ñģ
ĠÐĿ Ð¾Ð±ÐµÐ»Ð¸Ð¹Ð½
ar y
ĠÒ¯Ò¯Ñģ ÑįÐ¶
ĠÐŁ ÑĥÑĤ
ĠÐŁ Ð¾Ð»ÑĮ
ÐµÐ² ÐµÑĢ
ĠÑħÒ¯ÑĢÑĤ Ð¶ÑįÑį
ĠÑħÒ¯ÑĢÑĤ ÑįÑįÐ»
ĠÑħÒ¯ÑĢÑĤ Ð»ÑįÑį
ĠÐ³ÑįÑħ ÑįÑįÑģÑįÑį
ĠÐ·ÑĥÑĢ Ð¶
ĠÐ·ÑĥÑĢ Ð²
ĠÐ·ÑĥÑĢ ÑģÐ°Ð½
ĠÒ¯ÑĢ Ð¶Ð¸Ð»
ĠÒ¯ÑĢ ÑįÐ³Ð´ÑģÑįÐ½
ÑįÐ¼Ð¶ ÑįÑįÑĢ
Ð¼Ð°ÑĢ ÐºÐµÑĤ
Ð°ÑĨ ÑĥÑĥ
Ð°ÑĨ ÑĭÐ½
ĠÑıÐ» Ð°Ð»ÑĤÑĭÐ½
ĠÐ±Ð°Ð¹ÑĢ ÑĤ
ĠÐ³Ð°Ð´ ÑĥÑĥÑĢÑħ
ĠÐ³Ð°Ð´ Ð½Ð°Ñħ
ĠÐ·Ò¯Ð¹Ð» Ð´
ĠÑģÐ¸ÑģÑĤÐµÐ¼ ÑįÑįÑģ
Ð¸Ð½Ð³ ÑĤÐ¾Ð½
ĠÑĳ ÑĢÐ¾
Ð°ÑĢÑħ Ð°Ð¹Ð½
Ð°ÑĢÑħ Ð¸ÑĤÐµÐºÑĤÑĥÑĢ
ÑįÑįÐ³ Ñĩ
ÑįÑįÐ³ Ð´Ð´ÑįÐ³
ÑĮÑģ Ð³Ð°Ð»ÑĤ
ĠÐ² Ð°Ð½ÑĤ
ĠÐĽ Ñİ
ÐĲÐ» ÐµÐºÑģ
ÐĲÐ» Ð¸Ð²Ð°Ð°
ÐĲÐ» ÐµÐºÑģÐ°Ð½Ð´
ĠÐĹ Ð°ÑģÐ°Ð³
ĠÑįÐ´ Ð»ÑįÐ»
Ð¯ Ñģ
ĠÑģÑĥÐ´ Ð»Ð°Ð½
ĠÑģÑĥÐ´ Ð°Ð»ÑģÐ°Ð½
ĠÐ°Ð»Ð´ Ð°Ð°Ð³
ĠÐŃ Ð´
ĠÐŃ Ð½Ñħ
ĠÐŃ Ð·ÑįÐ½
ĠÐŃ Ð·ÑįÐ½ÑĤ
ĠÐ·Ð°Ñħ ÑĭÐ½
ĠÐºÐ¾Ð¼Ð¿ Ð°Ð½Ð¸Ð´
ÑĮÑĨ Ð°Ð°Ð»
ÐĲÑĢ Ð²
Ð£Ð» Ð¸ÑĢ
Ð°Ð³Ð´ÑģÐ°Ð½ Ñĭ
ÑįÐ²Ñģ ÑįÐ»
ÑĤÐ°Ð» Ð±Ð°ÑĢ
ĠÐ¾ÑĢÐ¾Ð»ÑĨ Ð¾Ð³Ñĩ
ĠÐ½Ð¸Ð¹ÑĤ Ð»ÑįÐ³
Ó©Ó©Ð½ Ó©Ó©Ñģ
ĠÑħÐ¾Ð¹ Ð½Ð¾Ð¾Ñģ
ĠÑĤÒ¯Ò¯Ñħ Ñĩ
ĠÑĤÒ¯Ò¯Ñħ ÑĩÐ¸Ð´
ĠÑģÑĥÑĢÐ³ÑĥÑĥÐ» Ð¸ÑĥÐ´
ĠÓ©Ð½Ð´Ó©ÑĢ ÑĤ
ĠÑģÐ°Ð» Ð¶
ĠÑģÐ°Ð» Ð°Ð°
ĠÐ°Ñģ Ñģ
ĠÐł ÐĿÐ¥
ĠÐł ÑĥÐ¼ÑĭÐ½
ĠÑįÐ¼ Ð·ÑįÐ³
ĠÐ¨ Ð²ÐµÐ´
Ð±Ð¾Ð» ÑĭÐ½
ĠÑģÐ°Ð¹ Ð³Ò¯Ð¹
ĠÑģÐ°Ð¹ Ð¶Ð¸ÑĢ
ĠÐĴ ÐµÐ½
Ð±ÑįÐ» Ð´
Ð±ÑįÐ» ÑĤÐ³
ĠÐ±Ð¸Ðµ ÑĩÐ»ÑįÐ½
ĠÐ±ÑĥÐ¹ Ð³Ð°Ð°
ĠÑħÒ¯Ð¼ Ò¯Ò¯Ð½
Ð°Ð¿ Ñģ
ÑĥÑĥÐ»Ð´Ð°Ð³ Ð³Ò¯Ð¹
ĠÐ°Ð¹Ð¼ Ð°Ð³ÑĤ
ĠS erver
ÐŀÑĢ Ð¾Ð»ÑĤÑĭÐ½
Ó©Ó©Ð³ Ð½Ó©ÑĢ
ĠÑĪÐ¸Ð» ÑįÐ½
ĠÑħÑĥÐ³Ð°ÑĨ Ð°Ð°ÑĤÐ°Ð¹
ĠÑįÐ½ Ð³ÑįÑĢ
ÐµÑĢÐ¼ Ð¾
Ò¯Ð· Ò¯Ò¯Ð»ÑįÐ»ÑĤ
ÑĪÐ¸Ð³ ÑĩÐ¸Ð¹Ð½
ĠÑĥÐ´Ð¸ÑĢÐ´ Ð°Ð½
ĠÐ°Ñħ Ð»Ð°Ð³ÑĩÐ¸Ð¹Ð½
ĠÑĤÒ¯ÑĢ ÑįÑįÑģ
ĠÐ´Ð°Ð¼Ð¶ ÑĥÑĥÐ»Ð°Ð³Ñĩ
re m
ĠÐ·Ð°Ð³ Ð°Ð»Ð¼
ĠC D
ĠÑĥÐ³ ÑģÑĢ
ÐŃÑĢ ÑĤ
ĠÑħÐ°Ð¼Ð³Ð°Ð°Ð» Ð°Ð³ÑĩÐ°Ð°ÑĢ
Ò¯Ð´ ÑįÑĢ
ĠÒ¯Ò¯ÑĢ ÑįÑį
ÑģÐº Ð°ÑĢÑĭÐ½
Ð°ÑħÐ³Ò¯Ð¹ Ð½
ÐµÐ³ Ð¸Ð½
ÐµÐ³ Ð¸Ð´
ĠÑħÒ¯Ð½Ð´ ÑįÑĤ
ĠÑħÒ¯Ð½Ð´ ÑĢÑįÐ»
ĠÐ´Ð°Ð³ Ð°Ð½
ĠÐ´Ð°Ð³ Ð°Ð°ÑĢ
ĠÑĪÐ°Ð°ÑĢÐ´ Ð»Ð°Ð³ÑĭÐ³
is e
ĠÐ§ Ð°Ð½
ĠÐ¿ÑĢÐ¾Ð³ÑĢÐ°Ð¼ ÑĭÐ³
ĠÑĤÑįÐ¼Ð´ÑįÐ³ Ð»ÑįÐ³Ð´ÑģÑįÐ½
Ð»Ð¸ ÐµÐ½ÑĤ
ĠÐ±ÑįÐ» ÑĤÐ³
ĠÐ¾ ÑĩÐ¸Ñħ
Ð½Ð¸Ð¹Ð³ ÑįÑį
ÐµÑĢÑĤ Ó©Ð½
ĠÐ±Ð°Ð³ÑĤ Ð°Ñħ
ÑħÒ¯ ÑĩÐ¸ÑĢÑħÑįÐ³
ÑĮÐ¶ Ò¯
ĠA m
ĠÑįÑĨ ÑįÑģ
ÑģÑĥÑĢ Ð³Ð°Ð°Ð»
ĠÑĤÑįÐ¼ÑĨ ÑįÐ¶
ĠÑĤÑįÐ½ Ð´ÑįÑį
ĠP ay
Ð¼Ó©ÑĢ Ð³Ó©Ð»Ð´Ó©Ó©Ð½
ĠÑģÒ¯Ò¯Ð» ÑĤ
ĠÐ´Ð°Ð» Ð°Ð½Ð³
ĠÓ©Ó©ÑĢÑĩÐ» Ó©Ð³Ð´ÑģÓ©Ð½
ĠÐ³Ò¯Ð¹ÑĨÑįÑĤÐ³ ÑįÐ½Ñį
Ð±Ð¸ ÐµÑĤ
ÐµÑģÑĤ Ð°Ð½
ÐŃÐ½ Ð³Ð¸Ð¹Ð½
ĠÐ±Ò¯Ñģ ÑįÑįÑģ
ĠÑĤÐ¾Ð³Ð»Ð¾Ð»ÑĤ ÑĭÐ³
ĠÑĤÓ©Ñģ Ð²Ð¸Ð¹Ð½
ĠÑįÑģÑĢÑįÐ³ ÑįÑįÑĢ
oc al
oc um
ÑĥÑĥÐ³ Ð¸Ð°Ð½
ĠÑĤÓ©Ð³ ÑģÐ³Ó©Ð»Ð´
Ð±Ð°Ð³ Ð°Ð¶
Ð¾ÑģÑĤ Ð°Ð·
Ð¾ÑĢÐ´ Ð°Ð½
ĠÑĪÐ¸Ð³ Ò¯Ò¯
el f
ĠÐ·Ð°ÑħÐ¸ÑĢ Ð°Ñħ
ĠÐ·Ð°ÑħÐ¸ÑĢ Ð³Ð°Ð°Ð½Ð´
ĠÐ°ÑģÑĥÑĥÐ´ Ð»ÑĭÐ½
ĠÐ°ÑģÑĥÑĥÐ´ Ð»Ð°Ð°ÑĢ
Ð°Ð°Ð»ÑĤ ÑĤÐ°Ð¹
Ð¸ÑĨ Ð¸ÐµÐ½ÑĤ
Ð´Ð°Ð² ÑĤ
Ð´Ð°Ð² Ð°Ð¼Ð³Ð°Ð¹Ð»
ĠÐ¯ Ð¿Ð¾Ð½Ð´
ĠÐŀÑĢ Ð´
ĠÐŀÑĢ ÑħÐ¾Ð½
ĠÑĤÑįÑĢÐ³ Ò¯Ò¯Ð»ÑįÑħ
Ð¸Ð»Ð» Ð¸Ð¿
ĠÐ±Ð¾Ð»Ð³Ð¾Ð½ Ð¾
ÑĮÑģÐ³Ð°Ð» ÑĭÐ½
am es
am ic
Ð¸Ð¾Ð½ Ð°Ð»ÑĮ
ĠÐ°Ð¶Ð¸Ð»Ð»Ð°Ð¶ ÑįÑį
ĠÐµÑĢÓ©Ð½ÑħÐ¸Ð¹ Ð»Ó©Ð³ÑĩÐ¸Ð¹Ð½
ĠÑħÓ©Ð» Ð¸Ð¹Ð½
Ò¯Ñģ ÑįÐ³
ĠÐ°ÑĪÐ¸Ð³ Ð»Ð°Ð³Ð´Ð°Ð¶
ĠÑħÐ°Ð´Ð³Ð°Ð» Ð°Ð³Ð´ÑģÐ°Ð½
Ð³Ð°Ð°Ð½ Ð°Ð°Ñģ
ul i
Ð¸Ð°Ð´ Ð°Ð´
ĠÑĩÑĥÐ» ÑĥÑĥÐ³
ĠÓ©Ñģ Ñĩ
ĠÑħÒ¯Ò¯Ñħ ÑįÐ½
ĠÑħÒ¯Ò¯Ñħ ÑįÐ»Ð´
ĠÑħÒ¯Ò¯Ñħ Ð´Ð¸Ð¹Ð³
Ð¾Ð»Ð» Ð¸Ð²
ÑĨÐ°Ð³ Ð°Ð°Ð½Ñĭ
ÑįÐ»ÑĨ ÑįÑħ
ĠÓ©ÑĢÐ³Ó©Ð½ Ó©Ó©ÑĢ
ĠÑħÐ°Ð² ÑģÐ°ÑĢ
ĠÐ¸Ð»ÑįÑĢÑħÐ¸Ð¹ Ð»ÑįÐ½
Ò¯ÑĤ Ð¾
ÑĤÐ¾Ð³ Ð»Ð¾Ñħ
ĠÒ¯Ò¯ÑģÐ³ ÑįÐ½Ñį
ĠÒ¯Ò¯ÑģÐ³ ÑįÑģÑįÐ½
ĠÒ¯Ò¯ÑģÐ³ ÑįÐ³Ñĩ
Ð°ÐºÑĤ Ð¸ÐºÑĤ
ĠÐ½Ð°Ð¼ Ð°ÑĢ
Ð±ÑĥÑĢ Ð¸
Ð±ÑĥÑĢ ÑĥÑĥ
Ð¾Ð»Ð¾Ð½Ð³ Ð¾ÑģÑĤ
ĠÓ©Ð½Ð³Ó© ÑĤ
Ð³Ð¸Ñģ Ð¸Ð¹Ð½
ÐµÐ± ÑĢ
ĠÑĪÐ°Ð³Ð½ Ð°Ð»ÑĤ
ĠÑĤÐ¾Ð¾ÑĨ Ð¾Ð³Ð´Ð´Ð¾Ð³
Ð¾ÑĢÐ¼ ÑĥÑĥÑģ
ĠÑģÐ°ÑĢ Ð½
ĠÐ°Ñĩ Ð°Ð°ÑĢ
ĠÐ°Ñĩ Ð°Ð°Ð½Ñĭ
Ð¸Ð°Ð½ Ð¾
ĠÑģÐ¾Ñĳ Ð»ÑĭÐ³
ĠÐ±Ð°Ð¹ÑģÐ½ Ð°Ð°ÑĢ
ĠÑĪÐ¸ÑĢ ÑįÑį
Ð·Ð¾ÑĢ Ð¸Ð»ÑĤ
ĠÐ¾Ð¹ÑĢ Ð¾Ð»ÑĨÐ¾Ð¾Ñħ
ĠÑĤÒ¯Ð¼ Ð½Ð¸Ð¹Ð³
Ð¾Ð¾Ñħ Ð¾Ð¹
ĠÐ·Ó©Ð²ÑĪÓ©Ó©ÑĢ Ó©Ð»
ur ity
ĠÑħÑįÑĢ ÑįÐ¼
ĠÑħÑįÑĢ Ð²ÑįÑį
ĠÑħÒ¯Ò¯ ÑĤÑįÐ¹
Ð±Ð°ÑĤ ÑĭÐ½
ĠÐ¾ÑĢÑĩ ÑĥÑĥÐ»ÑģÐ°Ð½
ap p
ĠÑħÓ©Ð½ Ó©Ó©Ð»
ĠÑĤÓ©ÑħÓ©Ó©ÑĢÓ©Ð¼Ð¶ Ð¸Ð¹Ð³
ĠÐ½Ó©Ð»Ó©Ó©Ð» Ð¶
ÐĳÐ°ÑĤ Ð±Ð°ÑıÑĢ
ÐĳÐ°ÑĤ Ð¼Ó©Ð½Ñħ
ĠÑħÑıÐ·Ð³Ð°Ð°ÑĢ ÑĤ
ĠÐ´ÑįÐ² ÑĪÐ¸Ð¶
ĠÐ´ÑįÐ² ÑĪÐ¸Ð»ÑĤ
ĠÐºÐ¾Ð´ ÑĭÐ½
ĠÐ½Ð¸Ñģ Ð³ÑįÐ³Ñĩ
Ð·Ð°Ñģ Ð³Ð¸Ð¹Ð½
ĠÐ³Ð°Ð½ÑĨ Ð°Ð°ÑĢÐ°Ð°
Ð´Ò¯ÑĢ ÑģÐ»ÑįÐ»
ÐĿÐ¸Ð¹ ÑĤÐ¸Ð¹Ð½
ÐĿÐ¸Ð¹ ÑģÐ»ÑįÐ»Ð¸Ð¹Ð½
Ð°Ð¼Ð¸ÑĢ ÑĭÐ½
ĠÐ´Ð°ÑĢÐ°Ð°Ð» Ð°Ð»Ð´
Ð½ÑįÐ³ Ð¶
ag ement
ĠE ntertainment
Ð°Ð¹Ð· ÐµÑĢ
Ð¾ÑĢÐ³ Ð¸Ð»
ĠÑģÑįÑĤÐ³ÑįÐ» Ð¸Ð¹Ð³
ÑģÑĥÐ´ Ð»Ð°Ð»
ĠÑħÐ¸Ð¹Ð³ Ð´ÑįÐ¶
ĠÑĤÐ°Ð¹Ð» Ð¶
ĠÐ¾Ð»Ð³ Ð¾Ð¶
ĠÑģÑĥÑĥÑĢÑĮ ÑĪÑģÐ°Ð½
Ġs h
ĠÐ½ÑįÐ¼ÑįÐ³Ð´ Ò¯Ò¯Ð»Ð¶
ÑħÐ°Ð½Ð´ Ð°Ð»ÑĤ
ÑĪÑįÑį ÑĤ
ÐĲÐ½Ñħ Ð°Ð½Ð´Ð°Ð°
ĠÑĤÓ©Ð´ Ð¸Ð¹Ð»Ó©Ð½
ĠÐ½ÑĥÑĥÑĨ Ð°Ð°ÑĢ
ĠÐ´ÑįÑħ ÑĮ
ĠÐ³ÑįÐ½Ñį ÑĤ
ĠÐ¸ ÑĤÐ³
Ð³ÑĥÑĢ Ð²Ð°Ð»Ð¶Ð¸Ð½
ÑħÐ¾ÑĤ ÑĭÐ½
ÐºÐ¾Ð¼ Ð¼ÑĥÐ½Ð¸ÑģÑĤ
ÐŃÐ» ÐµÐºÑĤÑĢÐ¾Ð½
Ð·Ð°Ð³ Ð°Ð»Ð¼
ĠÐ½ÑĥÑĢ ÑĥÑĥÐ½
ÐŃÐ¼ ÑįÐ³ÑĤÑįÐ¹
ĠÑįÐ´Ð³ÑįÑįÑĢ Ð¸Ð¹Ð½
ĠÐ¸Ð½ÑĤÐµÑĢ Ð½ÑįÑĤÐ¸Ð¹Ð½
ĠÐ±Ð°Ð³ÑĪ Ð¸Ð¹Ð½
ĠÐ·Ð¾ÑħÐ¸ÑĨ ÑĥÑĥÐ»Ð°Ñħ
Ó¨Ð² Ó©Ð»
Ó¨Ð² Ð»Ð¸Ð¹Ð½
ĠÐ´Ò¯Ò¯ÑĢ ÑįÐ½
ĠÐ´Ò¯Ò¯ÑĢ ÑįÐ³ÑĤ
ĠÑĤÐ¾Ð¹ÑĢ Ð¾Ð½
ĠÑĤÐ¾Ð¹ÑĢ Ð¾Ð½Ð´
ĠÐ¾ÑĢÐ¾Ð½Ð´ Ð¾Ð¾
Ð¾Ð»ÑĨÐ¾Ð¾ ÑĤÐ¾Ð¹
ĠÑħÑıÑĤÐ°Ð´ ÑĥÑĥÐ´
ĠÐ·Ó©Ð²Ð» Ó©Ð»
ĠÐ·Ó©Ð²Ð» Ó©Ð¼Ð¶
ÐµÐ½ÑĨ Ð¾
ain t
ĠÑĤÐ¾Ñģ Ð³Ð¾Ð½Ð´
ĠÑģÒ¯ÑĢ ÑįÐ³
ĠÐ¾ÑĢÐ´ Ð½Ñĭ
ĠÐ¾ÑĢÐ´ Ð¾Ð½Ð´
ĠÐ¢Ó©Ð² Ð´
ĠÑĤÒ¯Ò¯ÑħÑįÐ½ Ð´ÑįÑį
ĠÐ±Ð¾ÑĢ Ð¾Ð¾
ÐĳÐ°ÑıÐ½ ÑĤÒ¯Ð¼
ĠÑģÑĥÑĢÐ°Ð»ÑĨ Ð°Ñħ
ĠÑĤÓ©Ð»Ó©Ð²Ð» Ó©Ð¶
ĠÐ¼Ð°ÑĪÐ¸Ð½ ÑĭÐ³
ĠÐ±ÑĥÑĥÑĢ ÑĥÑĥÐ»Ð°Ñħ
ĠÑĤÑĥÑĪ Ð°Ð°Ð»ÑĤ
ĠÐĲÐ² ÑģÑĤÑĢÐ¸Ð¹Ð½
ĠÐ´ÑĥÑĥÐ´ Ð´Ð°Ð³
ĠÑįÑģÑįÑĢÐ³Ò¯Ò¯ÑĨ ÑįÐ¶
ÑħÓ©Ð´Ó©Ð» Ð¼Ó©ÑĢ
Ð»Ð°Ð³Ð°Ð´ Ð°Ð°
Ð¾Ð²ÑģÐº Ð¸
Ð¸ÑĤÐ°Ð» Ð¸Ð¹Ð½
ĠÐ°Ð¶Ð¸Ð»Ð» ÑĥÑĥÐ»Ð´Ð°Ð³
ĠÓ©ÑĢÐ³ Ó©Ð³Ð´ÑģÓ©Ð½
ĠÓ©ÑĢÑģÓ©Ð»Ð´ Ó©Ð³Ñĩ
ĠÓ©ÑĢÑģÓ©Ð»Ð´ Ó©Ð¶
oo k
ĠÑĪÐ°Ð»Ð³ Ð°Ð»ÑĤ
ĠÐ¿ÑĢ Ð¾Ð´ÑİÑģÐµÑĢ
ĠÑģÐ°Ð¹Ð¶ÑĢ ÑĥÑĥÐ»Ð°Ñħ
ĠÑģÐ°Ð¹Ð¶ÑĢ ÑĥÑĥÐ»ÑģÐ°Ð½
ĠÑĤÐ°Ð¹Ð»Ð±Ð°ÑĢ Ð»Ð°Ñħ
ID S
Ð¸Ð½ÑĤÐµÑĢ Ð½ÑįÑĤ
Ð¸Ð½ÑĤÐµÑĢ Ð½ÐµÑĤ
Ð¢ÑįÐ¼ Ð´ÑįÐ³
ĠÑĪÐ°Ð»ÑĤÐ³Ð°Ð°Ð» Ð¶
ĠÑģÑĤÐ°Ð½Ð´Ð°ÑĢÑĤ ÑĭÐ½
wor m
ĠÐ½Ð°Ð¹Ð¼ Ð´ÑĥÐ³Ð°Ð°ÑĢ
Ð¾ÑģÑĦ Ð°ÑĤÑĭÐ½
ĠÑħÑĥÐ²Ð° Ð°Ð³Ð´ÑģÐ°Ð½
ĠÐ³ÑĥÑĢÐ°Ð² Ð´ÑĥÐ³Ð°Ð°ÑĢ
ĠÑģÐ¾Ð½Ð³ÑĥÑĥÐ» ÑĮ
ÐĶÐ°Ð² Ð°Ð°ÑģÒ¯ÑĢÑįÐ½
ĠÑĪÒ¯ÑĤ ÑįÑįÐ½
ĠÐ¾Ð»Ð´ Ð²Ð¾ÑĢ
ĠÐ±Ó©Ð¼Ð± Ó©Ð³Ð´
ĠÒ¯Ð¹Ð»ÑĩÐ» ÑįÐ»
ÑħÐ°ÑĢÐ¸Ð»ÑĨ Ð°Ð°Ð½Ñĭ
ÑĥÐ´Ð¸ÑĢÐ´ Ð»Ð°Ð³Ð°
ĠÐ¶ÑĥÑĢ Ð¼Ð°Ð°ÑĢ
ĠÑĪÐ°Ð»ÑĤÐ³Ð°Ð°Ð½ Ð°Ð°ÑĢ
ĠÑįÐ³ ÑĪÐ¸Ð³
Ð³Ó©Ð» Ó©Ð³
Ð¼Ð°Ð½Ð´ Ð°Ð»
ÑĩÑĥÐ» ÑĥÑĥÐ½
ĠÐ¼ÐµÑĤ Ð°Ð»Ð»
Ð¾Ð¹Ð³ Ð¾Ð¾Ñģ
ĠÑĨÑĥÑģ Ð½Ñĭ
ÐĹÒ¯Ò¯Ð½ Ð³Ð°ÑĢ
ÑħÑįÑģ ÑįÐ³
ÐĳÐ¸Ð´ Ð½Ð¸Ð¹
ÐļÐ¾Ð½ ÑģÑĤÐ°Ð½ÑĤ
ÑĤÓ©Ñģ Ó©Ó©Ð»
Ð¼Ð¸ÑĤ ÑĢÐ¸Ð¹
ĠÐ½Ð°ÑģÐ°Ð½ Ð´
ĠÐ¼Ð°Ð½Ð´ Ð°Ð»
ĠÐ¼Ð°Ð³Ð°Ð´ Ð»Ð°Ð»
Ð¢Ò¯ÑĢ ÑįÐ³
ĠÐ±Ð°ÑĢÐ¸Ð»Ð´ Ð°Ð¶
ĠÑħÑįÐ²Ð» Ð¸Ð¹
Ð´Ð¸Ð½ Ð°Ð½Ð´
ÑİÐº Ð¾Ð·
ÐŀÐ² Ð¾Ð¾
ĠÐ´ÑįÐ»Ð³ÑįÑĨ Ð½ÑįÑį
Ð´ÑįÐ¼Ð¶ Ð¸Ñħ
ĠÑĤÑĥÑĤ Ð°Ð¼
Ð±ÑĥÐ¼ Ð¸Ð½
Ð¥ÑįÑĢÑįÐ³ Ð»ÑįÐ³ÑĩÐ¸Ð¹Ð½
ÐľÐ¾Ð´ Ð¾Ð½
ĠÐ¸ÑĢÑįÑįÐ´ Ò¯Ð¹Ð½
ĠÐ½Ð¸Ð¹ÑĨ ÑģÑįÐ½
ĠÑħÒ¯ÑĢÑįÑįÐ»ÑįÐ½ Ð³Ð¸Ð¹Ð½
ĠÐºÐ¾Ð¼Ð¿Ð°Ð½Ð¸ÑĥÐ´ ÑĭÐ½
ĠÐ¼Ð¸Ð½ÑĥÑĤ ÑĭÐ½
ĠÐ¼Ð¸Ð½ÑĥÑĤ Ð°Ð½Ð´
Ð¼Ðµ ÑħÐ°Ð½
Ð¼Ðµ Ð´Ð°Ð»
ĠÑħÑįÑĢÐ³ ÑįÐ¼
ÐĲÐ³ ÐµÐ½ÑĤ
ĠÐ±Ð°Ð³Ð°Ñģ Ð³Ð°Ñħ
ĠÐ±Ð°Ð¹Ð³ÑĥÑĥÐ»Ð»Ð°Ð³ ÑĥÑĥÐ´ÑĭÐ½
ĠÐ±Ð¸ÑĩÐ¸Ñħ Ð´ÑįÑį
ĠÑģÐ¾Ð½Ñģ Ð¾Ð¾Ð´
ÑģÑįÑĢ ÑħÑįÐ³
ÑħÒ¯Ð¼ Ò¯Ò¯Ñģ
ĠÐ½Ð¾ÑĤ Ð¾Ð»Ð¶
Ð¥Ó©Ð³Ð¶ Ð¼Ð¸Ð¹Ð½
ĠÑıÐ·Ð³ÑĥÑĥÑĢ ÑĤÐ°Ð½
ÐĺÐ½ÑĤÐµÑĢ Ð½ÑįÑĤ
AT E
ĠÑĤÐ¾Ð²Ñĩ Ð¾Ð¾
ĠÐ·Ð°Ð¹Ð» Ñģ
ĠÐ¼Ð°Ñı Ð³Ð¸Ð¹Ð½
Ð¢ÑįÐ½ Ð³ÑįÑĢÐ¸Ð¹Ð½
ÐľÐ°Ð¹ ÐºÐ»
ĠÑĩÓ©Ð»Ó©Ó©Ð» Ó©Ñħ
ÐĿÐ¸Ñģ Ð´ÑįÐ³
ÐļÐ°Ð¼ ÑĩÐ°ÑĤ
ĠÐĳÐ°ÑĤ Ð»Ð°Ð½
ÑįÑĢÐ´ ÑįÐ¼ÑĤ
Ð¢Ó©Ð³ Ñģ
ÐĶÐ°Ð¼Ð´ Ð¸Ð½Ñĭ
ĠÑĤÑĥÐ»Ð°Ð»Ð´ Ð°Ð¶
ĠÑĤÑĥÐ»Ð°Ð»Ð´ Ð°Ð°Ð½Ð´
ĠÐ°Ð¿Ð¿ Ð°ÑĢÐ°ÑĤ
ĠÐ´ÑĥÑĥÐ½ ÑĥÑĥÐ´
ĠÐ´ÑĥÑĢÑģÐ³Ð°Ð» ÑĭÐ½
ĠY ou
ÑħÐ¸Ð¼ Ð¸
ĠÑĤÐ°Ð½ÑħÐ¸Ð¼ ÑĭÐ½
ÑĪÐ¸Ð½Ñį Ñĩ
ĠÑĤÐ¾Ð¼ÑĬÑĳ Ð¾Ð³
Ð±Ò¯ÑĤÑįÑįÐ³ Ð´ÑįÑħ
ĠÐ°Ð»Ð³Ð¾ÑĢÐ¸ÑĤÐ¼ ÑĭÐ³
ĠÓ©Ð» ÑģÐ³Ó©Ð»Ó©Ð½
ÑĪÐ°Ð»Ð³Ð°ÑĢ ÑĥÑĥÐ»Ð°Ñħ
ĠÐ°ÑĢÐ¸Ð»Ð¶ Ð°Ð°
ÐķÐ²ÑĢÐ¾Ð¿ ÑĭÐ½
ĠÑĤÑįÐ½Ð³ÑįÑĢ ÑĤ
ĠÑģÐ¾Ð»Ð¸Ð»ÑĨ Ð¾Ñħ
ĠÐ¼Ð°ÑĢÐ³Ð°Ð°Ð½ ÑĤÐ°Ð¹
XV III
ÑĪÑĤ Ð°Ð±
ÑĪÑĤ ÐµÐ¹Ð½
ÑĪÒ¯ÑĤ Ð»ÑįÐ³
ÐĳÐ°Ñı Ð½Ñħ
ĠÑıÐ¿Ð¾Ð½ ÑĩÑĥÑĥÐ´
ĠÐ½ÑįÐ²ÑĤÑĢÒ¯Ò¯Ð» ÑįÐ³ÑĤ
ĠÐ±Ó©Ó©ÑĢ Ð½Ð¸Ð¹
ÐĲÐ¡ ÐķÐĲÐĿ
ĠÑıÑģÑĤ Ð½Ñĭ
ĠÑħÑĥÐ²ÑĮÑģ Ð°Ð³Ñĩ
ĠÐļÐ°Ð½ Ð°Ð´
ĠÐŀÐ¹ ÑĢÐ°Ð´ÑĭÐ½
ĠÐ¾ÑİÑĥÑĤ Ð°Ð½
ĠÐ±Ð°ÑĤÐ°Ð»Ð³Ð°Ð°Ð¶ ÑĥÑĥÐ»Ð°Ñħ
ÐĿÐ¸ÐºÐ¾Ð» Ð°Ð¹
ĠÐ¸Ð½Ð³ ÑįÑģÐ½ÑįÑįÑĢ
Ð»Ð¸Ð¹ Ð·
ÑĤÑĥÑĪ Ð°Ð°Ð»
ÑĦÐ°Ð¹Ð» ÑĭÐ½
ĠÐĲÑĦ Ð³Ð°Ð½
Ð½ÑĥÑĢ ÑĥÑĥ
ĠÐ±ÑįÐ»Ð´ ÑįÐ¶
ĠÑħÐ¾ÑĳÑĥÐ» Ð°Ð°
ĠÐ±Ð°Ð¹ÑĤ ÑĥÐ³Ð°Ð¹
ĠÐ³Ð¸Ð´ ÑĢÐ°Ð²
ÐĺÐ´ ÑįÐ²Ñħ
Ð¦ÑįÐ´ÑįÐ½ Ð±Ð°Ð»
Ð¾Ð»ÑĮÑĪ ÐµÐ²Ð¸Ðº
ĠÐµÑĢÓ©Ð½ÑħÐ¸Ð¹Ð»Ó©Ð³Ñĩ Ó©Ó©ÑĢ
ĠÐ´Ð¾Ð²ÑĤÐ¾Ð»Ð³ Ð¾Ð¾Ð½Ð´
ÑħÓ©ÑĪ Ó©Ó©
Ð¾Ð½ÑģÐµÑĢÐ² Ð°ÑĤÐ¸Ð²
ĠÐ¼Ð°ÑĢÐºÐµÑĤ Ð¸Ð½Ð³
Ð¼Ð°Ñħ Ð±Ð¾Ð´
ÑĪÐ°Ð»ÑĤ Ð³Ð°Ð°Ð»
Ð¥Ðĳ Ð¥
ĠÐ¶Ò¯Ð¶ Ð³Ð¸Ð¹Ð½
Ð±Ð°ÑĢÐ¸Ð¼ ÑĤÐ°Ð»
ÐĲÐ»Ð´ Ð°ÑĢÑĤ
ĠÐ¸Ð½ÑĤÐµÑĢÑĦ ÑįÐ¹Ñģ
Ð±Ð°Ð¹Ð»Ð´ Ð°Ð°Ð½
ĠÐµÑĢÑĤÓ©Ð½ÑĨ Ó©Ð´
ÐĶÐ°Ð¼Ð´Ð¸Ð½ ÑģÒ¯ÑĢÑįÐ½
Ð¼ÑįÑĢÐ³ÑįÐ¶ Ð¸Ð»ÑĤ
ĠÐ·ÑįÐ¼ ÑģÑįÐ³
Ð¥Ð°ÑĢÐ¸Ð»ÑĨ Ð°Ð½
ĠÐĴÑĮÐµÑĤ Ð½Ð°Ð¼ÑĭÐ½
ĠÑĤÐ°ÑģÐ°Ð»Ð´ Ð°Ð»
ĠÑĥÑħÐ°Ð¼ ÑģÐ°ÑĢ
ÐµÑĢÓ©Ð½ÑħÐ¸Ð¹ Ð»Ó©Ð³Ñĩ
ĠÑĪÑĥÑĥÑĢ ÑħÐ°Ð¹
Ð¡Ð¸Ð½ Ð³Ð°Ð¿
ĠÐĲÑĦÑĢ Ð¸ÐºÐ¸Ð¹Ð½
ĠÑĤÐ¾Ð¼ÑĮÑĳ Ð¾Ð³
yn amic
ĠÐ»Ð¾Ð³ Ð¸Ðº
ÑįÑĦÑĦ Ð¸ÑĨÐ¸ÐµÐ½ÑĤ
ÐŃÑĢÑįÐ³ ÑĤÑįÐ¹
Ð¸Ð¼Ð± Ð°Ð±
ÐĶÐ¾ÑĤ Ð¾Ð¾Ð´
ĠÑĦÐµÑĢÐ¼ÐµÐ½ÑĤ Ð¸Ð¹Ð½
ĠÐĺÑģÐ¿ Ð°Ð½Ð¸
ĠÐ¾ÑĦ Ð¸ÑĨÐµÑĢ
ÐĳÐ°Ð¹Ð³Ð°Ð» Ð¸Ð¹Ð½
ĠÐ³Ð°Ð²ÑĮÑı Ð°ÑĤ
ĠÑĩÐ¸Ð½ÑįÑį Ð»ÑįÐ³
ĠÑħÐ¾ ÑĪÐ¸Ð½
ĠÐ´Ð¸ Ð°Ð¼ÐµÑĤÑĢ
Ð¥Ð°Ð»Ð´ Ð²Ð°ÑĢ
Ð£Ð¹Ð³ÑĥÑĢ ÑĭÐ½
ÐĸÐ°ÑĢÐ³Ð°Ð» Ð°Ð½ÑĤ
ĠÐ´ÑĥÑĢÐ´ Ð²Ð°Ð»
act or
Mong ol
Po int
Ð¶Ð°Ð¼ ÑĨÑĭÐ½
ĠÐ´ÑĥÐ» Ð°Ð°Ð½Ñĭ
ÑĥÑĢÑħ Ð°Ñĩ
Ð¢Ò¯Ð¼ ÑįÐ½
ĠÐ¥Ð°Ð°Ð½ ÑĤ
ÐŁÐ¾ÑĤ ÑĤÑįÑĢ
ĠÑħÒ¯ÑĢÑįÑįÐ» ÑįÐ½Ð´
Ð°ÑĢÑĤÐ¸Ð· Ð°Ð½
Ð§Ð¸Ð¼ ÑįÐ´
ÐŁÒ¯ÑĢÑįÐ² Ð´Ð¾ÑĢÐ¶
ward s
ĠÐ¼ÑįÑĢÐ³ ÑįÑĪ
Ð¢Ð¾Ð» ÑĮÑĤ
Ð¢Ð°Ð¶ Ð¸Ðº
ÐĵÐµ Ð¾ÑĢÐ³
Ð£Ð¸Ð»ÑĮÑı Ð¼Ñģ
ĠÐºÐ¾Ð½ÑĨ ÐµÑĢÑĤ
ĠÑįÐµÑĢ ÑįÐ³
ÐŀÐ½ÑĨ Ð³Ð¾Ð¹
La TeX
ĠÑĤÐ¾Ð»Ð³ Ð¾Ð´
ÐĳÐ»Ð¾Ðº Ñĩ
Ð¡Ð¾Ñĳ Ð¼Ð±Ð¾
Ð¡Ð¾Ðº ÑĢÐ°ÑĤ
Ð¡Ð°Ð½Ðº ÑĤ
ĠÐĳÐĿÐ¥ ÐĲÐ£
ĠÐ±Ò¯ÑĤÑįÑįÐ³Ð´Ñħ Ò¯Ò¯Ð½
ĠNet work
ĠÐ³Ð°Ð½ÑĨÐ°Ð°ÑĢ ÑĩÐ¸Ð»ÑģÐ°Ð½
Ò¯ÑĪÐ¸Ð¼ Ð°
ĠÐ´Ð¾Ð¾Ð³ ÑĥÑĥÑĢ
ÐĲÑĤÐ¾Ð¼ ÑĭÐ½
ÐĳÐ¸Ð· Ð½ÐµÑģÐ¸Ð¹Ð½
ĠÐ¾Ð½Ð¾Ð²Ñĩ ÑĤÐ¾Ð¹
ÐĿÑįÐ³Ð´ Ò¯Ð³ÑįÑįÑĢ
ÐĵÑįÐ³ ÑįÑįÐ½
ÐļÐĴ ÐĶ
erv ice
entic ation
olog y
ÐĲÐ½Ð¶ÐµÐ» ÐµÑģ
áł ĭ
Ð¼Ð°ÑĤÐµÐ¼ Ð°ÑĤÐ¸Ðº
tim estamp
Ð¸Ð½Ð¾Ñħ Ð¾Ð½
ocum ent
' -
- _
A ss
C R
C NC
C assandra
D S
D e
E L
F S
G e
G Hz
H S
I N
I R
L o
M ar
N e
P l
R L
R o
R es
R ou
S ol
S oft
S DH
S nort
S YS
T M
T o
T wi
T LR
V II
Y v
a o
a em
b um
b ers
d o
d in
f a
f ace
h er
h an
i or
i tt
i er
i ent
i per
i ff
i str
l ess
l ight
m s
m ul
n el
o S
o ther
o DB
r in
r an
r ite
s m
s ul
s ub
s nort
t ch
t ure
t ext
v ent
w ay
w ave
y o
y per
Å į
Ì ģ
Î ±
Ï Ģ
Ï Ĥ
Ñ Ĺ
à ¥
â Ħ
Ġ &
Ġ :
Ġ 38
Ġ wi
Ġ 49
Ġ 44
Ġ http
Ġ 65
Ġ 96
Ġ Ð»Ð°Ð³
Ġ 2020
Ġ 150
Ġ an
Ġ 802
Ġ ÑįÐ²ÑįÑĢ
Ġ ÑįÐ³ÑĪ
Ġ Ò¯Ò¯Ð½ÑĤÑįÐ¹
Ġ Ð¾ÑĤÑĢÑıÐ´
Ġ Ò®Ð½Ð´ÑįÑģÑĤÐ½Ð¸Ð¹
Ð½ Ðµ
Ð½ ÑįÑħ
Ð½ Ñı
Ð½ Ð¸Ð³
Ð½ ÐµÐ»
Ð½ ÑįÑįÑĢÑįÑį
Ð½ Ð¾Ð¼ÑĭÐ½
Ð½ Ð°ÑģÐ½Ñĭ
Ð½ vv
Ð½ Ó©Ó©ÑĨÐ¸Ð¹Ð½
Ñį ÐºÑģÐ¿ÐµÐ´Ð¸ÑĨ
Ð³ Ð¸
Ð³ Ð´
Ð³ Ò¯Ò¯
Ð³ ÑĥÑĤ
Ð³ ÑĥÐ½
Ð³ ÑĢÐ°Ð½
Ð³ Ó©Ó©Ñģ
Ð³ ÑĥÑĥÐ´Ð°Ð´
Ð³ ÑįÐ¶ÑįÑį
Ð³ Ð°Ð³Ð´Ð°Ñħ
Ð³ Ð¾Ð¾ÑģÐ¾Ð½
Ð³ Ð°Ð³Ò¯Ð¹
Ð³ Ð°ÑĤÑĭÐ½
Ð³ ÑĥÐ´Ð°Ð¼Ð¶
Ð³ Ð¾ÑģÐ»Ð°Ð²
Ð» Ð¶
Ð» Ð¸Ð¼
Ð» ÑģÐ¾Ð½
Ð» Ó©Ó©ÑĢ
Ð» ÐµÐ»
Ð» Ð¸Ð·
Ð» Ò¯Ò¯Ð»Ð¶
Ð» Ð°Ð°ÑĢÐ°Ð°
Ð» ÑįÑįÑĢÑįÑį
Ð» Ð°ÑģÐ½Ñĭ
Ð» ÑĥÑĥÐ»Ð¶ÑįÑį
Ð» ÑħÒ¯Ð¼
Ð» Ó©Ð´Ó©Ð³
ÑĢ ÑĥÑĥÐ´ÑĭÐ³
Ð¾ Ð¾Ð³Ð´Ð¾Ñħ
Ð´ Ð°Ð°ÑĢ
Ð´ Ð°Ñģ
Ð´ ÑįÑįÐ»
Ð´ Ð¸Ñģ
Ð´ Ð¸Ð²Ð¸Ð·
Ð´ Ð°Ð°Ð»Ð³Ð°Ð²
Ð´ ÐµÐ¼Ð¾Ðº
Ñĥ Ð°Ð½Ñĭ
Ò¯ ÑĨ
Ò¯ Ð»Ð¸Ð¹Ð½
ÑĤ Ð³Ð°
ÑĤ Ð¾Ð¶
ÑĤ Ð°Ð°Ð»
ÑĤ ÑĥÑĥÐ¶
ÑĤ ÐµÐ¼Ð¿ÐµÑĢÐ°ÑĤÑĥÑĢ
ÑĤ Ð°ÐºÑĤÐ¸Ðº
Ñģ Ð°
Ñģ Ó©ÑĢ
Ñģ Ð³Ð¸Ð¹Ð½
Ñģ Ð¾Ñĳ
Ñģ Ò¯Ð»
Ñģ ÑĥÑĥÐ´ÑĭÐ³
Ñģ Ð±Ð¾Ð»
Ñģ Ð°Ð»Ñħ
Ñģ Ð¸Ð½ÑĤ
Ñģ Ð±ÑĥÑĢÐ³
Ñħ Ð°
Ñħ Ð¾Ð³
Ñħ Ð°Ð°ÑĢ
Ñħ Ð¾Ð¾ÑĢ
Ñħ Ð¾Ð½Ð´
Ñħ Ð°Ð°Ð´
Ñħ ÑįÑĤ
Ñħ Ó©Ð»Ð´
Ñħ ÑĥÑĤÐ³
Ñħ Ð¼ÐµÑĢ
Ñħ Ð¾Ð¹Ð³
Ñħ Ó©Ð¼ÑĢÓ©Ð³
Ñħ ÑįÑĤÑĢ
Ñħ Ð¾Ð¼ÑģÐ´
Ó© ÑĤÐ³
Ð¼ Ð°Ð¹
Ð¼ ÑĥÑĥ
Ð¼ Ð¾Ð¹
Ð¼ Ð°ÑĤ
Ð¼ ÑįÑĢÐ³
Ð¼ Ð°Ð¹Ð»
Ð¼ Ð°Ð»ÑĭÐ½
Ð¼ Ð°Ð³Ð½
Ð¼ Ð¾ÑĢÐ´
Ð¼ Ð°ÑĤÐµÑĢ
Ð¼ vv
Ð¼ Ð¾ÑĤÐ¾ÑĢ
ĠÐ± Ð¾Ð¹
ĠÐ± Ð¾Ð½Ð´
ĠÐ± Ð¾ÑħÐ¸ÑĢÐ´
Ð°Ð½ Ð¸Ðº
Ð°Ð½ Ð·Ð°Ð°ÑĢ
Ð°ÑĢ Ð»Ð°Ð½
Ð°ÑĢ Ð°Ð»ÑĤÐ°Ð¹
Ñĭ Ð¼ÑĭÐ½
ĠÑħ ÑĥÐ¹
ĠÑħ ÑĥÐ½
ĠÑħ Ð¾ÑĢÑħÐ¾Ð¹
ĠÑħ Ó©Ð»ÑĤ
ĠÑħ Ó©Ð»Ó©Ó©
ĠÑħ Ð°Ð°Ð¶
ĠÑħ Ð°Ð²Ñĩ
ĠÑħ Ð¾Ð½Ð³Ð¸Ð»
Ð¶ Ð°Ð´
Ð¶ ÑĤÐ¾Ð¹
Ð¶ Ð¸Ð²
Ð¶ Ð°Ð½Ð¶
Ð² ÐµÐº
Ð² Ð¸Ð½Ñĭ
Ð² Ð¾ÑĢÐ¶
ÑįÑį Ð½Ñį
ÑįÑį Ð²ÑįÑĢ
ÑįÑį Ð³ÑįÑįÐ´
Ð°Ð» Ð·
Ð°Ð» ÐµÑĢ
Ð°Ð» Ð¶ÑįÑį
Ð°Ð» Ð³Ð°
Ð°Ð» Ð¸ÑģÑĤ
Ð°Ð» Ð¶Ð¸Ð½
Ðµ Ð°Ð»
Ðµ Ð¸Ð½
Ð°Ð³ ÑĩÐ¸Ð½
Ð¾Ð½ Ð¾Ð¾Ñģ
Ñĩ Ó©Ð»
Ñĩ Ð¸Ðº
Ñĩ Ð¸Ð²
Ñĩ Ò¯Ò¯Ð´ÑĤÑįÐ¹
Ñĩ Ð½ÑĭÐ³
Ñĩ Ð»Ð°Ð³Ð´Ð°Ð¶
Ñĩ Ó©Ð»Ó©Ó©ÑĤ
Ñĩ ÐµÑģÑĤÐµÑĢ
ĠÑĤ ÑĢ
ĠÑĤ ÑĥÑĥÐ»Ð¶
ĠÑĤ Ð°Ð°ÑĤÐ°Ð¹
ĠÑĤ Ð¾Ð»Ð±Ð¾
ĠÐ½ Ð´
ĠÐ½ Ð¾Ð¹ÑĢ
ĠÐ½ ÑıÑĨ
wi tch
ÑĭÐ½ ÑħÐ°Ð°
ÑįÐ½ Ð³ÑįÐ½
Ð°Ð° Ð¼Ð¶
ÑįÑĢ ÑĩÐ¸Ð¼
ÑįÑĢ ÑħÑįÐ¼
Ð¾ÑĢ Ð°
Ð¾ÑĢ ÑĥÐ¼
Ð¾ÑĢ Ð¾Ð»ÑĤ
Ð¾ÑĢ Ð°ÑĤÐ¾ÑĢ
Ð± Ð¸Ð½
Ð± ÑĥÑĥÐ»
Ð± ÑįÐ³Ð´
Ð± ÑıÐ»
Ð± Ð°Ð´Ð°ÑĢ
ÑĨ Ðµ
ÑĨ Ð°Ð°
ÑĨ ÑĤÐ°Ð¹
ÑĨ Ð¾Ð²
ÑĨ ÑĥÑģ
ÑĨ Ð¾Ð¾ÑĢ
ÑĨ Ó©Ð¼
ÑĨ ÑĥÑĨ
ĠÐ´ Ð°Ð´
ĠÐ´ Ò¯Ð³
ĠÐ´ ÐµÐ±
ĠÐ´ Ð¾Ð»Ð¾Ð¾Ð´ÑĥÐ³Ð°Ð°ÑĢ
ÑĪ Ð¸Ð¹Ð³
ÑĪ ÑģÐ¾Ð½
ÑĪ Ð´ÑįÐ³
ÑĪ Ò¯Ò¯ÑĢ
ÑĪ Ð¸Ð³Ð»
ÑĪ Ð»ÑĭÐ½
ÑĪ ÑĥÑĥÐ»Ð¶
ÑĪ ÑĥÑĥÐ»Ð°Ð½
ÑĪ ÑĤÐ°Ð¹Ð½
ÑĪ Ð¾Ð½ÑħÐ¾ÑĢ
ÑĪ Ð°Ð°ÑĢÐ´Ð°Ð³
Ð¸Ð» Ð¸Ð¹
Ð¸Ð» ÑįÑįÐ½
Ð¸Ð» Ð¸Ð½Ð´
Ð¸Ð» Ð»Ð¸
Ð¸Ð» Ð¼Ð°Ð½
Ð· Ð¸
Ð· ÑįÑį
Ð· Ð¾Ð³
Ð· Ð½Ð¸Ð¹
Ð· Ð¾Ð¾ÑĢ
Ð· Ò¯Ð³
Ð· ÑĥÑĥÐ½Ñĭ
Ð· Ð°Ð¼ÑĭÐ½
Ð· vv
Ð· Ð°Ð½Ð´Ð°Ð½
ĠÐ³ Ð°Ð½
ĠÐ³ ÑĥÐ¹
ĠÐ³ Ð°Ð´Ð°Ð³
ĠÐ³ ÐµÑĢÐ¼Ð°Ð½
ĠÐ³ Ð¸Ð½Ð¶Ð¸Ð½
ĠÐ³ ÑįÑĢÐ³Ð¸Ð¹
Ð¸Ð½ Ñģ
Ð¸Ð½ Ð³Ò¯Ð¹
Ð¸Ð½ ÑĩÐ¸Ð½
Ð¸Ð½ Ð´Ð°Ð°
Ð¸Ð½ Ð°ÑĨ
Ð¸Ð½ ÑģÑĤÐ¸ÑĤÑĥÑĤ
Ð°Ð¼ Ð°Ð»
Ð°Ð¼ Ð³Ò¯Ð¹
Ð°Ð¼ ÑģÐ°ÑĢÐ³Ò¯Ð¹
ĠÑģ ÑĥÑĥÑĨ
ĠÑģ Ð¸Ð¹Ð»
ĠÑģ Ð¸Ð¹ÑĢÑįÐ³
ĠÑģ Ð°ÑĨÑĥÑĥ
or ies
or por
Ðº ÐµÑĢ
Ðº ÑĥÐº
Ðº Ð¾Ð»Ð¾Ð½
Ðº Ð°Ð¼ÐµÑĢ
Ð°Ñħ Ð»Ð°Ñħ
ed ora
ĠÐ· Ð°Ð°Ð»
ĠÐ· Ó©Ð²Ð»Ó©Ð»ÑĤ
Ð¾Ð³ Ð¾Ð¾Ð½Ñĭ
ÑĥÑĥÐ» Ñģ
ÑĥÑĥÐ» ÑĥÑĥÐ´
ÑĥÑĥÐ» Ð°Ð³Ð´Ð´Ð°Ð³
ÑĥÑĥÐ» Ð³Ð°Ð°Ñģ
ĠÑĥ ÑıÐ»
Ð°Ð´ Ð¸Ð³
ÑģÐ°Ð½ ÑĮ
ÑģÐ°Ð½ Ð³Ð¸Ð¹Ð½
ÑģÐ°Ð½ ÑĤÐ°Ð¹
ĠÐ±Ð¾Ð» Ð´
ĠÐ±Ð¾Ð» ÑĤ
ĠÐ±Ð¾Ð» Ð¾ÑĢ
ÑįÐ´ Ð³ÑįÑįÑĢ
Ó©Ð³ Ò¯Ð¹
Ó©Ð³ Ó©Ó©Ð´
Ó©Ð³ Ó©Ó©Ð½Ð´
Ó©Ð½ Ð´Ó©Ð³
Ó©Ð½ Ð±ÑĥÐ¹
ĠÐ¼ ÑĥÐ»
ĠÐ¼ Ð°Ð³ÑĤ
ĠÐ¼ Ð¾ÑĢÐ´
ĠÐ¼ ÐµÐ½ÐµÐ¶
ÑĥÑĢ Ð°Ð½
ÑĥÑĢ Ð°Ð³
ÑĥÑĢ Ð³ÑĥÑĥÐ»
ÑĥÑĢ Ð°Ð³ÑĪ
Ñı Ð¼Ð°ÑĢ
Ñı Ð¾Ð¿
Ñı ÑģÐ°Ð»
Ð°Ð² ÑĢÑĭÐ½
Ð°Ð² ÑĬÑı
Ð°Ð² Ð¸Ð»Ð¾Ð½
Ð¸ÑĢ ÐµÐºÑĤÐ¾ÑĢ
Ð¾Ð¾ ÑĤ
ÐµÑĢ Ð±Ð°Ð¹Ð¶
ÑįÐ¼ ÑįÑįÑĢ
Ð¾Ð¹ Ñģ
Ð¥ Ð°
Ð¥ ÑĥÑĥ
Ð¥ Ð¾Ð¹
Ð¥ Ó©Ó©
Ð¥ Ð¸ÑĤ
Ð¥ Ð°Ð½Ð½
ÑįÐ¹ Ð¶
ÑįÐ¹ Ð²
ÑįÐ¹ Ðº
Ð¿ Ð°Ð½
Ð¿ ÑĢÐ¾
Ð¿ ÑĥÑĥÐ¶Ð¸Ð½
Ð°Ð¶ Ð¸Ð³
Ð°Ð¶ Ð¸Ð»ÑĤ
ĠÑĪ Ð¾ÑĪ
ĠÑĪ Ð°Ð°Ð·
ĠÑĪ Ð¾Ð½ÑħÐ¾ÑĢ
ĠÑĪ Ò¯Ò¯Ð¼
ĠÑĪ Ò¯Ò¯Ð»ÑĤ
ÑĤÐ°Ð¹ Ð¶
Ð°Ð°Ð½ Ð³ÑĥÐ¹
Ð¢ Ð¾
Ð¢ Ó©Ð»
Ð¢ Ð¾Ð¹
Ð¢ Ð¾Ñħ
Ð¢ Ð¾ÑĤ
Ð¢ Ð¾Ð¾ÑĢ
Ð¢ ÐµÐ»
Ð¢ Ð¾ÑģÐ¾Ð½
Ð¢ ÑİÑĢ
Ð¢ Ð¾Ð¾ÑĨ
Ð¢ ÐµÐºÑĤÐ¾Ð½
Ð½Ð¸Ð¹ ÑģÐ»ÑįÐ»
Ð°Ñģ Ð°Ñħ
Ð°Ñģ ÑģÐ°Ð½
Ð°Ñģ ÑĥÑĥÐ»ÑĤ
Ð¾Ð¼ ÑĤ
Ð¾Ð¼ Ð³Ò¯Ð¹
Ð¾Ð¼ ÑħÐ¾Ð½
ÑĥÐ» Ð°Ð¼
Ð°ÑĤ Ð°Ð½
Ð°ÑĤ Ð³Ð°Ñħ
Ò¯Ò¯Ð» Ð¸Ð¹Ð½
Ð¸Ð³ Ò¯Ð¹
Ð¸Ð³ ÑįÑįÑĢ
Ð¾Ð´ Ð¾Ð¾Ð³Ð¸Ð¹Ð½
ÐĲ Ðļ
ÐĲ Ð³Ð°Ð°ÑĢ
ÐĲ Ð»Ð°Ð½
ÐĲ ÐĲÐĿ
Ðľ Ð°
Ðľ Ð¾
Ðľ Ð¾Ñħ
Ðľ Ðĳ
Ðľ ÐŃ
Ðľ Ð¡
Ðľ Ð°Ð·
Ðľ Ð¾Ð±
Ðľ Ð¸Ð½Ð¶
Ðľ Ð°Ð²ÑĢ
Ðľ ÐĲÐ¥ÐĿ
Ðľ ÑİÐ½Ñħ
Ð½Ð´ Ð¾Ð½Ð³Ð¸Ð¹Ð½
Ð½Ñĭ Ñħ
Ðĳ Ó©Ó©
Ðĳ Ð°Ðº
Ðĳ Ð¾Ð±
Ðĳ ÑĥÑĨ
Ðĳ ÐµÑĢÐ½
Ðĳ ÑįÐº
Ðĳ Ð°ÐºÑĤÐµÑĢ
Ðĳ ÑĥÐ³Ð°ÑĤ
Ðĳ ÐµÑĤÑħÐ¾Ð²
Ðĳ Ó©ÑĢÑĤÑį
ĠÑĨ Ó©Ó©ÑĢ
ĠÑĨ Ð¸ÑĤ
ĠÑĨ ÑįÐ½Ñį
ĠÑĨ Ð°Ð¹ÑĢ
ĠÑĨ Ð¸ÐºÐ»
ĠÑĨ Ð¾Ð½Ñħ
ĠÑĨ ÑĥÑģÐ°Ð½
ĠÑĨ Ð°Ð¼ÑħÐ°Ð³
Ð³Ò¯Ð¹ Ð¶Ò¯Ò¯Ð»ÑįÑħ
ÑģÑĤ Ó©ÑĢ
ÑģÑĤ ÑĥÑģ
ĠÐ¾ÑĢ Ð´ÑĭÐ½
ĠÐ¾ÑĢ Ð¾Ð¹Ð½
ĠÐ¾ÑĢ Ð¾Ð»ÑĤÑĭÐ½
ĠÐ¾ÑĢ ÑĥÑĥÐ»Ð°Ð²
Ð»Ð°Ð³ Ð°Ð°Ð½Ñĭ
Ð»Ð°Ð³ Ð°Ð³Ò¯Ð¹
ÑįÐ² ÑĢ
ÑįÐ² Ð»ÑįÑĢ
ÐŃ Ð³
ÐŃ Ð¢
ÐŃ Ð³ÑįÐ»
ÐŃ ÐºÐ²Ð°ÑĤÐ¾ÑĢ
Ð¡ Ñĭ
Ð¡ ÑįÐ»
Ð¡ Ð°ÑĤ
Ð¡ Ð°Ñı
Ð¡ Ð¾ÑĢÑħ
Ð¡ Ð°Ð°ÑĢÐ°Ð»
Ð¡ Ð¸ÑĤÐ¸
Ð¡ Ð°Ð»Ð±Ð°ÑĢ
ĠÑĩ Ð°ÑĢÐ¼
ĠÑĩ Ó©Ð»Ó©Ó©Ð³
ĠÑĩ Ð°ÑĨÐ°ÑĢ
ĠÑħÒ¯ Ð·
ĠÑħÒ¯ ÑĩÐ»
Ð¸Ð¼ Ð´
Ð¸Ð¼ Ð½Ð°ÑģÑĤ
Ó©Ð² Ó©ÑĢ
Ð¸Ð´ ÑĭÐ³
ÑįÑģ Ð¸Ð¹Ð½
ĠÐ¾Ð½ Ð¾Ð»ÑĭÐ³
ÑįÑĢÑįÐ³ Ñĩ
ÑįÑĢÑįÐ³ ÑĤÑįÐ¹
ÑĤÐ³ Ð¾ÑĢ
ĠÑı Ð°Ñħ
ĠÑı Ð°Ð¶
ĠÑı ÑģÐ½Ñĭ
ÐĿ Ð¸Ð»
ÐĿ Ð°Ð²
ÐĿ Ð°Ð½Ð´
ÐĿ Ó©Ñħ
ÐĿ Ò¯Ð´
ÐĿ Ó©Ó©ÑĨ
ÐĿ Ð¾ÑĳÐ½
ÐĿ Ð°Ð¿Ð¾Ð»
Ð¸Ñħ ÑĭÐ³
Ð¸Ñħ Ð¾Ð´
Ð¸Ñħ ÑįÐ½Ñħ
ÐĶ ÑĥÑĥÐ»
ÐĶ ÑĥÐ»
ÐĶ ÐĿ
ÐĶ Ð°ÑĢÑħ
ÐĶ ÑĥÑĥÐ½Ñĭ
ÐĶ Ð¾ÑģÑĤ
ÐĶ ÑĥÑĢÑĮÐ´
Ð¸Ðº Ð¾Ð¼
Ð¸Ðº Ð¾Ð²
Ð¾Ð½Ð³ Ð¾Ð¾Ñģ
Ð¾ÑĤ Ð¾Ð³
Ð¾ÑĤ ÑĢÐ¾Ð¿
Ð°Ð»Ð´ Ð´Ð°Ð³
ĠÑİ ÑĥÐ³
Ð°ÑĪ Ð¸Ð³Ð»Ð°Ð³Ð´
Ñİ Ð·
Ñİ ÑģÑģ
Ðĵ ÑįÐ¼
Ðĵ Ð¾ÑĤ
Ðĵ Ð¸ÑĤ
Ðĵ ÑĥÐ½
Ðĵ ÑĢÐ¾
Ðĵ Ð¸ÑĪ
Ðĵ ÐµÑĢÐ¼
Ðĵ Ð¾Ð»ÑĭÐ½
Ðĵ Ð°Ð»ÑģÐ°Ð½
Ðĵ Ð²Ð¸Ð½
Ðĵ ÑĢÐ°ÑĦÐ¸Ðº
Ðĵ ÐµÐ¿Ð°ÑĤÐ¸ÑĤ
Ð»ÑįÐ³ ÑįÑįÑĢ
Ð»ÑįÐ³ ÑĩÐ´ÑįÑįÑģ
Ð£ Ð½Ð´
Ð£ ÐĺÐ¥
Ð°Ð½Ð´ Ð¾
ÑĦ Ð¾Ð½
ÑĦ ÑĢÐ°Ð½ÑĨ
ÑĦ ÐµÑĢÐ¼ÐµÐ½ÑĤ
ÑĦ ÐµÑģÑĤÐ¸Ð²
ÑĥÑĥÑĢ ÑħÐ°Ð¹
Ðļ ÑĥÐ½
Ðļ ÑįÐ±
Ðļ Ð»ÑĥÐ±
Ðļ Ð²Ð°Ð½ÑĤ
Ñĳ ÑĢÐ¾
Ñĳ ÑģÐ»
Ð³ÑĥÑĥÐ» ÑĤ
ĠÑħÐ°Ð¼ Ð°Ð³
ĠÑħÐ°Ð¼ ÑĤÐ°ÑĢÑģÐ°Ð½
Ð¾Ñģ Ð¸Ð½
Ð¾Ñģ Ð½Ñĭ
ĠÐ³Ð°ÑĢ Ð¶
ĠÐ³Ð°ÑĢ Ð¸Ð³
ĠÐ³Ð°ÑĢ Ð²Ð°Ð»
ĠÐ³Ð°ÑĢ ÑĤÐ°Ð°
ĠÐº ÑĢ
ÑįÑįÐ» Ð³ÑįÐ¶
ĠÐ¶ Ð¸Ð³Ð´
Ó©Ñħ Ò¯ÑĢ
ĠÐ½ÑįÐ³ Ð´ÑįÑħ
ĠÐ½ÑįÐ³ Ð¶Ð¸Ð¹Ð½
ĠÐ½ÑįÐ³ Ð´Ð»Ð¸Ð¹Ð³
ĠÐ½ÑįÐ³ ÑĤÐ³ÑįÑħ
Ð¸ÑĤ Ð¼ÑĭÐ½
Ð¸ÑĤ Ð¸Ð³Ð¸Ð¹Ð½
Ðĺ ÐĲ
Ðĺ Ð¶Ð¸Ð»
Ðĺ Ð²Ð°Ð½
Ðĺ ÑĤÐ³ÑįÐ»
Ðĺ ÑģÐ»
ÑĥÑĤ Ð°Ð½
ÑĥÑĤ ÑĭÐ½
ĠÐľ Ð¸Ñħ
ĠÐľ ÐµÐºÑģ
Ð°Ð½Ð³ Ð°Ð°
Ð°Ð½Ð³ Ð°Ð´
Ð°Ð½Ð³ Ð°Ð°Ñģ
Ð°Ð³Ð´ Ð°ÑħÐ°Ð´
Ð°Ð³Ð´ Ð°Ð°Ð³Ð¸Ð¹Ð½
ĠÐ°Ð¼ Ñģ
ĠÐ°Ð¼ Ð³Ð°Ð»Ð°Ð½
ĠÑĥÑĢ Ð°Ð¼ÑĪ
Ġ( âĢľ
ĠÐ°Ð² Ð°Ð½
ĠÐ°Ð² Ð¸ÑĢ
ĠÐ°Ð² Ð¸Ð°
ĠÐ°Ð² ÑĮÑı
Ðŀ Ðº
Ðŀ Ð¢
Ðŀ ÑģÐ¼
Ðŀ ÐłÐĲ
ĠÐ°ÑĢ Ð°Ð±
ĠÐ°ÑĢ Ð»ÑĥÑĥÐ´
ĠÐ°ÑĢ Ð²Ð¸Ð½
ĠÐ¥ Ñĥ
ĠÐ¥ Ð°Ð»
ĠÐ¥ ÑįÐ»
ĠÐ¥ Ð¸ÑĢ
ĠÐ¥ ÑĥÐ²
ĠÐ¥ Ð°Ð±
ĠÐ¥ Ò¯Ð»ÑįÐ³
ÑĩÐ» Ð°ÑħÐ°Ð´
ĠÑħÐ°ÑĢ Ð°Ð³Ð´Ð°Ð¶
ĠÑħÐ°ÑĢ Ð³Ð¸Ñģ
ĠÑħÐ°ÑĢ Ð°Ð³Ð´Ð°Ð½Ð°
ĠÑħÐ°ÑĢ Ð°Ð¼Ñģ
Ð³Ð°Ð° Ð¶
ÑĥÐ½ ÑħÐ°Ð½
ĠÑĥÐ»Ñģ ÑĤÐ°Ð¹
ĠÐĲ Ð½Ð´
ĠÐĲ ÑģÑĤ
ĠÐĲ Ð¡
ÑĩÐ¸Ð½ Ð³Ð¸Ð¹Ð½
ÑħÐ¸Ð¹ Ð»ÑįÐ»
ÑĮÐ´ ÑĥÐ³Ð°Ð°ÑĢ
ĠÑįÑĢ Ñĩ
Ð³ÑįÑį Ð¶
ĠÐĳ ÐµÐ»
ĠÐĳ Ò¯Ñħ
ĠÐĳ ÐĿÐ£
ĠÐĳ ÐµÑĢÐ»
âĢĿ )
ĠÐ±Ð°Ð³ Ð°Ð°
ĠÐ±Ð°Ð³ Ð°Ð³Ò¯Ð¹
ĠÑĤÓ©ÑĢ ÑħÐ¸Ð¹Ð³
ÑĥÑħ Ð°Ð°ÑĢ
Ò¯Ò¯ÑĢ ÑĤ
Ò¯Ò¯ÑĢ Ð³Ð¸Ð¹Ð½
ÐŁ Ð»Ð°ÑĤ
ĠÑħÑįÐ» ÑĤ
ĠÑħÑįÐ» ÑĤÑįÐ¹
ĠÑħÑįÐ» Ð½ÑįÑįÑģ
ÐµÑĤ ÑĢÐ¾
Ð¸ÑģÑĤ Ð°Ð½Ð´
Ð¸ÑģÑĤ ÑĢÐ¸
ĠÑħÑĥÐ² Ð°Ð°ÑģÐ°Ð½
ĠÑħÑĥÐ² Ð°Ð°Ð»ÑĤ
ĠÑħÑĥÐ² Ð°Ð°Ð´Ð°Ð³
ĠÐ±Ð°ÑĢ ÑĥÑĥÐ½Ñĭ
ĠÐ±Ð°ÑĢ Ð¸Ð°Ð´
ĠÑħÒ¯ÑĢ ÑįÑįÐ½
ĠÑħÒ¯ÑĢ Ð³ÑįÐ½
ĠÑħÒ¯ÑĢ ÑįÑįÑĤÑįÐ¹
Ð¸Ñģ Ð½Ñĭ
Ð¸Ñģ ÑģÐ°ÑĢ
Ó¨ Ñģ
ĠÐ´Ð°ÑĢ Ð°Ñħ
ĠÐ´Ð°ÑĢ Ð°Ð»ÑĤÑĭÐ½
ĠÐ´Ð°ÑĢ Ð³ÑĭÐ½
ĠÐ°Ð¶Ð¸Ð» Ð³Ò¯Ð¹
ĠÐ°Ð¶Ð¸Ð» ÑĩÐ¸Ð´
ÐĹ Ð°Ð¼
ÐĹ ÑįÐ²
ĠÑįÑħ ÑįÐ½Ð´
ĠÑįÑħ ÑįÐ½Ð´ÑįÑį
ĠÑħÑįÐ¼ ÑįÑįÐ´ÑįÐ³
Ò® Ðµ
Ò® ÐĿ
Ò® Ò¯Ñģ
ĠÐ¿ ÐµÑĢ
ĠÐ¿ Ð°ÑĤÐµÐ½ÑĤ
ĠÐ¿ Ð°ÑģÐ¿Ð¾ÑĢÑĤ
ĠÐ¿ ÑĢÐ¾ÑĦÐµÑģÑģÐ¾ÑĢ
Ð¨ Ð¸ÑĢ
Ð¨ Ð°ÑĪ
Ð¨ ÑĢÐ¸
Ð¨ Ð°Ð³Ð½
Ð¨ Ð°Ð³Ð´Ð°ÑĢ
ĠÒ¯Ð· ÑįÐ»ÑĤ
ĠÒ¯Ð· Ò¯Ò¯Ð»ÑįÐ³Ñĩ
Ð°Ð°Ð³ Ð°Ð°ÑĢÐ°Ð°
Ð±Ð°ÑĢ Ð°Ð°Ð³Ò¯Ð¹
ĠÐ½ÑįÑĢ Ð½Ð¸Ð¹
Ġ19 19
Ġ19 18
Ġ19 22
Ġ19 56
Ġ19 33
Ġ19 88
Ġ19 77
Ġ19 76
Ġ19 54
Ġ19 43
Ġ19 85
Ġ19 63
Ġ19 51
Ġ19 82
ÑĢÐ¾ Ð¸Ð½Ð¶ÐµÐ½ÐµÑĢ
ÑĩÐ¸Ð» Ð°Ñħ
ÑĩÐ¸Ð» Ð´Ð¾Ð³
ÑĩÐ¸Ð» Ð´Ó©Ð³
ÑĥÐ¼ Ð°
Ð°Ðº ÑĥÐ»ÑĮÑĤ
ÐµÐº Ð¸Ð¹Ð½
Ðĸ ÐµÑĢ
Ðĸ ÑįÐ¹
Ðĸ Ð°Ðº
Ðĸ Ò¯Ð¶Ð¸Ð³
Ðĸ Ð°Ð¼Ð±ÑĭÐ½
ĠÑħÐ¸Ð¹ Ð»
ĠÑħÐ¸Ð¹ ÑģÐ½Ð¸Ð¹
Ð¸Ð¶ Ð¸
Ò¯Ò¯Ñģ Ð³
Ò¯Ò¯Ñģ ÑįÑįÑĢ
ĠÐ¡ Ð¾ÑĳÐ»ÑĭÐ½
ĠÐ¡ ÑĤÐ°Ð»Ð¸Ð½
ĠÐ¡ ÑįÐ»ÑįÐ½Ð³Ñį
ĠÐ±Ð°Ð¹Ð³ÑĥÑĥÐ» Ð°Ð»ÑĤÑĭÐ½
ÐĽ Ð¾ÑĢ
ÐĽ Ð¸ÑĤ
ÐĽ ÐµÐ²
ÐĽ Ð¸Ð½ÑĮ
ÐĽ Ð¸Ð²ÐµÑĢÐ¿Ò¯Ò¯Ð»
ÑįÑĤÐ³ ÑįÐ»ÑĨ
Ð²ÑįÑĢ Ð¸Ð¹Ð³
Ð½Ð¾ Ðº
ĠÑıÐ² Ð°Ð°Ð½Ð´Ð°Ð°
ÑĩÐ´ ÑįÐ»
ÑĩÐ´ Ð¾Ð³
ÑĩÐ´ Ð°Ð°Ñģ
ĠÐ¾Ð»Ð¾Ð½ Ñħ
Ð¸Ð· Ð¾Ð¼ÐµÑĢ
Ð»ÑįÑħ ÑįÑįÑģ
ĠÓ©Ð³ Ò¯Ò¯Ð»ÑįÑħ
ĠÑĤÑĥÑģ ÑĭÐ½
ĠÑĤÑĥÑģ Ð°Ð»Ð´Ð°Ð³
ĠÑĤÑĥÑģ Ð°Ð»ÑģÐ°Ð½
Ð»Ð¾Ð³ Ð´Ð¾Ð³
ĠÐ¢ Ð¾Ð½
ĠÐ¢ Ò¯Ð¼
Ð¾ÑĳÑĢ Ð´ÑĥÐ³Ð°Ð°ÑĢ
Ò¯Ò¯Ñħ Ð¸Ð¹Ð½
ĠÐ±Ò¯ÑĤ ÑįÑįÐ´ÑįÐ³
ĠÐ°Ð» Ð°Ð³
ĠÐ°Ð» Ð³Ð°Ñģ
Ò¯Ð» ÑħÑįÐ½
ĠÑĤÐ°Ð» ÑĥÑĥÐ´
ĠÑĤÐ°Ð» Ð°ÑĢÑħ
ĠÐ¸ÑĢ Ð¼
Ð°Ð°Ð» ÑĮ
Ð¦ ÑįÑĢÐ³
Ð¦ ÐĲÐľ
Ð³Ð°Ð½ Ð³Ð°
ĠÐ±Ñĥ ÑıÐ½Ñĭ
Ð¾Ð»Ð´ Ð°Ð²
ÑģÐ½ ÑįÑįÑĢÑįÑį
ĠÐ¸Ð» ÑĤÐ³ÑįÐ»
ĠÐ¸Ð» ÑĤÐ³ÑįÐ½Ñį
Ð³Ð°ÑĢ Ð³
Ð³Ð°ÑĢ Ð°Ð»ÑĤÑĭÐ½
Ð³Ð°ÑĢ Ð°Ð»ÑĤÐ°Ð¹
ĠÐĶ Ð°Ð²
ĠÐĶ Ð°ÑĪ
Ðł ÐµÐº
Ðł ÐµÐ³
Ðł ÐµÐ¿
Ðł ÐĶÐ¢
Ð§ ÑĥÐ»
Ð§ Ð°ÑĢÐ»ÑĮÐ·
Ð¸Ð² Ð¾
ĠÐ» Ð°Ð»ÑĭÐ½
ĠÐļ Ð¾Ð»
ĠÐļ Ð¾ÑĢ
ĠÐļ ÑĥÐ±
ĠÐļ Ð°Ð¼Ð±Ð¾Ð¶
on ic
ÐĴ ÐµÑĢ
ÑĥÐ³ Ð²
Ð»Ð°Ñħ Ð°Ð°ÑĢ
Ð»Ð°Ñħ Ð°Ð°Ñģ
ĠÐ±Ð¾Ð»Ð¾Ñħ Ð¾Ð¾Ñģ
Ð´Ð¾Ð³ Ð³Ò¯Ð¹
Ð¤ Ð°Ð¹Ð»
Ð¤ Ð¾ÑģÑĦ
ĠÓ©ÑĢ Ð³Ó©ÑĢ
ĠÓ©ÑĢ Ó©Ó©Ð½Ð´
Ð¸Ñĩ Ð¸ÑĢ
Ð¸Ñĩ Ð³ÑįÐ½Ñį
ĠÑħÐ¾ÑĳÑĢ ÑĤ
ĠÐ½Ð¸Ð¹ ÑģÐ»ÑįÐ»Ð¸Ð¹Ð½
Ð³ÑįÑĢ ÑįÑį
ĠÐ·Ð¾ÑħÐ¸ Ð¾Ð³Ð´ÑģÐ¾Ð½
ĠÐĵ Ð¾Ð¼
ĠÐĵ Ð°Ð·Ð°ÑĢ
ÐµÐ½ÑĤ Ð¸Ð¹Ð½
ĠÐ±ÑĥÑģ ÑĭÐ½
ĠÐ±ÑĥÑģ Ð´ÑĭÐ½
ĠÐ±ÑĥÑģ Ð´Ð°Ð°Ñģ
Ð¾Ðº Ð°
ĠÑĦ Ð¾ÑĢÐ¼
ĠÑĦ ÐµÑģÑĤÐ¸Ð²
ÑħÐ°ÑĢ ÑĬÑı
ĠÑħÐ¾ÑĤ Ð½Ð¾Ð¾
ĠÑĢ ÑĥÑĤÐµÑĢ
ĠÑĢ ÐµÑĨÐµÐ¿ÑĤÐ¾ÑĢ
ĠÑĤÐ¾Ð´ Ð¾ÑĤÐ³
ÑįÑĨ ÑįÐ³
Ð±Ð°Ð¹ ÑĤ
Ð±Ð°Ð¹ ÑĨ
Ð±Ð°Ð¹ Ð´Ð°Ð³
Ð±Ð°Ð¹ Ð½Ð°
ĠÐ£ Ð½
ĠÐ£ ÑħÐ°Ð°Ð½Ñĭ
ĠÐ£ Ð¹Ð³ÑĥÑĢ
ĠÐ£ ÐĺÐ¥
ĠÐ³Ð¾Ð» Ð¾Ð¾ÑĢ
Ð°Ð¹Ð¼ Ð³Ð¸Ð¹Ð½
ĠÑĤÐ¾Ð³ÑĤ Ð¾Ð»ÑĨ
ĠÑĤÐ¾Ð³ÑĤ Ð¾Ð¾Ð³Ð´
ĠÑĥÐ´ Ð°Ð¼
ĠÑĥÐ´ Ð°ÑħÐ³Ò¯Ð¹
ĠÒ¯Ð½Ð´ ÑģÐ¸Ð¹Ð³
ĠÐ¾Ð¹ Ð³
ĠÐ¾Ð¹ ÑĢÑĭÐ½
ĠÐ¾Ð¹ Ð»Ð³ÑĥÑĥÐ»
Ð¸Ð»Ð³ Ð°Ð°Ð½
ĠÑĩÐ°Ð´ Ð°Ð»Ð³Ò¯Ð¹
ĠÐ·Ð°Ñģ Ð°Ñħ
ĠÐ·Ð°Ñģ Ð³Ð¸Ð¹Ð³
ĠÑĤÐ¾Ð³Ð» Ð¾Ð¶ÑįÑį
ĠÐ±Ð¾Ð»Ð³ Ð¾ÑħÐ¾Ð´
Ð±ÑįÑĢ Ñħ
Ð±ÑįÑĢ ÑįÐ»ÑĤ
ĠÓ©Ð¼ ÑģÐ³Ó©Ð»
ÑħÐ½ Ð°Ð°
ĠÑĤÑĥÑħ Ð°Ð¹Ð´
ÑĢÐ°Ð¼ Ð´
ar iae
ĠÐŁ Ð»
ĠÐŁ Ð°ÑĤ
ĠÐŁ Ð°ÑĢÐº
ĠÐŁ ÐµÑĢÑģ
ĠÐŁ Ð»Ð°ÑĤ
ĠÐ³ÑįÑĢ Ð»Ð¸Ð¹Ð³
ÐµÐ² ÑĢÐ¾Ð¿
ĠÑħÑįÐ¼Ð¶ÑįÑį ÑģÑĤ
ÑĮÑİ ÐºÑĥÐº
ĠÐŀ Ñģ
Ò¯Ò¯Ð´Ð¸Ð¹Ð½ ÑħÑįÑį
Ð¼Ð°ÑĢ Ð´ÑĭÐ½
Ð¼Ð°ÑĢ Ð³Ð°Ð°Ð½
ÑįÐ³Ð´ Ð»Ð¸Ð¹Ð½
ĠÐ±Ð¾Ð´ ÑģÐ¾Ð½
ĠÐ±Ð¾Ð´ Ð»ÑĭÐ³
ĠÐ±Ð¾Ð´ Ð¾Ð»ÑĤÐ¾Ð¹
ĠÑıÐ» Ð³Ð°Ð²
ÑĢÐ¸ Ð°Ð½
ĠÐ±Ð°Ð¹ÑĢ ÑĪÐ¸Ð»
Ð¥Ð°ÑĢ Ð°Ð¼ÑģÐ°Ð»ÑĤÐ°Ð¹
ĠÐ³Ð°Ð´ Ð°Ñģ
ĠÐ·Ò¯Ð¹Ð» ÑĤÑįÐ¹
ĠÐ·Ò¯Ð¹Ð» ÑģÐ¸Ð¹Ð½
ĠÑĤÐ¾Ð´Ð¾ÑĢÑħÐ¾Ð¹ Ð»Ð¾Ð³Ñĩ
ĠÑĤÐ¾Ð´Ð¾ÑĢÑħÐ¾Ð¹ Ð»Ð¾Ð³Ð´ÑģÐ¾Ð½
ĠÑħÑĥÑĢ Ð°Ð»Ð´Ð°Ð°Ð½
ĠÑģÐ¸ÑģÑĤÐµÐ¼ ÑĤÑįÐ¹
ĠÑģÐ¸ÑģÑĤÐµÐ¼ Ò¯Ò¯Ð´Ð¸Ð¹Ð½
Ð¸Ð½Ð³ Ð¾
Ð»Ð°Ð» Ð°Ð°Ñģ
Ð»Ð°Ð³Ð´ Ð°Ð°Ð³Ò¯Ð¹
Ò¯Ð³ Ð´ÑįÐ½
ĠÐ° ÑĥÐ³Ð°Ð°
ĠÐµ ÑģÓ©Ð½
ÑįÑįÐ³ Ð´ÑģÑįÐ½
ÑįÑįÑħ Ð¸Ð¹Ð³
al e
ĠÐĽ Ð¸Ð³Ð¸Ð¹Ð½
ĠÐĽ ÐµÐ¾Ð½
ĠÐĽ Ð°ÑĤÐ¸Ð½
ÑħÐ°Ð¼ ÑĤÑĢ
es e
es ter
Ð´Ó©ÑĢ Ó©Ð²
ĠÐ¼ÑįÐ´ÑįÑįÐ» Ð»Ò¯Ò¯Ð´Ð¸Ð¹Ð³
ĠÑħÐ°Ð¼ÑĤ Ð»Ð°Ð³ÑĭÐ½
ĠÑħÐ°Ð°Ð½ Ð°Ð°Ñģ
ĠÑħÐ°Ð°Ð½ ÑĩÐ»Ð°Ð»ÑĭÐ½
ÐµÐ´ Ð¾Ð½Ñĭ
ÐµÐ´ ÐµÑģ
Ð¸Ð°Ð» Ð°Ð³Ñĩ
ĠÐ´Ð°Ð² ÑģÐ°Ð½
ĠÐ°Ð»Ð´ Ð°Ñħ
ĠÐŃ Ñħ
ÐĲÑĢ ÑĤ
Ð°ÑģÐ°Ð½ Ð´
ÑĤÑįÐ½ ÑħÐ¸Ð¼
Ó©Ó©Ñģ Ð½Ð¸Ð¹
Ð¸Ð³Ð´ Ð°Ð½
Ð¸Ð³Ð´ ÑįÐ¶
Ð°Ð± Ð°Ð´
ĠÐ¾ÑĢÐ¾Ð»ÑĨ Ð¾Ð¾
ĠÐ¾ÑĢÐ¾Ð»ÑĨ Ð¾Ð½Ð¾
Ð¾ÑĪ Ð³Ò¯Ð¹
ĠÑĤÓ©Ð² Ó©Ð³ÑĤÑįÐ¹
ĠÑħÐ¾ÑĢ Ð¾Ð¾Ð½Ñĭ
ĠÑħÐ¾Ð¹ Ñĩ
ĠÒ¯Ð¹Ð»Ð´Ð²ÑįÑĢ Ð»ÑįÐ´ÑįÐ³
ĠÒ¯Ð¹Ð»Ð´Ð²ÑįÑĢ Ð»ÑįÑģÑįÐ½
ĠÒ¯Ð¹Ð»Ð´Ð²ÑįÑĢ Ð»ÑįÐ³Ð´ÑįÐ¶
ĠÓ©Ð½Ð´Ó©ÑĢ Ð»
ic h
Ð¸Ð½Ð´ ÐµÐºÑģ
ĠÑģÐ°Ð» Ð°Ð½Ð³Ð¸Ð´
ĠÐł ÐµÐ½
ĠÐł Ð¾Ð±ÐµÑĢÑĤ
ĠÑĪÐ¸Ð½Ñį ÑĩÐ»ÑįÐ½
ĠÐ¨ Ð°ÑĢ
ĠÐ¨ Ð¾ÑĤÐ»Ð°Ð½Ð´ÑĭÐ½
Ð±Ð¾Ð» Ð¾Ñħ
ĠÐĴ Ð°Ð½ÑĤ
ĠÐĴ Ð¸Ð·Ð°Ð½ÑĤ
ĠÑĤÐ°Ð² ÑĮÐ´Ð°Ð³
Ð°Ð³Ð½ Ð°Ð°Ñģ
Ð±ÑįÐ» ÑįÐ³
Ð±ÑįÐ» ÑĤÐ³ÑįÐ»
ĠÑĪÐ¸Ð½Ð¶ Ð¸Ð¹Ð³
ĠÑĪÐ¸Ð½Ð¶ Ð»ÑįÐ½
Ð°Ð¿ ÑĤÐµÑĢ
ĠÐ´ÑĥÑĢ Ð°Ð°ÑĢ
ĠÐ´ÑĥÑĢ Ð³Ò¯Ð¹ÑĨ
ĠÐ´ÑĥÑĢ Ð´Ð°Ð¶
ĠÐ°Ð¹Ð¼ Ð³ÑĥÑĥÐ´ÑĭÐ½
ÑįÐ»Ð´ Ò¯Ò¯Ð»ÑįÑħ
ĠÐ¼Ð¾Ð½Ð³Ð¾Ð» Ð´
ĠS p
ĠS ch
ĠS ystem
ĠÐ½ÑįÐ³ÑįÐ½ ÑĤ
ÐŀÑĢ Ð³Ð°Ð½
Ð¾Ð¿ ÑĭÐ½
Ð¾Ð¿ Ð¿
ĠÐ´Ò¯ÑĢ Ð²
ĠÐ´Ò¯ÑĢ Ð¸Ð¹Ð½
ĠÐ´Ò¯ÑĢ ÑģÐ¸Ð¹Ð³
ĠÑģÑįÑĤÐ³ ÑįÐ»Ð´
ĠÑĪÐ¸Ð» Ð¶Ð¸Ð»ÑĤ
ĠÑĪÐ¸Ð» Ð¶Ò¯Ò¯Ð»ÑįÑħ
ĠÑĪÐ¸Ð» Ð¶Ð¸Ð»ÑĤÐ¸Ð¹Ð½
ĠÐ¤ Ð¸Ð½
ĠÐ¤ Ð¾ÑĢÐ¼ÑĥÐ»Ð°
Ð³Ð°Ñħ Ð°Ð°ÑĢ
Ð±Ð°Ð° ÑĤÐ°Ð¹
Ð¾Ð± ÑĬÐµÐºÑĤ
Ð½ÑįÑįÑģ ÑįÑį
Ò¯Ð· ÑįÑģÐ³ÑįÐ»
ÑħÑįÐ» Ð¶
ÑĪÐ¸Ð³ ÑĩÐ´ÑĭÐ½
ĠÑģÑĥÑĥÑĢ Ð¸Ð½Ð´
ĠÐ½ÑĥÑĤÐ°Ð³ Ð»Ð°Ð´Ð°Ð³
ĠÑħÐ°Ð½Ð³ Ð°ÑħÑĭÐ½
ĠÐ¼Ó©ÑĢ Ð³Ó©Ð»Ð´
ĠÐ´Ð°Ð¼Ð¶ ÑĥÑĥÐ»Ð¶
ĠÐ·Ð°Ð³ Ð°ÑģÐ½Ñĭ
ĠC isco
Ð°Ð½ÑĤ Ð¸Ðº
Ð°Ð½ÑĤ ÑĢÐ¾Ð¿
ÑĶ Ð»ÑĶÑĶ
Ò¯Ð´ Ð¾
Ò¯Ð´ ÑįÐ´
ÑģÐº Ð¾
Ð»ÑįÑį Ð³Ò¯Ð¹
at es
at ing
at ch
at ew
ĠÐ°Ð»Ð± Ð°Ð½Ñĭ
ĠÑħÒ¯Ð½Ð´ ÑĢÑįÐ»ÑĤÑįÐ¹
ĠÐ´Ð°Ð³ ÑĥÑĥÐ»
ÑĢÐ¾Ð¿ Ð¾ÑĢÑĨ
ĠÐ¸Ð»Ò¯Ò¯ ÑĤÑįÐ¹
ĠÑģÐ¾Ð½Ð³ Ð¾ÑģÐ¾Ð½
ĠÑģÐ¾Ð½Ð³ Ð¾Ð³Ð´Ð´Ð¾Ð³
is m
ĠÐ§ ÐµÑĩÐµÐ½
Ò¯Ñħ Ò¯ÑĢ
ĠÑĪÐ¸Ð¹ Ð´
ĠÑĪÐ¸Ð¹ Ð´ÑģÑįÐ½
ĠÑĪÐ¸Ð¹ Ð´ÑįÐ¶
ÐĲÐ¼ Ð¸Ð½
ÐĲÐ¼ Ð°Ð·Ð¾Ð½
ĠÐ¿ÑĢÐ¾Ð³ÑĢÐ°Ð¼ ÑĥÑĥÐ´
ĠÐ¿ÑĢÐ¾Ð³ÑĢÐ°Ð¼ ÑĩÐ»Ð°Ð»ÑĭÐ½
ĠÐ±Ò¯ÑĤÑįÑįÐ» Ð´
ĠÐ±Ò¯ÑĤÑįÑįÐ» Ð´ÑįÑį
ĠÐ±Ò¯ÑĤÑįÑįÐ» ÑĩÐ¸Ð´
ĠÐ±Ò¯ÑĤÑįÑįÐ» ÑĩÐ´Ð¸Ð¹Ð½
ĠÑĤÑįÐ¼Ð´ÑįÐ³ Ð»ÑįÐ½
Ð´Ð°ÑĢ Ð¶
Ð´Ð°ÑĢ Ð°Ð½Ð³ÑĥÐ¹
ĠÐ±ÑįÐ» ÑĤÐ³ÑįÑħ
ĠÐ°Ð½Ð³ Ð¸ÑĤ
ro b
ÑħÑįÑĢÑįÐ³ Ñģ
ÑħÑįÑĢÑįÐ³ ÑĨ
ÑħÑįÑĢÑįÐ³ ÑģÐ»
ÑħÑįÑĢÑįÐ³ Ð»ÑįÐ³Ñĩ
ÑĥÑĥÐ»Ð°Ð»ÑĤ Ð°Ð°ÑĢ
ÑĥÑĥÐ»Ð°Ð»ÑĤ Ð°Ð½Ð´
ĠÑħÐ°ÑĢÐ¸Ð»ÑĨ Ð°Ð¶
ÐµÑĢÑĤ Ð¸Ð¹Ð½
Ð¢ÑįÐ´ Ð½Ð¸Ð¹Ð³
ĠÐ±Ð°Ð³ÑĤ Ð°Ð°Ð¶
ÑħÒ¯ ÑĩÐ»
ÑħÒ¯ ÑģÑįÐ»
ĠA d
ĠÑĤÒ¯Ò¯Ð½Ð¸Ð¹Ð³ ÑįÑį
ÑģÑĥÑĢ Ð³
ÑģÑĥÑĢ Ð³Ð°Ð»ÑĤ
ĠÑĤÑįÐ¼ÑĨ Ð»Ð¸Ð¹Ð½
Ð¸Ð± Ð¸
Ð¸Ð± Ð·ÑĥÐ½Ð´
ÑħÑįÐ½ Ð¸Ð¹Ð³
ÑĥÑĪ Ð°Ð½Ñĭ
ÑħÒ¯ÑĢ ÑįÐ½
ÑħÒ¯ÑĢ ÑįÑįÐ»
Ð°ÑĢÐ» Ð°ÑģÐ°Ð½
ĠÑĥÐ½ Ð°Ð³
Ð¸Ð¼Ð¿ Ð¾ÑĢÑĤ
ĠÑĨÑįÑĢÑįÐ³ ÑĤÑįÐ¹
ÑĥÐ± ÑĬÐµÐºÑĤ
Ð¼ÑįÐ» ÑħÐ¸Ð¹
ĠÑĤÐ°ÑĤ Ð°Ð°ÑĢ
ĠÑĤÐ°ÑĤ Ð´Ð°Ð³
ĠÑĤÐ°ÑĤ Ð²Ð°ÑĢÑĭÐ½
ĠÑĤÐ°ÑĤ Ð³Ð°Ð»Ð·Ð°Ñħ
Ð°Ð°Ñħ Ð°Ð°ÑĢ
Ð°Ð°Ñħ ÑĭÐ³
ĠÑģÒ¯Ò¯Ð» Ð´ÑįÑį
ĠÐ°Ð¼Ð¶Ð¸Ð»ÑĤ Ð°Ð½Ð´
ĠÐ´Ð°Ð» Ð°Ð¹Ð³
ĠÑģÒ¯Ð»Ð¶ÑįÑį Ð³ÑįÑįÑĢ
ĠÐ±Ð¾Ð»Ð´Ð¾Ð³ Ð³Ò¯Ð¹
Ð°Ð½Ð¶ Ð°ÑĢÐ³Ð°Ð»
ĠÐ¾ÑĢÐ¾Ð½ Ñĩ
ĠÓ©Ó©ÑĢÑĩÐ» Ó©Ð½
ĠÓ©Ó©ÑĢÑĩÐ» Ó©Ð³Ð´Ó©Ð¶
ĠÐ¸Ð´ ÑįÑħ
ĠÐķ Ð²
ĠÐķ Ð³Ð¸Ð¿ÐµÑĤ
Ò¯ÑĢÑįÐ½ Ð³Ð¸Ð¹Ð½
ÑĤÓ©ÑĢ Ð¸Ð¹Ð½
ÑĤÓ©ÑĢ Ó©Ð³Ñĩ
ĠÑħÐ°Ð» ÑĮÑģ
ĠÐ½Ð¾Ð¼ Ð¾Ð½Ð´Ð¾Ð¾
ĠÐ½Ó©Ñħ Ó©ÑĢÐ»
ĠÐ¿ÑĢÐ¾ÑĨÐµÑģÑģ Ð¸Ð¹Ð½
ĠÐ¿ÑĢÐ¾ÑĨÐµÑģÑģ ÑĥÑĥÐ´
ĠÐ³Ò¯Ð¹ÑĨÑįÑĤÐ³ ÑįÐ»
ĠÐ³Ò¯Ð¹ÑĨÑįÑĤÐ³ ÑįÐ»Ð¸Ð¹Ð½
ÐµÑģÑĤ ÑĢ
ĠÐ±Ð¾Ð»Ð¾Ð²ÑģÑĢ Ð¾Ð»ÑĭÐ³
ÐµÑĤÑĢ Ð¾Ð²
ÑĥÑı Ð»Ð´
ÑħÑĥÑĢ ÑĨ
ĠÑĤÐ°Ð½ Ð¸Ð»
ĠÑĤÐ°Ð½ Ð¸Ð³Ð´ÑģÐ°Ð½
ÑįÐ· ÑįÐ½ÑĤ
ÑģÐ» Ð°Ð²
ĠÑĤÑĥÑĢ ÑĪÐ¸Ð»ÑĤÑĭÐ½
Ð±Ð°Ð³ Ð°
ĠÐ³Ð¸ÑĪ Ò¯Ò¯Ð´Ð¸Ð¹Ð½
ĠM an
Ð¾ÑģÑĤ Ð¾Ð»
Ð¾ÑģÑĤ ÑĭÐ½
ĠÑĤÐ°ÑĢ ÑĮÐ¶
Ð¾ÑĢÐ´ Ð¾Ð´
Ð±Ò¯ÑĢ Ð³ÑįÐ´
ÑĢÐ°Ð´ ÐµÑĪ
Ð·Ð°ÑĢ Ð¸Ð¼
ĠÓ¨ Ð»Ð·Ð¸Ð¹
Ð¸ÑĨ ÑĭÐ½
ĠÓ©Ð´Ó©ÑĢ ÑĤ
ĠÐ¯ Ð½
ÑĪÐ¸Ñħ ÑĭÐ³
ĠÑĤÑįÑĢÐ³ Ò¯Ò¯Ð½Ð¸Ð¹
ĠÑĤÑįÑĢÐ³ Ò¯Ò¯Ð»Ð´ÑįÐ³
ÑĥÑĥÐ»Ð°Ð³Ñĩ Ð°Ð°ÑĢ
ĠÐ¼Ð¾Ð´ Ð¾Ð¾ÑĢ
ĠÐ°Ð²Ð°Ñħ Ð°Ð°ÑĢ
Ò®Ò¯Ð½ ÑĤÑįÐ¹
ĠÐ½Ð°Ð¹ÑĢ ÑĥÑĥÐ»ÑģÐ°Ð½
ĠÑħÐ°Ð´Ð³Ð°Ð» Ð°Ð³Ð´Ð°Ð¶
ĠÑħÐ°Ð½Ð´ Ð»Ð°Ð³Ð°ÑĤÐ°Ð¹
Ð±Ð¸Ñĩ Ð³Ð¸Ð¹Ð½
Ð±Ð¸Ñĩ Ð»ÑįÐ³
ĠT LR
Ð¾Ð· ÐµÑĦ
ĠÑĩÑĥÐ» ÑĥÑĥÐ½Ñĭ
ÐĶÐ°ÑĢ Ð°Ð°Ñħ
ĠÓ©Ñģ Ð³Ó©Ð¶
ĠÓ©Ñģ Ð²Ó©ÑĢ
ĠÐ±ÑĥÐ» Ð°Ð½
ĠÐ±ÑĥÐ» Ð°Ð³
ÑĨÐ°Ð³ Ð°Ð°
ĠÑħÒ¯Ð» ÑįÑįÑħ
ÑĥÑĥÐ´ÑĤÐ°Ð¹ Ð³Ð°Ð°
Ò¯Ò¯Ð»ÑįÐ»ÑĤ Ð¸Ð¹Ð³
Ò¯Ò¯Ð»ÑįÐ»ÑĤ ÑĤÑįÐ¹
ĠÐºÐ¾Ð¼ Ð¼Ð°Ð½Ð´
ĠÐºÐ¾Ð¼ Ð¸ÑģÑģ
Ð½Ò¯Ò¯Ð´ ÑĤÑįÐ¹
ĠÑħÑĥÐ´Ð°Ð»Ð´ Ð°Ð¶
ĠÑħÑĥÐ´Ð°Ð»Ð´ Ð°Ð°Ð»
il d
ÑĦÑĢ Ð¾Ð½
ÑĦÑĢ ÑįÐ¹Ð¼
ÑĤÐ¾Ð³ Ð»Ð¾Ð³Ñĩ
ĠÐ½ÑĥÑĤÐ³Ð¸Ð¹Ð½ ÑħÐ°Ð½
th read
Ò¯Ò¯Ð»ÑįÐ³ ÑĩÐ¸Ð¹Ð½
ir us
ÑĥÐ· ÐµÑĢ
ÑĤÑįÑĢ Ñĩ
ÑħÐ°Ð¹ Ñĩ
ĠÐ·ÑĥÑĢÐ°Ð³ ÑĤÐ°Ð¹
ÐľÐ°ÑĢ Ð¸
ÐľÐ°ÑĢ ÐºÑģ
ĠG en
ĠG reen
ĠÐ¾Ð² Ð¾Ð¾
ÐµÑĢÐ½ ÐµÑĢ
ĠÑĪÐ°Ð³Ð½ Ð°Ð»Ð´
ĠÑĤÐ¾Ð¾ÑĨ Ð¾Ð¶
ĠÑĤÐ¾ÑħÐ¸ÑĢ ÑĥÑĥÐ»Ð¶
ĠÐ±Ð°Ð¹Ð³Ð°Ð°Ð³ Ð°Ð°Ñģ
ĠÑĥÑĩÑĢ ÑĭÐ³
ÐĲÐ² Ð¸Ð²
ÐĲÐ² ÑģÑĤÑĢÐ¸
ÐĲÐ² Ð³ÑĥÑģÑĤ
ĠÐĲÐ» ÑĤÐ°Ð¹
ĠÐĲÐ» ÑĤÐ°Ð¹Ð½
ĠÑĥÑĥÑĢ ÑħÐ°Ð¹Ð½
ĠÐĲÑĢ Ð´
ĠÑħÑıÐ½ Ð°Ð¶
ĠÑħÑıÐ½ Ð°Ð´Ð°Ð³
ÑħÐ¾Ð»Ð± Ð¾Ð¾Ñģ
ĠÑħÒ¯ÑĩÐ¸Ð½ Ð´
ĠÑħÒ¯ÑĩÐ¸Ð½ ÑĤÑįÐ¹
ĠÐ±ÑĥÑĨ Ð»Ð°Ñħ
ĠÑĤÒ¯Ð¼ ÑįÐ½Ð´
Ð·Ð¾ÑħÐ¸ Ð¾Ð¼Ð¶
Ð»Ð°Ð³Ñĩ Ð°Ð°ÑĢ
un iper
ĠÐ±ÑĥÑĢ ÑħÐ°Ð½Ñĭ
Ð·Ð°Ñħ Ð¸Ð´
Ð·Ð°Ñħ Ð¸Ð°Ð»
ÐĳÑĢ Ð¸Ð´Ð¶ÑģÑĤÐ¾ÑĥÐ½
ÐĳÑĢ ÐµÐ¶Ð½
ĠÑĨÑįÑĢÐ³ ÑįÑįÑģ
lo g
lo s
ur a
ĠÐ´ÑĥÐ³Ð°Ð°ÑĢ ÑĤ
ĠÑħÒ¯Ñģ Ñĩ
ĠÑħÒ¯Ñģ ÑįÐ»ÑĤÐ¸Ð¹Ð³
Ð¨Ð¸Ð½ ÑĮ
Ð±ÑĥÐ» ÑĩÐ¸ÑĢ
ĠÑĥÑĢÐ³Ð°Ð¼ Ð°Ð»Ð´
[...]
